{
  "version": "1.0",
  "truncation": {
    "direction": "Right",
    "max_length": 126,
    "strategy": "LongestFirst",
    "stride": 0
  },
  "padding": {
    "strategy": {
      "Fixed": 126
    },
    "direction": "Right",
    "pad_to_multiple_of": null,
    "pad_id": 0,
    "pad_type_id": 0,
    "pad_token": "[PAD]"
  },
  "added_tokens": [
    {
      "id": 0,
      "content": "[PAD]",
      "single_word": false,
      "lstrip": false,
      "rstrip": false,
      "normalized": false,
      "special": true
    },
    {
      "id": 1,
      "content": "[UNK]",
      "single_word": false,
      "lstrip": false,
      "rstrip": false,
      "normalized": false,
      "special": true
    }
  ],
  "normalizer": null,
  "pre_tokenizer": {
    "type": "ByteLevel",
    "add_prefix_space": false,
    "trim_offsets": true,
    "use_regex": true
  },
  "post_processor": null,
  "decoder": null,
  "model": {
    "type": "BPE",
    "dropout": null,
    "unk_token": "[UNK]",
    "continuing_subword_prefix": null,
    "end_of_word_suffix": null,
    "fuse_unk": false,
    "byte_fallback": false,
    "ignore_merges": false,
    "vocab": {
      "[PAD]": 0,
      "[UNK]": 1,
      "!": 2,
      "\"": 3,
      "#": 4,
      "$": 5,
      "%": 6,
      "&": 7,
      "'": 8,
      "(": 9,
      ")": 10,
      "*": 11,
      "+": 12,
      ",": 13,
      "-": 14,
      ".": 15,
      "/": 16,
      "0": 17,
      "1": 18,
      "2": 19,
      "3": 20,
      "4": 21,
      "5": 22,
      "6": 23,
      "7": 24,
      "8": 25,
      "9": 26,
      ":": 27,
      ";": 28,
      "<": 29,
      "=": 30,
      ">": 31,
      "?": 32,
      "@": 33,
      "A": 34,
      "B": 35,
      "C": 36,
      "D": 37,
      "E": 38,
      "F": 39,
      "G": 40,
      "H": 41,
      "I": 42,
      "J": 43,
      "K": 44,
      "L": 45,
      "M": 46,
      "N": 47,
      "O": 48,
      "P": 49,
      "Q": 50,
      "R": 51,
      "S": 52,
      "T": 53,
      "U": 54,
      "V": 55,
      "W": 56,
      "X": 57,
      "Y": 58,
      "Z": 59,
      "[": 60,
      "\\": 61,
      "]": 62,
      "^": 63,
      "_": 64,
      "`": 65,
      "a": 66,
      "b": 67,
      "c": 68,
      "d": 69,
      "e": 70,
      "f": 71,
      "g": 72,
      "h": 73,
      "i": 74,
      "j": 75,
      "k": 76,
      "l": 77,
      "m": 78,
      "n": 79,
      "o": 80,
      "p": 81,
      "q": 82,
      "r": 83,
      "s": 84,
      "t": 85,
      "u": 86,
      "v": 87,
      "w": 88,
      "x": 89,
      "y": 90,
      "z": 91,
      "{": 92,
      "|": 93,
      "}": 94,
      "~": 95,
      "¡": 96,
      "¢": 97,
      "£": 98,
      "¤": 99,
      "¥": 100,
      "¦": 101,
      "§": 102,
      "¨": 103,
      "©": 104,
      "ª": 105,
      "«": 106,
      "¬": 107,
      "®": 108,
      "¯": 109,
      "°": 110,
      "±": 111,
      "²": 112,
      "³": 113,
      "´": 114,
      "µ": 115,
      "¶": 116,
      "·": 117,
      "¸": 118,
      "¹": 119,
      "º": 120,
      "»": 121,
      "¼": 122,
      "½": 123,
      "¾": 124,
      "¿": 125,
      "À": 126,
      "Á": 127,
      "Â": 128,
      "Ã": 129,
      "Ä": 130,
      "Å": 131,
      "Æ": 132,
      "Ç": 133,
      "È": 134,
      "É": 135,
      "Ê": 136,
      "Ë": 137,
      "Ì": 138,
      "Í": 139,
      "Î": 140,
      "Ï": 141,
      "Ð": 142,
      "Ñ": 143,
      "Ò": 144,
      "Ó": 145,
      "Ô": 146,
      "Õ": 147,
      "Ö": 148,
      "×": 149,
      "Ø": 150,
      "Ù": 151,
      "Ú": 152,
      "Û": 153,
      "Ü": 154,
      "Ý": 155,
      "Þ": 156,
      "ß": 157,
      "à": 158,
      "á": 159,
      "â": 160,
      "ã": 161,
      "ä": 162,
      "å": 163,
      "æ": 164,
      "ç": 165,
      "è": 166,
      "é": 167,
      "ê": 168,
      "ë": 169,
      "ì": 170,
      "í": 171,
      "î": 172,
      "ï": 173,
      "ð": 174,
      "ñ": 175,
      "ò": 176,
      "ó": 177,
      "ô": 178,
      "õ": 179,
      "ö": 180,
      "÷": 181,
      "ø": 182,
      "ù": 183,
      "ú": 184,
      "û": 185,
      "ü": 186,
      "ý": 187,
      "þ": 188,
      "ÿ": 189,
      "Ā": 190,
      "ā": 191,
      "Ă": 192,
      "ă": 193,
      "Ą": 194,
      "ą": 195,
      "Ć": 196,
      "ć": 197,
      "Ĉ": 198,
      "ĉ": 199,
      "Ċ": 200,
      "ċ": 201,
      "Č": 202,
      "č": 203,
      "Ď": 204,
      "ď": 205,
      "Đ": 206,
      "đ": 207,
      "Ē": 208,
      "ē": 209,
      "Ĕ": 210,
      "ĕ": 211,
      "Ė": 212,
      "ė": 213,
      "Ę": 214,
      "ę": 215,
      "Ě": 216,
      "ě": 217,
      "Ĝ": 218,
      "ĝ": 219,
      "Ğ": 220,
      "ğ": 221,
      "Ġ": 222,
      "ġ": 223,
      "Ģ": 224,
      "ģ": 225,
      "Ĥ": 226,
      "ĥ": 227,
      "Ħ": 228,
      "ħ": 229,
      "Ĩ": 230,
      "ĩ": 231,
      "Ī": 232,
      "ī": 233,
      "Ĭ": 234,
      "ĭ": 235,
      "Į": 236,
      "į": 237,
      "İ": 238,
      "ı": 239,
      "Ĳ": 240,
      "ĳ": 241,
      "Ĵ": 242,
      "ĵ": 243,
      "Ķ": 244,
      "ķ": 245,
      "ĸ": 246,
      "Ĺ": 247,
      "ĺ": 248,
      "Ļ": 249,
      "ļ": 250,
      "Ľ": 251,
      "ľ": 252,
      "Ŀ": 253,
      "ŀ": 254,
      "Ł": 255,
      "ł": 256,
      "Ń": 257,
      "Ġt": 258,
      "Ġa": 259,
      "in": 260,
      "er": 261,
      "he": 262,
      "Ġs": 263,
      "on": 264,
      "re": 265,
      "Ġthe": 266,
      "Ġc": 267,
      "Ġo": 268,
      "ed": 269,
      "an": 270,
      "Ġw": 271,
      "es": 272,
      "Ġf": 273,
      "or": 274,
      "it": 275,
      "Ġb": 276,
      "Ġp": 277,
      "at": 278,
      "en": 279,
      "Ġm": 280,
      "ing": 281,
      "Ġin": 282,
      "al": 283,
      "ar": 284,
      "is": 285,
      "ic": 286,
      "Ġh": 287,
      "Ġto": 288,
      "Ġof": 289,
      "as": 290,
      "Ġan": 291,
      "Ġd": 292,
      "ro": 293,
      "ay": 294,
      "le": 295,
      "ter": 296,
      "Ġre": 297,
      "us": 298,
      "ion": 299,
      "Ġg": 300,
      "Ġn": 301,
      "il": 302,
      "Ġth": 303,
      "ou": 304,
      "Ġand": 305,
      "om": 306,
      "id": 307,
      "Ġl": 308,
      "Ġon": 309,
      "Ġe": 310,
      "ent": 311,
      "et": 312,
      "ir": 313,
      "un": 314,
      "day": 315,
      "st": 316,
      "ur": 317,
      "el": 318,
      "Ġst": 319,
      "ad": 320,
      "ac": 321,
      "ig": 322,
      "ec": 323,
      "am": 324,
      "ol": 325,
      "Ġfor": 326,
      "ly": 327,
      "Ġit": 328,
      "ut": 329,
      "ver": 330,
      "th": 331,
      "ve": 332,
      "Ġ3": 333,
      "im": 334,
      "Ġr": 335,
      "ill": 336,
      "ow": 337,
      "ot": 338,
      "Ġat": 339,
      "Ġy": 340,
      "ation": 341,
      "est": 342,
      "Ġ39": 343,
      "ers": 344,
      "Ġj": 345,
      "Ġthat": 346,
      "Ġas": 347,
      "ew": 348,
      "Ġcom": 349,
      "Ġbe": 350,
      "ch": 351,
      "igh": 352,
      "ith": 353,
      "ap": 354,
      "up": 355,
      "ters": 356,
      "ul": 357,
      "Ġwith": 358,
      "Ġpro": 359,
      "Ġis": 360,
      "qu": 361,
      "Ġch": 362,
      "ts": 363,
      "ear": 364,
      "os": 365,
      "Ġcon": 366,
      "Ġsh": 367,
      "Ġde": 368,
      "Ġsa": 369,
      "ce": 370,
      "and": 371,
      "Ġ1": 372,
      "Ġus": 373,
      "Ġk": 374,
      "Ġv": 375,
      "Ġhe": 376,
      "ag": 377,
      "ld": 378,
      "Ġits": 379,
      "ore": 380,
      "ain": 381,
      "op": 382,
      "uters": 383,
      "ak": 384,
      "Ġsaid": 385,
      "ment": 386,
      "Ġwh": 387,
      "mp": 388,
      "res": 389,
      "Ġun": 390,
      "Ġby": 391,
      "Ġal": 392,
      "ri": 393,
      "00": 394,
      "Ġle": 395,
      "Ġcomp": 396,
      "oun": 397,
      "Ġhas": 398,
      "oc": 399,
      "rom": 400,
      "ast": 401,
      "ug": 402,
      "Ġ2": 403,
      "ks": 404,
      "ust": 405,
      "ight": 406,
      "Ġex": 407,
      "all": 408,
      "Ġhis": 409,
      "ee": 410,
      "hen": 411,
      "if": 412,
      "Ġpl": 413,
      "Ġsp": 414,
      "Ġaf": 415,
      "Ġnew": 416,
      "Ġfrom": 417,
      "our": 418,
      "ian": 419,
      "Ġwas": 420,
      "oo": 421,
      "esday": 422,
      "ial": 423,
      "ort": 424,
      "Ġoff": 425,
      "Ġen": 426,
      "ess": 427,
      "ate": 428,
      "ct": 429,
      "ist": 430,
      "ies": 431,
      "ia": 432,
      "Ġag": 433,
      "ity": 434,
      "ave": 435,
      "ip": 436,
      "ost": 437,
      "art": 438,
      "ack": 439,
      "Ġinc": 440,
      "ra": 441,
      "Ġmon": 442,
      "um": 443,
      "Ġwill": 444,
      "are": 445,
      "old": 446,
      "ric": 447,
      "ud": 448,
      "em": 449,
      "Ġwor": 450,
      "Ġreuters": 451,
      "Ġafter": 452,
      "Ġro": 453,
      "Ġcl": 454,
      "Ġoly": 455,
      "Ġolymp": 456,
      "ine": 457,
      "ry": 458,
      "ere": 459,
      "Ġfr": 460,
      "Ġolympic": 461,
      "of": 462,
      "ard": 463,
      "Ġover": 464,
      "pp": 465,
      "Ġac": 466,
      "ive": 467,
      "ect": 468,
      "iv": 469,
      "ub": 470,
      "ab": 471,
      "Ġare": 472,
      "Ġfir": 473,
      "Ġhave": 474,
      "Ġup": 475,
      "ould": 476,
      "mer": 477,
      "Ġsec": 478,
      "Ġres": 479,
      "Ġmar": 480,
      "the": 481,
      "ell": 482,
      "any": 483,
      "Ġrep": 484,
      "Ġse": 485,
      "ans": 486,
      "Ġtw": 487,
      "Ġab": 488,
      "hens": 489,
      "Ġtheir": 490,
      "ond": 491,
      "ong": 492,
      "Ġte": 493,
      "end": 494,
      "ning": 495,
      "arg": 496,
      "ork": 497,
      "to": 498,
      "ice": 499,
      "Ġfin": 500,
      "Ġbut": 501,
      "Ġgo": 502,
      "Ġexp": 503,
      "Ġinter": 504,
      "Ġout": 505,
      "urs": 506,
      "ther": 507,
      "ord": 508,
      "ome": 509,
      "Ġyear": 510,
      "Ġtr": 511,
      "out": 512,
      "ree": 513,
      "Ġqu": 514,
      "ens": 515,
      "Ġfirst": 516,
      "ions": 517,
      "Ġser": 518,
      "Ġmed": 519,
      "ant": 520,
      "af": 521,
      "ick": 522,
      "Ġgro": 523,
      "Ġir": 524,
      "aq": 525,
      "ime": 526,
      "ire": 527,
      "ace": 528,
      "ursday": 529,
      "und": 530,
      "Ġper": 531,
      "Ġthursday": 532,
      "Ġwin": 533,
      "Ġpres": 534,
      "iday": 535,
      "Ġar": 536,
      "Ġmore": 537,
      "Ġmo": 538,
      "Ġad": 539,
      "hed": 540,
      "ors": 541,
      "Ġor": 542,
      "ile": 543,
      "ous": 544,
      "Ġtwo": 545,
      "Ġtu": 546,
      "Ġsc": 547,
      "ich": 548,
      "Ġne": 549,
      "Ġtuesday": 550,
      "illion": 551,
      "Ġwee": 552,
      "Ġrec": 553,
      "ure": 554,
      "Ġfriday": 555,
      "age": 556,
      "ail": 557,
      "ge": 558,
      "uc": 559,
      "Ġop": 560,
      "Ġthis": 561,
      "ations": 562,
      "ays": 563,
      "Ġdis": 564,
      "Ġcont": 565,
      "Ġpric": 566,
      "oft": 567,
      "Ġapp": 568,
      "Ġpe": 569,
      "ite": 570,
      "Ġwed": 571,
      "ide": 572,
      "Ġiraq": 573,
      "nesday": 574,
      "Ġwednesday": 575,
      "Ġbr": 576,
      "ke": 577,
      "Ġmonday": 578,
      "Ġcompany": 579,
      "reuters": 580,
      "Ġnot": 581,
      "ates": 582,
      "Ġacc": 583,
      "vest": 584,
      "anc": 585,
      "ign": 586,
      "Ġcr": 587,
      "ish": 588,
      "Ġyork": 589,
      "av": 590,
      "ident": 591,
      "Ġbl": 592,
      "ame": 593,
      "lic": 594,
      "ket": 595,
      "Ġind": 596,
      "Ġthan": 597,
      "Ġone": 598,
      "Ġworld": 599,
      "ting": 600,
      "ue": 601,
      "ited": 602,
      "ie": 603,
      "Ġmin": 604,
      "ull": 605,
      "tor": 606,
      "Ġcor": 607,
      "se": 608,
      "aj": 609,
      "der": 610,
      "ester": 611,
      "own": 612,
      "Ġintern": 613,
      "Ġall": 614,
      "Ġgre": 615,
      "hn": 616,
      "ated": 617,
      "ational": 618,
      "ton": 619,
      "Ġoil": 620,
      "amp": 621,
      "Ġim": 622,
      "one": 623,
      "Ġ200": 624,
      "new": 625,
      "Ġco": 626,
      "ass": 627,
      "athens": 628,
      "Ġthey": 629,
      "ib": 630,
      "ase": 631,
      "Ġhigh": 632,
      "Ġlast": 633,
      "og": 634,
      "Ġweek": 635,
      "Ġgold": 636,
      "Ġwho": 637,
      "Ġagain": 638,
      "Ġjo": 639,
      "Ġban": 640,
      "ote": 641,
      "Ġabout": 642,
      "Ġwere": 643,
      "Ġlead": 644,
      "Ġcorp": 645,
      "ake": 646,
      "ance": 647,
      "Ġwe": 648,
      "etw": 649,
      "ary": 650,
      "Ġbus": 651,
      "Ġmil": 652,
      "earch": 653,
      "Ġair": 654,
      "als": 655,
      "iz": 656,
      "Ġinto": 657,
      "ount": 658,
      "ros": 659,
      "com": 660,
      "ade": 661,
      "Ġman": 662,
      "vers": 663,
      "Ġoffic": 664,
      "vern": 665,
      "ence": 666,
      "Ġ4": 667,
      "aw": 668,
      "ition": 669,
      "xt": 670,
      "for": 671,
      "Ġgovern": 672,
      "Ġear": 673,
      "ach": 674,
      "ber": 675,
      "Ġbo": 676,
      "Ġsun": 677,
      "Ġyester": 678,
      "Ġfl": 679,
      "Ġyesterday": 680,
      "ash": 681,
      "Ġprices": 682,
      "Ġhad": 683,
      "Ġsat": 684,
      "Ġbeen": 685,
      "Ġteam": 686,
      "ath": 687,
      "Ġreport": 688,
      "Ġamer": 689,
      "Ġpol": 690,
      "Ġameric": 691,
      "act": 692,
      "Ġsecond": 693,
      "Ġcomm": 694,
      "ds": 695,
      "ven": 696,
      "Ġpr": 697,
      "Ġatt": 698,
      "ased": 699,
      "ating": 700,
      "Ġgovernment": 701,
      "Ġcan": 702,
      "arter": 703,
      "Ġserv": 704,
      "Ġpresident": 705,
      "Ġofficial": 706,
      "ey": 707,
      "uct": 708,
      "lo": 709,
      "Ġann": 710,
      "ht": 711,
      "Ġaug": 712,
      "ally": 713,
      "lect": 714,
      "urn": 715,
      "Ġagainst": 716,
      "iss": 717,
      "Ġunited": 718,
      "Ġwhen": 719,
      "led": 720,
      "ound": 721,
      "Ġmedal": 722,
      "Ġret": 723,
      "Ġend": 724,
      "ock": 725,
      "ral": 726,
      "vel": 727,
      "Ġinvest": 728,
      "Ġno": 729,
      "Ġprof": 730,
      "Ġsl": 731,
      "Ġwhich": 732,
      "Ġreg": 733,
      "Ġmilit": 734,
      "Ġme": 735,
      "ww": 736,
      "Ġwould": 737,
      "Ġpeop": 738,
      "cent": 739,
      "Ġmillion": 740,
      "Ġstr": 741,
      "Ġpre": 742,
      "Ġsunday": 743,
      "eral": 744,
      "Ġsup": 745,
      "Ġthree": 746,
      "Ġfour": 747,
      "Ġgroup": 748,
      "Ġplan": 749,
      "Ġset": 750,
      "con": 751,
      "yst": 752,
      "Ġmarket": 753,
      "Ġcons": 754,
      "urday": 755,
      "Ġsaturday": 756,
      "Ġam": 757,
      "Ġcould": 758,
      "Ġnight": 759,
      "man": 760,
      "Ġbec": 761,
      "ren": 762,
      "Ġcount": 763,
      "ted": 764,
      "Ġph": 765,
      "ged": 766,
      "ames": 767,
      "Ġbu": 768,
      "ocks": 769,
      "Ġwar": 770,
      "ublic": 771,
      "Ġpeople": 772,
      "Ġpart": 773,
      "lp": 774,
      "ced": 775,
      "king": 776,
      "Ġdec": 777,
      "Ġgoo": 778,
      "Ġplay": 779,
      "ical": 780,
      "ware": 781,
      "Ġso": 782,
      "Ġdo": 783,
      "uss": 784,
      "Ġpercent": 785,
      "Ġ5": 786,
      "ected": 787,
      "rop": 788,
      "Ġyears": 789,
      "ullqu": 790,
      "land": 791,
      "Ġjust": 792,
      "tle": 793,
      "co": 794,
      "Ġtime": 795,
      "ington": 796,
      "ister": 797,
      "orts": 798,
      "ina": 799,
      "Ġdes": 800,
      "Ġtoday": 801,
      "Ġdef": 802,
      "Ġsur": 803,
      "Ġsou": 804,
      "Ġ6": 805,
      "ower": 806,
      "Ġimp": 807,
      "Ġsome": 808,
      "Ġsoft": 809,
      "ely": 810,
      "Ġsw": 811,
      "Ġsecur": 812,
      "Ġdown": 813,
      "wn": 814,
      "Ġback": 815,
      "Ġstates": 816,
      "line": 817,
      "Ġsal": 818,
      "oll": 819,
      "tory": 820,
      "Ġher": 821,
      "iness": 822,
      "ose": 823,
      "Ġtec": 824,
      "Ġresearch": 825,
      "ier": 826,
      "Ġrecord": 827,
      "Ġbro": 828,
      "ff": 829,
      "Ġrun": 830,
      "ult": 831,
      "Ġbank": 832,
      "Ġannoun": 833,
      "les": 834,
      "Ġprod": 835,
      "Ġfinal": 836,
      "vent": 837,
      "Ġcour": 838,
      "Ġint": 839,
      "ists": 840,
      "ows": 841,
      "ajaf": 842,
      "Ġcap": 843,
      "Ġmonth": 844,
      "ital": 845,
      "Ġmak": 846,
      "use": 847,
      "Ġkill": 848,
      "ugh": 849,
      "ines": 850,
      "Ġcity": 851,
      "Ġdem": 852,
      "able": 853,
      "ms": 854,
      "Ġminister": 855,
      "ball": 856,
      "gh": 857,
      "ger": 858,
      "Ġinternet": 859,
      "ities": 860,
      "Ġathens": 861,
      "oss": 862,
      "ok": 863,
      "Ġolympics": 864,
      "Ġbusiness": 865,
      "Ġsoftware": 866,
      "ystem": 867,
      "Ġbig": 868,
      "Ġday": 869,
      "Ġgames": 870,
      "Ġoffer": 871,
      "ix": 872,
      "Ġter": 873,
      "its": 874,
      "olog": 875,
      "Ġcar": 876,
      "ustral": 877,
      "Ġwon": 878,
      "ep": 879,
      "ics": 880,
      "Ġmay": 881,
      "ise": 882,
      "Ġass": 883,
      "ird": 884,
      "Ġdr": 885,
      "Ġelect": 886,
      "Ġquarter": 887,
      "ft": 888,
      "icros": 889,
      "ual": 890,
      "ved": 891,
      "Ġhelp": 892,
      "Ġlong": 893,
      "Ġli": 894,
      "Ġecon": 895,
      "Ġeconom": 896,
      "ullquote": 897,
      "Ġvic": 898,
      "Ġsystem": 899,
      "Ġsupp": 900,
      "od": 901,
      "uch": 902,
      "Ġmus": 903,
      "ason": 904,
      "Ġfed": 905,
      "app": 906,
      "Ġcountry": 907,
      "ied": 908,
      "Ġofficials": 909,
      "ious": 910,
      "Ġnext": 911,
      "Ġcol": 912,
      "ater": 913,
      "Ġconf": 914,
      "Ġother": 915,
      "gr": 916,
      "ling": 917,
      "ets": 918,
      "Ġ7": 919,
      "ece": 920,
      "Ġtechn": 921,
      "Ġamerican": 922,
      "Ġgr": 923,
      "ked": 924,
      "bs": 925,
      "Ġshe": 926,
      "gle": 927,
      "icrosoft": 928,
      "Ġwom": 929,
      "Ġrele": 930,
      "Ġnor": 931,
      "Ġnetw": 932,
      "tp": 933,
      "Ġ8": 934,
      "Ġmost": 935,
      "Ġstate": 936,
      "Ġservice": 937,
      "Ġtarg": 938,
      "Ġsecurity": 939,
      "ph": 940,
      "ings": 941,
      "Ġgu": 942,
      "Ġlarg": 943,
      "ands": 944,
      "med": 945,
      "els": 946,
      "enc": 947,
      "air": 948,
      "Ġsay": 949,
      "Ġtop": 950,
      "Ġnational": 951,
      "uring": 952,
      "az": 953,
      "ient": 954,
      "Ġtri": 955,
      "ange": 956,
      "Ġunder": 957,
      "ned": 958,
      "Ġrel": 959,
      "Ġchamp": 960,
      "Ġnear": 961,
      "ments": 962,
      "Ġopen": 963,
      "Ġdep": 964,
      "Ġcourt": 965,
      "hes": 966,
      "Ġreported": 967,
      "ood": 968,
      "Ġbillion": 969,
      "Ġ15": 970,
      "Ġals": 971,
      "Ġpo": 972,
      "Ġpublic": 973,
      "Ġthro": 974,
      "ecut": 975,
      "Ġvi": 976,
      "Ġcall": 977,
      "Ġgreece": 978,
      "ording": 979,
      "Ġoper": 980,
      "Ġ19": 981,
      "Ġeng": 982,
      "Ġgrow": 983,
      "ble": 984,
      "Ġhome": 985,
      "Ġyou": 986,
      "Ġannounced": 987,
      "lud": 988,
      "gest": 989,
      "ley": 990,
      "Ġshow": 991,
      "Ġsales": 992,
      "ares": 993,
      "fore": 994,
      "Ġaustral": 995,
      "Ġtarget": 996,
      "Ġgian": 997,
      "Ġnews": 998,
      "Ġruss": 999,
      "Ġaccording": 1000,
      "Ġinternational": 1001,
      "ons": 1002,
      "ices": 1003,
      "Ġ10": 1004,
      "Ġsays": 1005,
      "Ġeu": 1006,
      "ah": 1007,
      "Ġx": 1008,
      "Ġhol": 1009,
      "Ġreb": 1010,
      "year": 1011,
      "Ġstart": 1012,
      "velop": 1013,
      "Ġbrit": 1014,
      "form": 1015,
      "Ġbefore": 1016,
      "int": 1017,
      "ang": 1018,
      "atch": 1019,
      "Ġgen": 1020,
      "Ġjohn": 1021,
      "Ġsee": 1022,
      "Ġem": 1023,
      "pt": 1024,
      "Ġcent": 1025,
      "Ġmaj": 1026,
      "ision": 1027,
      "ress": 1028,
      "eric": 1029,
      "Ġcost": 1030,
      "Ġhim": 1031,
      "Ġfore": 1032,
      "ild": 1033,
      "Ġvictory": 1034,
      "ror": 1035,
      "Ġcre": 1036,
      "Ġmen": 1037,
      "Ġthre": 1038,
      "cess": 1039,
      "Ġnajaf": 1040,
      "Ġwhat": 1041,
      "66": 1042,
      "Ġthem": 1043,
      "istan": 1044,
      "Ġdel": 1045,
      "Ġstre": 1046,
      "Ġju": 1047,
      "br": 1048,
      "let": 1049,
      "ures": 1050,
      "Ġmajor": 1051,
      "be": 1052,
      "hip": 1053,
      "Ġif": 1054,
      "Ġthird": 1055,
      "Ġdevelop": 1056,
      "Ġfederal": 1057,
      "Ġtechnolog": 1058,
      "Ġthrough": 1059,
      "io": 1060,
      "Ġtal": 1061,
      "ince": 1062,
      "Ġsm": 1063,
      "Ġpost": 1064,
      "Ġget": 1065,
      "Ġplans": 1066,
      "iel": 1067,
      "uter": 1068,
      "win": 1069,
      "Ġpar": 1070,
      "Ġwind": 1071,
      "ause": 1072,
      "Ġche": 1073,
      "Ġbas": 1074,
      "Ġwhile": 1075,
      "Ġinclud": 1076,
      "ants": 1077,
      "ook": 1078,
      "afp": 1079,
      "icker": 1080,
      "Ġbel": 1081,
      "Ġmade": 1082,
      "very": 1083,
      "less": 1084,
      "Ġsign": 1085,
      "ched": 1086,
      "uk": 1087,
      "Ġpa": 1088,
      "Ġinf": 1089,
      "Ġhom": 1090,
      "Ġgame": 1091,
      "Ġprov": 1092,
      "eep": 1093,
      "ator": 1094,
      "Ġhit": 1095,
      "Ġla": 1096,
      "Ġbar": 1097,
      "Ġant": 1098,
      "ams": 1099,
      "een": 1100,
      "Ġfe": 1101,
      "Ġrem": 1102,
      "ene": 1103,
      "inf": 1104,
      "ont": 1105,
      "Ġins": 1106,
      "round": 1107,
      "Ġlaw": 1108,
      "alif": 1109,
      "ising": 1110,
      "str": 1111,
      "Ġprot": 1112,
      "Ġ100": 1113,
      "Ġ2004": 1114,
      "Ġsouth": 1115,
      "orn": 1116,
      "Ġstock": 1117,
      "cer": 1118,
      "Ġtro": 1119,
      "Ġbeg": 1120,
      "Ġap": 1121,
      "Ġcharg": 1122,
      "Ġi": 1123,
      "Ġdeal": 1124,
      "Ġprime": 1125,
      "http": 1126,
      "ces": 1127,
      "Ġaut": 1128,
      "Ġcut": 1129,
      "Ġwork": 1130,
      "Ġgoogle": 1131,
      "wash": 1132,
      "ky": 1133,
      "Ġhead": 1134,
      "ref": 1135,
      "Ġhref": 1136,
      "httpww": 1137,
      "nt": 1138,
      "Ġed": 1139,
      "Ġbat": 1140,
      "ward": 1141,
      "Ġhur": 1142,
      "Ġcompet": 1143,
      "Ġhrefhttpww": 1144,
      "ner": 1145,
      "Ġtake": 1146,
      "Ġfil": 1147,
      "etween": 1148,
      "ys": 1149,
      "Ġact": 1150,
      "Ġbetween": 1151,
      "Ġcomputer": 1152,
      "Ġbre": 1153,
      "used": 1154,
      "Ġjap": 1155,
      "Ġshi": 1156,
      "Ġprofit": 1157,
      "washington": 1158,
      "aim": 1159,
      "Ġchina": 1160,
      "Ġmiss": 1161,
      "Ġshares": 1162,
      "uel": 1163,
      "Ġta": 1164,
      "ane": 1165,
      "ains": 1166,
      "Ġcompan": 1167,
      "ins": 1168,
      "inu": 1169,
      "asp": 1170,
      "ada": 1171,
      "Ġleast": 1172,
      "Ġway": 1173,
      "Ġweb": 1174,
      "Ġwindows": 1175,
      "Ġstri": 1176,
      "Ġtele": 1177,
      "Ġindust": 1178,
      "Ġfound": 1179,
      "Ġmicrosoft": 1180,
      "Ġterror": 1181,
      "Ġcompanies": 1182,
      "Ġinit": 1183,
      "Ġref": 1184,
      "Ġext": 1185,
      "Ġtrad": 1186,
      "Ġred": 1187,
      "stocks": 1188,
      "Ġpress": 1189,
      "me": 1190,
      "Ġhow": 1191,
      "Ġip": 1192,
      "Ġopp": 1193,
      "Ġpay": 1194,
      "Ġiraqi": 1195,
      "Ġbuy": 1196,
      "way": 1197,
      "Ġmake": 1198,
      "Ġnow": 1199,
      "quick": 1200,
      "usp": 1201,
      "rael": 1202,
      "min": 1203,
      "ending": 1204,
      "ves": 1205,
      "Ġeven": 1206,
      "vestor": 1207,
      "Ġpolice": 1208,
      "Ġmusic": 1209,
      "fullquote": 1210,
      "other": 1211,
      "su": 1212,
      "Ġpower": 1213,
      "leg": 1214,
      "Ġincre": 1215,
      "reuterscom": 1216,
      "Ġtargetstocks": 1217,
      "winvestor": 1218,
      "infof": 1219,
      "Ġhrefhttpwwwinvestor": 1220,
      "aspxt": 1221,
      "quickinfof": 1222,
      "fullquoteaspxt": 1223,
      "reuterscomfullquoteaspxt": 1224,
      "Ġtargetstocksquickinfof": 1225,
      "Ġhrefhttpwwwinvestorreuterscomfullquoteaspxt": 1226,
      "na": 1227,
      "Ġonly": 1228,
      "Ġlargest": 1229,
      "Ġtechnology": 1230,
      "ert": 1231,
      "Ġang": 1232,
      "aring": 1233,
      "Ġbeing": 1234,
      "Ġbecause": 1235,
      "Ġel": 1236,
      "Ġsince": 1237,
      "reed": 1238,
      "Ġanother": 1239,
      "Ġkilled": 1240,
      "Ġgiant": 1241,
      "Ġfac": 1242,
      "Ġhop": 1243,
      "ough": 1244,
      "Ġadv": 1245,
      "ful": 1246,
      "ym": 1247,
      "Ġtest": 1248,
      "Ġsix": 1249,
      "Ġhal": 1250,
      "aking": 1251,
      "ondon": 1252,
      "nings": 1253,
      "Ġhigher": 1254,
      "rol": 1255,
      "Ġrad": 1256,
      "Ġclaim": 1257,
      "Ġown": 1258,
      "atest": 1259,
      "Ġhold": 1260,
      "Ġformer": 1261,
      "Ġinvestors": 1262,
      "Ġgrowth": 1263,
      "Ġham": 1264,
      "Ġonline": 1265,
      "Ġstocks": 1266,
      "Ġnetwork": 1267,
      "ents": 1268,
      "Ġkn": 1269,
      "Ġhrefhttpwwwinvestorreuterscomfullquoteaspxticker": 1270,
      "Ġsusp": 1271,
      "Ġdou": 1272,
      "acks": 1273,
      "Ġ20": 1274,
      "ared": 1275,
      "ones": 1276,
      "rest": 1277,
      "Ġbush": 1278,
      "Ġeurop": 1279,
      "ese": 1280,
      "Ġfive": 1281,
      "Ġstar": 1282,
      "Ġrul": 1283,
      "Ġretail": 1284,
      "Ġconsum": 1285,
      "Ġoffering": 1286,
      "ators": 1287,
      "Ġdat": 1288,
      "Ġdrug": 1289,
      "ered": 1290,
      "row": 1291,
      "ind": 1292,
      "isco": 1293,
      "Ġseason": 1294,
      "Ġbiggest": 1295,
      "los": 1296,
      "Ġany": 1297,
      "Ġdays": 1298,
      "ives": 1299,
      "Ġmilitary": 1300,
      "by": 1301,
      "Ġsub": 1302,
      "Ġsearch": 1303,
      "Ġcleric": 1304,
      "Ġjapan": 1305,
      "lin": 1306,
      "Ġ18": 1307,
      "thern": 1308,
      "atic": 1309,
      "Ġisrael": 1310,
      "Ġproduc": 1311,
      "Ġ9": 1312,
      "Ġrose": 1313,
      "Ġfell": 1314,
      "Ġduring": 1315,
      "ured": 1316,
      "Ġregion": 1317,
      "Ġwomen": 1318,
      "ivers": 1319,
      "Ġlo": 1320,
      "ague": 1321,
      "ude": 1322,
      "bile": 1323,
      "Ġboo": 1324,
      "Ġagreed": 1325,
      "Ġincluding": 1326,
      "pl": 1327,
      "Ġsu": 1328,
      "Ġthere": 1329,
      "ury": 1330,
      "Ġ12": 1331,
      "ago": 1332,
      "Ġleader": 1333,
      "Ġshiite": 1334,
      "rup": 1335,
      "Ġav": 1336,
      "Ġprop": 1337,
      "Ġclos": 1338,
      "Ġweeks": 1339,
      "ross": 1340,
      "ron": 1341,
      "ze": 1342,
      "Ġleg": 1343,
      "ield": 1344,
      "orks": 1345,
      "alth": 1346,
      "Ġstill": 1347,
      "Ġenter": 1348,
      "Ġfinanc": 1349,
      "but": 1350,
      "owing": 1351,
      "Ġeurope": 1352,
      "ium": 1353,
      "Ġcust": 1354,
      "ament": 1355,
      "uction": 1356,
      "Ġregul": 1357,
      "Ġsch": 1358,
      "Ġcamp": 1359,
      "Ġfight": 1360,
      "Ġstud": 1361,
      "Ġprice": 1362,
      "Ġearly": 1363,
      "ael": 1364,
      "Ġbom": 1365,
      "Ġexpected": 1366,
      "Ġwr": 1367,
      "Ġra": 1368,
      "Ġacqu": 1369,
      "Ġaugust": 1370,
      "Ġmaker": 1371,
      "Ġinitial": 1372,
      "oot": 1373,
      "Ġmany": 1374,
      "Ġstand": 1375,
      "adr": 1376,
      "Ġstrong": 1377,
      "Ġindustry": 1378,
      "gy": 1379,
      "ney": 1380,
      "Ġput": 1381,
      "icago": 1382,
      "ility": 1383,
      "Ġequ": 1384,
      "Ġshar": 1385,
      "ission": 1386,
      "Ġrussian": 1387,
      "Ġlaun": 1388,
      "bers": 1389,
      "iting": 1390,
      "Ġpat": 1391,
      "Ġlatest": 1392,
      "Ġshare": 1393,
      "Ġspr": 1394,
      "ief": 1395,
      "sp": 1396,
      "ained": 1397,
      "Ġevent": 1398,
      "Ġjud": 1399,
      "Ġleft": 1400,
      "Ġattack": 1401,
      "Ġtook": 1402,
      "Ġnum": 1403,
      "ops": 1404,
      "Ġleague": 1405,
      "Ġfranc": 1406,
      "Ġinvestig": 1407,
      "based": 1408,
      "cl": 1409,
      "Ġsud": 1410,
      "Ġsem": 1411,
      "Ġsell": 1412,
      "ative": 1413,
      "Ġmich": 1414,
      "ised": 1415,
      "Ġbeat": 1416,
      "Ġexecut": 1417,
      "Ġago": 1418,
      "ired": 1419,
      "Ġpaul": 1420,
      "Ġmid": 1421,
      "Ġlif": 1422,
      "Ġshr": 1423,
      "Ġmobile": 1424,
      "Ġaustralia": 1425,
      "Ġcustom": 1426,
      "par": 1427,
      "ights": 1428,
      "itt": 1429,
      "Ġshould": 1430,
      "Ġafric": 1431,
      "Ġappro": 1432,
      "Ġpeace": 1433,
      "Ġreturn": 1434,
      "Ġbritish": 1435,
      "Ġtalks": 1436,
      "iff": 1437,
      "Ġround": 1438,
      "Ġappe": 1439,
      "Ġservices": 1440,
      "Ġcapital": 1441,
      "ency": 1442,
      "Ġbasket": 1443,
      "go": 1444,
      "head": 1445,
      "Ġwall": 1446,
      "Ġmet": 1447,
      "Ġdar": 1448,
      "osition": 1449,
      "Ġdev": 1450,
      "akistan": 1451,
      "Ġwhere": 1452,
      "ipp": 1453,
      "Ġadd": 1454,
      "Ġface": 1455,
      "Ġfoll": 1456,
      "Ġbid": 1457,
      "ished": 1458,
      "Ġ11": 1459,
      "000": 1460,
      "Ġnorth": 1461,
      "Ġsold": 1462,
      "Ġinj": 1463,
      "Ġger": 1464,
      "Ġloss": 1465,
      "Ġeff": 1466,
      "Ġbasketball": 1467,
      "ik": 1468,
      "son": 1469,
      "rel": 1470,
      "Ġhand": 1471,
      "Ġstore": 1472,
      "Ġquote": 1473,
      "Ġmove": 1474,
      "Ġmonths": 1475,
      "Ġdemand": 1476,
      "Ġdata": 1477,
      "Ġsing": 1478,
      "Ġrecent": 1479,
      "Ġreleased": 1480,
      "ool": 1481,
      "Ġfall": 1482,
      "Ġpop": 1483,
      "Ġinst": 1484,
      "Ġfail": 1485,
      "ady": 1486,
      "Ġwash": 1487,
      "Ġcommun": 1488,
      "Ġeconomic": 1489,
      "london": 1490,
      "Ġest": 1491,
      "Ġfar": 1492,
      "enter": 1493,
      "Ġcontr": 1494,
      "Ġuse": 1495,
      "Ġreports": 1496,
      "Ġlike": 1497,
      "lam": 1498,
      "Ġwal": 1499,
      "Ġpass": 1500,
      "Ġ14": 1501,
      "loy": 1502,
      "Ġdesp": 1503,
      "Ġnearly": 1504,
      "rupt": 1505,
      "Ġcle": 1506,
      "Ġmuch": 1507,
      "Ġdri": 1508,
      "ense": 1509,
      "Ġdisc": 1510,
      "Ġviol": 1511,
      "Ġpast": 1512,
      "Ġinv": 1513,
      "ism": 1514,
      "Ġste": 1515,
      "Ġhealth": 1516,
      "Ġtrans": 1517,
      "Ġarm": 1518,
      "Ġchampions": 1519,
      "Ġcalif": 1520,
      "Ġmain": 1521,
      "vered": 1522,
      "Ġphone": 1523,
      "Ġmat": 1524,
      "Ġrev": 1525,
      "Ġreal": 1526,
      "Ġneed": 1527,
      "ible": 1528,
      "Ġmanag": 1529,
      "Ġeconomy": 1530,
      "Ġfinancial": 1531,
      "sh": 1532,
      "ty": 1533,
      "Ġsan": 1534,
      "ashed": 1535,
      "Ġnas": 1536,
      "Ġnet": 1537,
      "ects": 1538,
      "Ġrepublic": 1539,
      "Ġscient": 1540,
      "Ġwashington": 1541,
      "bo": 1542,
      "lier": 1543,
      "Ġvers": 1544,
      "Ġtry": 1545,
      "red": 1546,
      "Ġca": 1547,
      "Ġpit": 1548,
      "ison": 1549,
      "Ġdid": 1550,
      "Ġdist": 1551,
      "Ġge": 1552,
      "Ġnations": 1553,
      "Ġcommission": 1554,
      "Ġdepart": 1555,
      "Ġtra": 1556,
      "Ġsour": 1557,
      "Ġfut": 1558,
      "Ġmor": 1559,
      "Ġmem": 1560,
      "Ġev": 1561,
      "Ġeight": 1562,
      "imin": 1563,
      "hor": 1564,
      "ne": 1565,
      "Ġtit": 1566,
      "Ġpri": 1567,
      "Ġlab": 1568,
      "Ġ36": 1569,
      "Ġfirm": 1570,
      "Ġarrest": 1571,
      "Ġcrude": 1572,
      "Ġmichael": 1573,
      "Ġwire": 1574,
      "idence": 1575,
      "Ġchip": 1576,
      "Ġkey": 1577,
      "Ġvide": 1578,
      "Ġpolit": 1579,
      "pr": 1580,
      "Ġrest": 1581,
      "Ġwithout": 1582,
      "Ġbomb": 1583,
      "Ġtim": 1584,
      "Ġsuc": 1585,
      "Ġlower": 1586,
      "erson": 1587,
      "Ġchar": 1588,
      "ears": 1589,
      "Ġconcer": 1590,
      "ocr": 1591,
      "Ġsupport": 1592,
      "Ġchampion": 1593,
      "emp": 1594,
      "ght": 1595,
      "ving": 1596,
      "Ġsil": 1597,
      "Ġcare": 1598,
      "ory": 1599,
      "Ġdet": 1600,
      "Ġriv": 1601,
      "ular": 1602,
      "Ġused": 1603,
      "Ġvis": 1604,
      "Ġcontrol": 1605,
      "ize": 1606,
      "Ġthreat": 1607,
      "Ġauthor": 1608,
      "ration": 1609,
      "Ġwest": 1610,
      "ict": 1611,
      "Ġrace": 1612,
      "ots": 1613,
      "Ġprofile": 1614,
      "Ġcalled": 1615,
      "sc": 1616,
      "Ġdom": 1617,
      "Ġ17": 1618,
      "Ġjuly": 1619,
      "Ġfrancisco": 1620,
      "back": 1621,
      "ees": 1622,
      "Ġfund": 1623,
      "Ġnation": 1624,
      "Ġvir": 1625,
      "ck": 1626,
      "Ġlit": 1627,
      "Ġprogr": 1628,
      "Ġsports": 1629,
      "Ġstreet": 1630,
      "Ġcup": 1631,
      "Ġposs": 1632,
      "Ġpakistan": 1633,
      "ute": 1634,
      "Ġusers": 1635,
      "Ġagree": 1636,
      "raw": 1637,
      "iving": 1638,
      "Ġearnings": 1639,
      "Ġmeet": 1640,
      "Ġimpro": 1641,
      "Ġcompetition": 1642,
      "cast": 1643,
      "Ġturn": 1644,
      "Ġsen": 1645,
      "Ġsim": 1646,
      "Ġcur": 1647,
      "Ġemp": 1648,
      "eles": 1649,
      "Ġacross": 1650,
      "Ġalso": 1651,
      "Ġwireless": 1652,
      "fur": 1653,
      "Ġsum": 1654,
      "Ġmens": 1655,
      "acy": 1656,
      "Ġ13": 1657,
      "Ġkore": 1658,
      "ific": 1659,
      "hd": 1660,
      "ior": 1661,
      "ns": 1662,
      "ites": 1663,
      "Ġbill": 1664,
      "Ġeas": 1665,
      "off": 1666,
      "Ġsever": 1667,
      "aving": 1668,
      "Ġrelease": 1669,
      "dit": 1670,
      "Ġsol": 1671,
      "Ġmot": 1672,
      "Ġhour": 1673,
      "Ġital": 1674,
      "Ġspec": 1675,
      "yearold": 1676,
      "Ġshrine": 1677,
      "Ġdepartment": 1678,
      "de": 1679,
      "gan": 1680,
      "ll": 1681,
      "port": 1682,
      "Ġsoc": 1683,
      "Ġfam": 1684,
      "Ġlos": 1685,
      "Ġconn": 1686,
      "Ġleading": 1687,
      "Ġversion": 1688,
      "bed": 1689,
      "lines": 1690,
      "ret": 1691,
      "Ġchief": 1692,
      "Ġparty": 1693,
      "ollar": 1694,
      "Ġconsumer": 1695,
      "Ġz": 1696,
      "Ġer": 1697,
      "esh": 1698,
      "Ġhost": 1699,
      "Ġhere": 1700,
      "ider": 1701,
      "elf": 1702,
      "ution": 1703,
      "Ġkeep": 1704,
      "uck": 1705,
      "Ġbroad": 1706,
      "Ġsystems": 1707,
      "ness": 1708,
      "ily": 1709,
      "Ġforces": 1710,
      "Ġdead": 1711,
      "aining": 1712,
      "Ġresul": 1713,
      "Ġcontinu": 1714,
      "ymn": 1715,
      "Ġhalf": 1716,
      "ink": 1717,
      "Ġpal": 1718,
      "Ġmight": 1719,
      "Ġ16": 1720,
      "Ġunivers": 1721,
      "ized": 1722,
      "bal": 1723,
      "eration": 1724,
      "Ġpack": 1725,
      "Ġgymn": 1726,
      "Ġfourth": 1727,
      "Ġpc": 1728,
      "adian": 1729,
      "ugg": 1730,
      "Ġdemocr": 1731,
      "Ġsudan": 1732,
      "ai": 1733,
      "Ġaround": 1734,
      "ank": 1735,
      "Ġmass": 1736,
      "ians": 1737,
      "Ġmark": 1738,
      "Ġattacks": 1739,
      "Ġtargetstocksquickinfofullquote": 1740,
      "ias": 1741,
      "ject": 1742,
      "ming": 1743,
      "Ġtre": 1744,
      "inals": 1745,
      "ergy": 1746,
      "Ġanal": 1747,
      "Ġdro": 1748,
      "Ġglo": 1749,
      "Ġdarfur": 1750,
      "Ġdespite": 1751,
      "cy": 1752,
      "ex": 1753,
      "iam": 1754,
      "iers": 1755,
      "tada": 1756,
      "eng": 1757,
      "Ġlate": 1758,
      "Ġyour": 1759,
      "Ġker": 1760,
      "pped": 1761,
      "Ġreser": 1762,
      "Ġkilling": 1763,
      "Ġgeneral": 1764,
      "Ġtroops": 1765,
      "Ġhous": 1766,
      "Ġline": 1767,
      "Ġheld": 1768,
      "Ġalle": 1769,
      "Ġholy": 1770,
      "Ġboost": 1771,
      "ny": 1772,
      "Ġdig": 1773,
      "Ġdollar": 1774,
      "Ġright": 1775,
      "Ġresp": 1776,
      "Ġwinning": 1777,
      "Ġcorpor": 1778,
      "Ġlik": 1779,
      "Ġshowed": 1780,
      "Ġsmall": 1781,
      "Ġtrading": 1782,
      "Ġlittle": 1783,
      "ided": 1784,
      "Ġlow": 1785,
      "Ġloo": 1786,
      "estin": 1787,
      "Ġexch": 1788,
      "Ġspe": 1789,
      "umb": 1790,
      "ards": 1791,
      "Ġseven": 1792,
      "Ġamericans": 1793,
      "Ġalsadr": 1794,
      "Ġxp": 1795,
      "Ġopposition": 1796,
      "Ġtitle": 1797,
      "uf": 1798,
      "ony": 1799,
      "Ġenergy": 1800,
      "Ġworlds": 1801,
      "Ġmanage": 1802,
      "Ġboth": 1803,
      "rench": 1804,
      "Ġ50": 1805,
      "Ġengland": 1806,
      "Ġcosts": 1807,
      "Ġtax": 1808,
      "Ġfighting": 1809,
      "Ġnumber": 1810,
      "Ġcustomers": 1811,
      "Ġgymnast": 1812,
      "ij": 1813,
      "Ġsuch": 1814,
      "Ġbet": 1815,
      "Ġhot": 1816,
      "Ġcoach": 1817,
      "Ġvideo": 1818,
      "over": 1819,
      "ump": 1820,
      "ways": 1821,
      "Ġrece": 1822,
      "Ġ25": 1823,
      "Ġspace": 1824,
      "san": 1825,
      "Ġce": 1826,
      "Ġfree": 1827,
      "Ġever": 1828,
      "Ġevery": 1829,
      "ended": 1830,
      "Ġearlier": 1831,
      "Ġelection": 1832,
      "Ġrebels": 1833,
      "Ġsuccess": 1834,
      "Ġseveral": 1835,
      "Ġwhe": 1836,
      "ought": 1837,
      "ived": 1838,
      "Ġupd": 1839,
      "ather": 1840,
      "Ġmeters": 1841,
      "Ġbuild": 1842,
      "Ġresults": 1843,
      "Ġexchange": 1844,
      "her": 1845,
      "tain": 1846,
      "time": 1847,
      "Ġcase": 1848,
      "Ġfoot": 1849,
      "ately": 1850,
      "arm": 1851,
      "Ġ30": 1852,
      "Ġprocess": 1853,
      "resh": 1854,
      "Ġairlines": 1855,
      "kyo": 1856,
      "meter": 1857,
      "Ġty": 1858,
      "Ġath": 1859,
      "Ġamp": 1860,
      "onto": 1861,
      "Ġcop": 1862,
      "Ġma": 1863,
      "Ġtourn": 1864,
      "Ġthous": 1865,
      "Ġunion": 1866,
      "Ġengine": 1867,
      "aign": 1868,
      "down": 1869,
      "nal": 1870,
      "tim": 1871,
      "Ġq": 1872,
      "Ġfield": 1873,
      "Ġinform": 1874,
      "Ġstep": 1875,
      "Ġissu": 1876,
      "aghd": 1877,
      "Ġalm": 1878,
      "ries": 1879,
      "oci": 1880,
      "ghan": 1881,
      "Ġforeign": 1882,
      "Ġhurric": 1883,
      "Ġalleged": 1884,
      "aghdad": 1885,
      "Ġes": 1886,
      "Ġwell": 1887,
      "Ġhum": 1888,
      "Ġgl": 1889,
      "Ġlight": 1890,
      "Ġlost": 1891,
      "Ġmilitants": 1892,
      "Ġinfl": 1893,
      "Ġbarrel": 1894,
      "Ġangeles": 1895,
      "Ġisraeli": 1896,
      "Ġscientists": 1897,
      "Ġfire": 1898,
      "Ġbase": 1899,
      "Ġdav": 1900,
      "Ġgive": 1901,
      "Ġstra": 1902,
      "owed": 1903,
      "cher": 1904,
      "Ġprom": 1905,
      "Ġattemp": 1906,
      "Ġended": 1907,
      "Ġassoci": 1908,
      "Ġnetworks": 1909,
      "Ġemb": 1910,
      "Ġjump": 1911,
      "Ġfollowing": 1912,
      "hold": 1913,
      "najaf": 1914,
      "ov": 1915,
      "Ġur": 1916,
      "Ġahead": 1917,
      "Ġcenter": 1918,
      "Ġfrench": 1919,
      "osed": 1920,
      "Ġshort": 1921,
      "avy": 1922,
      "Ġgood": 1923,
      "Ġplayer": 1924,
      "Ġdesign": 1925,
      "Ġmaking": 1926,
      "Ġgrand": 1927,
      "Ġoperating": 1928,
      "Ġcontract": 1929,
      "Ġtournament": 1930,
      "aug": 1931,
      "gu": 1932,
      "ging": 1933,
      "iew": 1934,
      "qtada": 1935,
      "aster": 1936,
      "lex": 1937,
      "ush": 1938,
      "ape": 1939,
      "Ġ23": 1940,
      "Ġhistory": 1941,
      "Ġplayers": 1942,
      "Ġproduct": 1943,
      "Ġquarterly": 1944,
      "Ġcentral": 1945,
      "Ġeuropean": 1946,
      "Ġcampaign": 1947,
      "Ġsemif": 1948,
      "Ġgeor": 1949,
      "Ġtak": 1950,
      "Ġsame": 1951,
      "Ġfresh": 1952,
      "ale": 1953,
      "Ġdrop": 1954,
      "Ġreach": 1955,
      "quarter": 1956,
      "Ġseries": 1957,
      "Ġapplic": 1958,
      "Ġsettle": 1959,
      "Ġpolitical": 1960,
      "Ġemploy": 1961,
      "Ġjour": 1962,
      "ember": 1963,
      "Ġgoing": 1964,
      "estern": 1965,
      "Ġcharges": 1966,
      "Ġkerry": 1967,
      "Ġathlet": 1968,
      "Ġinformation": 1969,
      "iver": 1970,
      "Ġos": 1971,
      "Ġhug": 1972,
      "Ġrequ": 1973,
      "Ġproble": 1974,
      "ages": 1975,
      "Ġagency": 1976,
      "Ġtrade": 1977,
      "Ġorder": 1978,
      "Ġorgan": 1979,
      "Ġaccused": 1980,
      "ounded": 1981,
      "Ġbecome": 1982,
      "Ġresearchers": 1983,
      "Ġprotest": 1984,
      "Ġtelev": 1985,
      "Ġconnect": 1986,
      "oon": 1987,
      "td": 1988,
      "Ġwater": 1989,
      "Ġport": 1990,
      "Ġpull": 1991,
      "Ġhund": 1992,
      "Ġstor": 1993,
      "Ġrise": 1994,
      "que": 1995,
      "Ġafghan": 1996,
      "raft": 1997,
      "Ġquest": 1998,
      "Ġsaying": 1999
    },
    "merges": [
      [
        "Ġ",
        "t"
      ],
      [
        "Ġ",
        "a"
      ],
      [
        "i",
        "n"
      ],
      [
        "e",
        "r"
      ],
      [
        "h",
        "e"
      ],
      [
        "Ġ",
        "s"
      ],
      [
        "o",
        "n"
      ],
      [
        "r",
        "e"
      ],
      [
        "Ġt",
        "he"
      ],
      [
        "Ġ",
        "c"
      ],
      [
        "Ġ",
        "o"
      ],
      [
        "e",
        "d"
      ],
      [
        "a",
        "n"
      ],
      [
        "Ġ",
        "w"
      ],
      [
        "e",
        "s"
      ],
      [
        "Ġ",
        "f"
      ],
      [
        "o",
        "r"
      ],
      [
        "i",
        "t"
      ],
      [
        "Ġ",
        "b"
      ],
      [
        "Ġ",
        "p"
      ],
      [
        "a",
        "t"
      ],
      [
        "e",
        "n"
      ],
      [
        "Ġ",
        "m"
      ],
      [
        "in",
        "g"
      ],
      [
        "Ġ",
        "in"
      ],
      [
        "a",
        "l"
      ],
      [
        "a",
        "r"
      ],
      [
        "i",
        "s"
      ],
      [
        "i",
        "c"
      ],
      [
        "Ġ",
        "h"
      ],
      [
        "Ġt",
        "o"
      ],
      [
        "Ġo",
        "f"
      ],
      [
        "a",
        "s"
      ],
      [
        "Ġa",
        "n"
      ],
      [
        "Ġ",
        "d"
      ],
      [
        "r",
        "o"
      ],
      [
        "a",
        "y"
      ],
      [
        "l",
        "e"
      ],
      [
        "t",
        "er"
      ],
      [
        "Ġ",
        "re"
      ],
      [
        "u",
        "s"
      ],
      [
        "i",
        "on"
      ],
      [
        "Ġ",
        "g"
      ],
      [
        "Ġ",
        "n"
      ],
      [
        "i",
        "l"
      ],
      [
        "Ġt",
        "h"
      ],
      [
        "o",
        "u"
      ],
      [
        "Ġan",
        "d"
      ],
      [
        "o",
        "m"
      ],
      [
        "i",
        "d"
      ],
      [
        "Ġ",
        "l"
      ],
      [
        "Ġ",
        "on"
      ],
      [
        "Ġ",
        "e"
      ],
      [
        "en",
        "t"
      ],
      [
        "e",
        "t"
      ],
      [
        "i",
        "r"
      ],
      [
        "u",
        "n"
      ],
      [
        "d",
        "ay"
      ],
      [
        "s",
        "t"
      ],
      [
        "u",
        "r"
      ],
      [
        "e",
        "l"
      ],
      [
        "Ġs",
        "t"
      ],
      [
        "a",
        "d"
      ],
      [
        "a",
        "c"
      ],
      [
        "i",
        "g"
      ],
      [
        "e",
        "c"
      ],
      [
        "a",
        "m"
      ],
      [
        "o",
        "l"
      ],
      [
        "Ġf",
        "or"
      ],
      [
        "l",
        "y"
      ],
      [
        "Ġ",
        "it"
      ],
      [
        "u",
        "t"
      ],
      [
        "v",
        "er"
      ],
      [
        "t",
        "h"
      ],
      [
        "v",
        "e"
      ],
      [
        "Ġ",
        "3"
      ],
      [
        "i",
        "m"
      ],
      [
        "Ġ",
        "r"
      ],
      [
        "il",
        "l"
      ],
      [
        "o",
        "w"
      ],
      [
        "o",
        "t"
      ],
      [
        "Ġa",
        "t"
      ],
      [
        "Ġ",
        "y"
      ],
      [
        "at",
        "ion"
      ],
      [
        "es",
        "t"
      ],
      [
        "Ġ3",
        "9"
      ],
      [
        "er",
        "s"
      ],
      [
        "Ġ",
        "j"
      ],
      [
        "Ġth",
        "at"
      ],
      [
        "Ġa",
        "s"
      ],
      [
        "e",
        "w"
      ],
      [
        "Ġc",
        "om"
      ],
      [
        "Ġb",
        "e"
      ],
      [
        "c",
        "h"
      ],
      [
        "ig",
        "h"
      ],
      [
        "it",
        "h"
      ],
      [
        "a",
        "p"
      ],
      [
        "u",
        "p"
      ],
      [
        "ter",
        "s"
      ],
      [
        "u",
        "l"
      ],
      [
        "Ġw",
        "ith"
      ],
      [
        "Ġp",
        "ro"
      ],
      [
        "Ġ",
        "is"
      ],
      [
        "q",
        "u"
      ],
      [
        "Ġc",
        "h"
      ],
      [
        "t",
        "s"
      ],
      [
        "e",
        "ar"
      ],
      [
        "o",
        "s"
      ],
      [
        "Ġc",
        "on"
      ],
      [
        "Ġs",
        "h"
      ],
      [
        "Ġd",
        "e"
      ],
      [
        "Ġs",
        "a"
      ],
      [
        "c",
        "e"
      ],
      [
        "an",
        "d"
      ],
      [
        "Ġ",
        "1"
      ],
      [
        "Ġ",
        "us"
      ],
      [
        "Ġ",
        "k"
      ],
      [
        "Ġ",
        "v"
      ],
      [
        "Ġ",
        "he"
      ],
      [
        "a",
        "g"
      ],
      [
        "l",
        "d"
      ],
      [
        "Ġit",
        "s"
      ],
      [
        "o",
        "re"
      ],
      [
        "a",
        "in"
      ],
      [
        "o",
        "p"
      ],
      [
        "u",
        "ters"
      ],
      [
        "a",
        "k"
      ],
      [
        "Ġsa",
        "id"
      ],
      [
        "m",
        "ent"
      ],
      [
        "Ġw",
        "h"
      ],
      [
        "m",
        "p"
      ],
      [
        "re",
        "s"
      ],
      [
        "Ġ",
        "un"
      ],
      [
        "Ġb",
        "y"
      ],
      [
        "Ġa",
        "l"
      ],
      [
        "r",
        "i"
      ],
      [
        "0",
        "0"
      ],
      [
        "Ġ",
        "le"
      ],
      [
        "Ġcom",
        "p"
      ],
      [
        "ou",
        "n"
      ],
      [
        "Ġh",
        "as"
      ],
      [
        "o",
        "c"
      ],
      [
        "ro",
        "m"
      ],
      [
        "as",
        "t"
      ],
      [
        "u",
        "g"
      ],
      [
        "Ġ",
        "2"
      ],
      [
        "k",
        "s"
      ],
      [
        "us",
        "t"
      ],
      [
        "igh",
        "t"
      ],
      [
        "Ġe",
        "x"
      ],
      [
        "al",
        "l"
      ],
      [
        "Ġh",
        "is"
      ],
      [
        "e",
        "e"
      ],
      [
        "he",
        "n"
      ],
      [
        "i",
        "f"
      ],
      [
        "Ġp",
        "l"
      ],
      [
        "Ġs",
        "p"
      ],
      [
        "Ġa",
        "f"
      ],
      [
        "Ġn",
        "ew"
      ],
      [
        "Ġf",
        "rom"
      ],
      [
        "ou",
        "r"
      ],
      [
        "i",
        "an"
      ],
      [
        "Ġw",
        "as"
      ],
      [
        "o",
        "o"
      ],
      [
        "es",
        "day"
      ],
      [
        "i",
        "al"
      ],
      [
        "or",
        "t"
      ],
      [
        "Ġof",
        "f"
      ],
      [
        "Ġ",
        "en"
      ],
      [
        "es",
        "s"
      ],
      [
        "at",
        "e"
      ],
      [
        "c",
        "t"
      ],
      [
        "is",
        "t"
      ],
      [
        "i",
        "es"
      ],
      [
        "i",
        "a"
      ],
      [
        "Ġa",
        "g"
      ],
      [
        "it",
        "y"
      ],
      [
        "a",
        "ve"
      ],
      [
        "i",
        "p"
      ],
      [
        "o",
        "st"
      ],
      [
        "ar",
        "t"
      ],
      [
        "ac",
        "k"
      ],
      [
        "Ġin",
        "c"
      ],
      [
        "r",
        "a"
      ],
      [
        "Ġm",
        "on"
      ],
      [
        "u",
        "m"
      ],
      [
        "Ġw",
        "ill"
      ],
      [
        "a",
        "re"
      ],
      [
        "ol",
        "d"
      ],
      [
        "r",
        "ic"
      ],
      [
        "u",
        "d"
      ],
      [
        "e",
        "m"
      ],
      [
        "Ġw",
        "or"
      ],
      [
        "Ġre",
        "uters"
      ],
      [
        "Ġaf",
        "ter"
      ],
      [
        "Ġ",
        "ro"
      ],
      [
        "Ġc",
        "l"
      ],
      [
        "Ġo",
        "ly"
      ],
      [
        "Ġoly",
        "mp"
      ],
      [
        "in",
        "e"
      ],
      [
        "r",
        "y"
      ],
      [
        "er",
        "e"
      ],
      [
        "Ġf",
        "r"
      ],
      [
        "Ġolymp",
        "ic"
      ],
      [
        "o",
        "f"
      ],
      [
        "ar",
        "d"
      ],
      [
        "Ġo",
        "ver"
      ],
      [
        "p",
        "p"
      ],
      [
        "Ġa",
        "c"
      ],
      [
        "i",
        "ve"
      ],
      [
        "ec",
        "t"
      ],
      [
        "i",
        "v"
      ],
      [
        "u",
        "b"
      ],
      [
        "a",
        "b"
      ],
      [
        "Ġa",
        "re"
      ],
      [
        "Ġf",
        "ir"
      ],
      [
        "Ġh",
        "ave"
      ],
      [
        "Ġ",
        "up"
      ],
      [
        "ou",
        "ld"
      ],
      [
        "m",
        "er"
      ],
      [
        "Ġs",
        "ec"
      ],
      [
        "Ġre",
        "s"
      ],
      [
        "Ġm",
        "ar"
      ],
      [
        "t",
        "he"
      ],
      [
        "el",
        "l"
      ],
      [
        "an",
        "y"
      ],
      [
        "Ġre",
        "p"
      ],
      [
        "Ġs",
        "e"
      ],
      [
        "an",
        "s"
      ],
      [
        "Ġt",
        "w"
      ],
      [
        "Ġa",
        "b"
      ],
      [
        "hen",
        "s"
      ],
      [
        "Ġthe",
        "ir"
      ],
      [
        "on",
        "d"
      ],
      [
        "on",
        "g"
      ],
      [
        "Ġt",
        "e"
      ],
      [
        "en",
        "d"
      ],
      [
        "n",
        "ing"
      ],
      [
        "ar",
        "g"
      ],
      [
        "or",
        "k"
      ],
      [
        "t",
        "o"
      ],
      [
        "ic",
        "e"
      ],
      [
        "Ġf",
        "in"
      ],
      [
        "Ġb",
        "ut"
      ],
      [
        "Ġg",
        "o"
      ],
      [
        "Ġex",
        "p"
      ],
      [
        "Ġin",
        "ter"
      ],
      [
        "Ġo",
        "ut"
      ],
      [
        "ur",
        "s"
      ],
      [
        "th",
        "er"
      ],
      [
        "or",
        "d"
      ],
      [
        "om",
        "e"
      ],
      [
        "Ġy",
        "ear"
      ],
      [
        "Ġt",
        "r"
      ],
      [
        "ou",
        "t"
      ],
      [
        "re",
        "e"
      ],
      [
        "Ġ",
        "qu"
      ],
      [
        "en",
        "s"
      ],
      [
        "Ġfir",
        "st"
      ],
      [
        "ion",
        "s"
      ],
      [
        "Ġs",
        "er"
      ],
      [
        "Ġm",
        "ed"
      ],
      [
        "an",
        "t"
      ],
      [
        "a",
        "f"
      ],
      [
        "ic",
        "k"
      ],
      [
        "Ġg",
        "ro"
      ],
      [
        "Ġ",
        "ir"
      ],
      [
        "a",
        "q"
      ],
      [
        "im",
        "e"
      ],
      [
        "i",
        "re"
      ],
      [
        "ac",
        "e"
      ],
      [
        "urs",
        "day"
      ],
      [
        "un",
        "d"
      ],
      [
        "Ġp",
        "er"
      ],
      [
        "Ġth",
        "ursday"
      ],
      [
        "Ġw",
        "in"
      ],
      [
        "Ġp",
        "res"
      ],
      [
        "id",
        "ay"
      ],
      [
        "Ġa",
        "r"
      ],
      [
        "Ġm",
        "ore"
      ],
      [
        "Ġm",
        "o"
      ],
      [
        "Ġa",
        "d"
      ],
      [
        "he",
        "d"
      ],
      [
        "or",
        "s"
      ],
      [
        "Ġo",
        "r"
      ],
      [
        "i",
        "le"
      ],
      [
        "o",
        "us"
      ],
      [
        "Ġtw",
        "o"
      ],
      [
        "Ġt",
        "u"
      ],
      [
        "Ġs",
        "c"
      ],
      [
        "ic",
        "h"
      ],
      [
        "Ġn",
        "e"
      ],
      [
        "Ġtu",
        "esday"
      ],
      [
        "ill",
        "ion"
      ],
      [
        "Ġw",
        "ee"
      ],
      [
        "Ġre",
        "c"
      ],
      [
        "u",
        "re"
      ],
      [
        "Ġfr",
        "iday"
      ],
      [
        "ag",
        "e"
      ],
      [
        "a",
        "il"
      ],
      [
        "g",
        "e"
      ],
      [
        "u",
        "c"
      ],
      [
        "Ġo",
        "p"
      ],
      [
        "Ġth",
        "is"
      ],
      [
        "ation",
        "s"
      ],
      [
        "ay",
        "s"
      ],
      [
        "Ġd",
        "is"
      ],
      [
        "Ġcon",
        "t"
      ],
      [
        "Ġp",
        "ric"
      ],
      [
        "of",
        "t"
      ],
      [
        "Ġa",
        "pp"
      ],
      [
        "Ġp",
        "e"
      ],
      [
        "it",
        "e"
      ],
      [
        "Ġw",
        "ed"
      ],
      [
        "id",
        "e"
      ],
      [
        "Ġir",
        "aq"
      ],
      [
        "n",
        "esday"
      ],
      [
        "Ġwed",
        "nesday"
      ],
      [
        "Ġb",
        "r"
      ],
      [
        "k",
        "e"
      ],
      [
        "Ġmon",
        "day"
      ],
      [
        "Ġcomp",
        "any"
      ],
      [
        "re",
        "uters"
      ],
      [
        "Ġn",
        "ot"
      ],
      [
        "at",
        "es"
      ],
      [
        "Ġac",
        "c"
      ],
      [
        "v",
        "est"
      ],
      [
        "an",
        "c"
      ],
      [
        "ig",
        "n"
      ],
      [
        "Ġc",
        "r"
      ],
      [
        "is",
        "h"
      ],
      [
        "Ġy",
        "ork"
      ],
      [
        "a",
        "v"
      ],
      [
        "id",
        "ent"
      ],
      [
        "Ġb",
        "l"
      ],
      [
        "am",
        "e"
      ],
      [
        "l",
        "ic"
      ],
      [
        "k",
        "et"
      ],
      [
        "Ġin",
        "d"
      ],
      [
        "Ġth",
        "an"
      ],
      [
        "Ġon",
        "e"
      ],
      [
        "Ġwor",
        "ld"
      ],
      [
        "t",
        "ing"
      ],
      [
        "u",
        "e"
      ],
      [
        "it",
        "ed"
      ],
      [
        "i",
        "e"
      ],
      [
        "Ġm",
        "in"
      ],
      [
        "ul",
        "l"
      ],
      [
        "t",
        "or"
      ],
      [
        "Ġc",
        "or"
      ],
      [
        "s",
        "e"
      ],
      [
        "a",
        "j"
      ],
      [
        "d",
        "er"
      ],
      [
        "es",
        "ter"
      ],
      [
        "ow",
        "n"
      ],
      [
        "Ġinter",
        "n"
      ],
      [
        "Ġal",
        "l"
      ],
      [
        "Ġg",
        "re"
      ],
      [
        "h",
        "n"
      ],
      [
        "at",
        "ed"
      ],
      [
        "ation",
        "al"
      ],
      [
        "t",
        "on"
      ],
      [
        "Ġo",
        "il"
      ],
      [
        "am",
        "p"
      ],
      [
        "Ġ",
        "im"
      ],
      [
        "on",
        "e"
      ],
      [
        "Ġ2",
        "00"
      ],
      [
        "n",
        "ew"
      ],
      [
        "Ġc",
        "o"
      ],
      [
        "as",
        "s"
      ],
      [
        "at",
        "hens"
      ],
      [
        "Ġthe",
        "y"
      ],
      [
        "i",
        "b"
      ],
      [
        "as",
        "e"
      ],
      [
        "Ġh",
        "igh"
      ],
      [
        "Ġl",
        "ast"
      ],
      [
        "o",
        "g"
      ],
      [
        "Ġwee",
        "k"
      ],
      [
        "Ġg",
        "old"
      ],
      [
        "Ġwh",
        "o"
      ],
      [
        "Ġag",
        "ain"
      ],
      [
        "Ġj",
        "o"
      ],
      [
        "Ġb",
        "an"
      ],
      [
        "ot",
        "e"
      ],
      [
        "Ġab",
        "out"
      ],
      [
        "Ġw",
        "ere"
      ],
      [
        "Ġle",
        "ad"
      ],
      [
        "Ġcor",
        "p"
      ],
      [
        "ak",
        "e"
      ],
      [
        "an",
        "ce"
      ],
      [
        "Ġw",
        "e"
      ],
      [
        "et",
        "w"
      ],
      [
        "ar",
        "y"
      ],
      [
        "Ġb",
        "us"
      ],
      [
        "Ġm",
        "il"
      ],
      [
        "ear",
        "ch"
      ],
      [
        "Ġa",
        "ir"
      ],
      [
        "al",
        "s"
      ],
      [
        "i",
        "z"
      ],
      [
        "Ġin",
        "to"
      ],
      [
        "oun",
        "t"
      ],
      [
        "ro",
        "s"
      ],
      [
        "c",
        "om"
      ],
      [
        "ad",
        "e"
      ],
      [
        "Ġm",
        "an"
      ],
      [
        "ver",
        "s"
      ],
      [
        "Ġoff",
        "ic"
      ],
      [
        "ver",
        "n"
      ],
      [
        "en",
        "ce"
      ],
      [
        "Ġ",
        "4"
      ],
      [
        "a",
        "w"
      ],
      [
        "it",
        "ion"
      ],
      [
        "x",
        "t"
      ],
      [
        "f",
        "or"
      ],
      [
        "Ġgo",
        "vern"
      ],
      [
        "Ġe",
        "ar"
      ],
      [
        "ac",
        "h"
      ],
      [
        "b",
        "er"
      ],
      [
        "Ġb",
        "o"
      ],
      [
        "Ġs",
        "un"
      ],
      [
        "Ġy",
        "ester"
      ],
      [
        "Ġf",
        "l"
      ],
      [
        "Ġyester",
        "day"
      ],
      [
        "as",
        "h"
      ],
      [
        "Ġpric",
        "es"
      ],
      [
        "Ġh",
        "ad"
      ],
      [
        "Ġs",
        "at"
      ],
      [
        "Ġbe",
        "en"
      ],
      [
        "Ġte",
        "am"
      ],
      [
        "at",
        "h"
      ],
      [
        "Ġrep",
        "ort"
      ],
      [
        "Ġa",
        "mer"
      ],
      [
        "Ġp",
        "ol"
      ],
      [
        "Ġamer",
        "ic"
      ],
      [
        "ac",
        "t"
      ],
      [
        "Ġsec",
        "ond"
      ],
      [
        "Ġcom",
        "m"
      ],
      [
        "d",
        "s"
      ],
      [
        "v",
        "en"
      ],
      [
        "Ġp",
        "r"
      ],
      [
        "Ġat",
        "t"
      ],
      [
        "as",
        "ed"
      ],
      [
        "at",
        "ing"
      ],
      [
        "Ġgovern",
        "ment"
      ],
      [
        "Ġc",
        "an"
      ],
      [
        "ar",
        "ter"
      ],
      [
        "Ġser",
        "v"
      ],
      [
        "Ġpres",
        "ident"
      ],
      [
        "Ġoffic",
        "ial"
      ],
      [
        "e",
        "y"
      ],
      [
        "u",
        "ct"
      ],
      [
        "l",
        "o"
      ],
      [
        "Ġan",
        "n"
      ],
      [
        "h",
        "t"
      ],
      [
        "Ġa",
        "ug"
      ],
      [
        "al",
        "ly"
      ],
      [
        "le",
        "ct"
      ],
      [
        "ur",
        "n"
      ],
      [
        "Ġagain",
        "st"
      ],
      [
        "is",
        "s"
      ],
      [
        "Ġun",
        "ited"
      ],
      [
        "Ġw",
        "hen"
      ],
      [
        "l",
        "ed"
      ],
      [
        "oun",
        "d"
      ],
      [
        "Ġmed",
        "al"
      ],
      [
        "Ġre",
        "t"
      ],
      [
        "Ġen",
        "d"
      ],
      [
        "oc",
        "k"
      ],
      [
        "r",
        "al"
      ],
      [
        "v",
        "el"
      ],
      [
        "Ġin",
        "vest"
      ],
      [
        "Ġn",
        "o"
      ],
      [
        "Ġpro",
        "f"
      ],
      [
        "Ġs",
        "l"
      ],
      [
        "Ġwh",
        "ich"
      ],
      [
        "Ġre",
        "g"
      ],
      [
        "Ġmil",
        "it"
      ],
      [
        "Ġm",
        "e"
      ],
      [
        "w",
        "w"
      ],
      [
        "Ġw",
        "ould"
      ],
      [
        "Ġpe",
        "op"
      ],
      [
        "c",
        "ent"
      ],
      [
        "Ġm",
        "illion"
      ],
      [
        "Ġst",
        "r"
      ],
      [
        "Ġp",
        "re"
      ],
      [
        "Ġsun",
        "day"
      ],
      [
        "er",
        "al"
      ],
      [
        "Ġs",
        "up"
      ],
      [
        "Ġth",
        "ree"
      ],
      [
        "Ġf",
        "our"
      ],
      [
        "Ġgro",
        "up"
      ],
      [
        "Ġpl",
        "an"
      ],
      [
        "Ġs",
        "et"
      ],
      [
        "c",
        "on"
      ],
      [
        "y",
        "st"
      ],
      [
        "Ġmar",
        "ket"
      ],
      [
        "Ġcon",
        "s"
      ],
      [
        "ur",
        "day"
      ],
      [
        "Ġsat",
        "urday"
      ],
      [
        "Ġa",
        "m"
      ],
      [
        "Ġc",
        "ould"
      ],
      [
        "Ġn",
        "ight"
      ],
      [
        "m",
        "an"
      ],
      [
        "Ġb",
        "ec"
      ],
      [
        "re",
        "n"
      ],
      [
        "Ġc",
        "ount"
      ],
      [
        "t",
        "ed"
      ],
      [
        "Ġp",
        "h"
      ],
      [
        "g",
        "ed"
      ],
      [
        "am",
        "es"
      ],
      [
        "Ġb",
        "u"
      ],
      [
        "oc",
        "ks"
      ],
      [
        "Ġw",
        "ar"
      ],
      [
        "ub",
        "lic"
      ],
      [
        "Ġpeop",
        "le"
      ],
      [
        "Ġp",
        "art"
      ],
      [
        "l",
        "p"
      ],
      [
        "c",
        "ed"
      ],
      [
        "k",
        "ing"
      ],
      [
        "Ġd",
        "ec"
      ],
      [
        "Ġg",
        "oo"
      ],
      [
        "Ġpl",
        "ay"
      ],
      [
        "ic",
        "al"
      ],
      [
        "w",
        "are"
      ],
      [
        "Ġs",
        "o"
      ],
      [
        "Ġd",
        "o"
      ],
      [
        "us",
        "s"
      ],
      [
        "Ġper",
        "cent"
      ],
      [
        "Ġ",
        "5"
      ],
      [
        "ect",
        "ed"
      ],
      [
        "ro",
        "p"
      ],
      [
        "Ġyear",
        "s"
      ],
      [
        "ull",
        "qu"
      ],
      [
        "l",
        "and"
      ],
      [
        "Ġj",
        "ust"
      ],
      [
        "t",
        "le"
      ],
      [
        "c",
        "o"
      ],
      [
        "Ġt",
        "ime"
      ],
      [
        "ing",
        "ton"
      ],
      [
        "is",
        "ter"
      ],
      [
        "or",
        "ts"
      ],
      [
        "in",
        "a"
      ],
      [
        "Ġd",
        "es"
      ],
      [
        "Ġto",
        "day"
      ],
      [
        "Ġde",
        "f"
      ],
      [
        "Ġs",
        "ur"
      ],
      [
        "Ġs",
        "ou"
      ],
      [
        "Ġ",
        "6"
      ],
      [
        "ow",
        "er"
      ],
      [
        "Ġim",
        "p"
      ],
      [
        "Ġs",
        "ome"
      ],
      [
        "Ġs",
        "oft"
      ],
      [
        "el",
        "y"
      ],
      [
        "Ġs",
        "w"
      ],
      [
        "Ġsec",
        "ur"
      ],
      [
        "Ġd",
        "own"
      ],
      [
        "w",
        "n"
      ],
      [
        "Ġb",
        "ack"
      ],
      [
        "Ġst",
        "ates"
      ],
      [
        "l",
        "ine"
      ],
      [
        "Ġs",
        "al"
      ],
      [
        "ol",
        "l"
      ],
      [
        "tor",
        "y"
      ],
      [
        "Ġh",
        "er"
      ],
      [
        "in",
        "ess"
      ],
      [
        "os",
        "e"
      ],
      [
        "Ġt",
        "ec"
      ],
      [
        "Ġres",
        "earch"
      ],
      [
        "i",
        "er"
      ],
      [
        "Ġrec",
        "ord"
      ],
      [
        "Ġb",
        "ro"
      ],
      [
        "f",
        "f"
      ],
      [
        "Ġr",
        "un"
      ],
      [
        "ul",
        "t"
      ],
      [
        "Ġban",
        "k"
      ],
      [
        "Ġann",
        "oun"
      ],
      [
        "l",
        "es"
      ],
      [
        "Ġpro",
        "d"
      ],
      [
        "Ġfin",
        "al"
      ],
      [
        "v",
        "ent"
      ],
      [
        "Ġc",
        "our"
      ],
      [
        "Ġin",
        "t"
      ],
      [
        "is",
        "ts"
      ],
      [
        "ow",
        "s"
      ],
      [
        "aj",
        "af"
      ],
      [
        "Ġc",
        "ap"
      ],
      [
        "Ġmon",
        "th"
      ],
      [
        "it",
        "al"
      ],
      [
        "Ġm",
        "ak"
      ],
      [
        "us",
        "e"
      ],
      [
        "Ġk",
        "ill"
      ],
      [
        "ug",
        "h"
      ],
      [
        "in",
        "es"
      ],
      [
        "Ġc",
        "ity"
      ],
      [
        "Ġde",
        "m"
      ],
      [
        "ab",
        "le"
      ],
      [
        "m",
        "s"
      ],
      [
        "Ġmin",
        "ister"
      ],
      [
        "b",
        "all"
      ],
      [
        "g",
        "h"
      ],
      [
        "g",
        "er"
      ],
      [
        "Ġintern",
        "et"
      ],
      [
        "it",
        "ies"
      ],
      [
        "Ġat",
        "hens"
      ],
      [
        "os",
        "s"
      ],
      [
        "o",
        "k"
      ],
      [
        "Ġolympic",
        "s"
      ],
      [
        "Ġbus",
        "iness"
      ],
      [
        "Ġsoft",
        "ware"
      ],
      [
        "yst",
        "em"
      ],
      [
        "Ġb",
        "ig"
      ],
      [
        "Ġd",
        "ay"
      ],
      [
        "Ġg",
        "ames"
      ],
      [
        "Ġoff",
        "er"
      ],
      [
        "i",
        "x"
      ],
      [
        "Ġt",
        "er"
      ],
      [
        "it",
        "s"
      ],
      [
        "ol",
        "og"
      ],
      [
        "Ġc",
        "ar"
      ],
      [
        "ust",
        "ral"
      ],
      [
        "Ġw",
        "on"
      ],
      [
        "e",
        "p"
      ],
      [
        "ic",
        "s"
      ],
      [
        "Ġm",
        "ay"
      ],
      [
        "is",
        "e"
      ],
      [
        "Ġas",
        "s"
      ],
      [
        "ir",
        "d"
      ],
      [
        "Ġd",
        "r"
      ],
      [
        "Ġe",
        "lect"
      ],
      [
        "Ġqu",
        "arter"
      ],
      [
        "f",
        "t"
      ],
      [
        "ic",
        "ros"
      ],
      [
        "u",
        "al"
      ],
      [
        "v",
        "ed"
      ],
      [
        "Ġhe",
        "lp"
      ],
      [
        "Ġl",
        "ong"
      ],
      [
        "Ġl",
        "i"
      ],
      [
        "Ġe",
        "con"
      ],
      [
        "Ġecon",
        "om"
      ],
      [
        "ullqu",
        "ote"
      ],
      [
        "Ġv",
        "ic"
      ],
      [
        "Ġs",
        "ystem"
      ],
      [
        "Ġsup",
        "p"
      ],
      [
        "o",
        "d"
      ],
      [
        "u",
        "ch"
      ],
      [
        "Ġm",
        "us"
      ],
      [
        "as",
        "on"
      ],
      [
        "Ġf",
        "ed"
      ],
      [
        "ap",
        "p"
      ],
      [
        "Ġcount",
        "ry"
      ],
      [
        "i",
        "ed"
      ],
      [
        "Ġofficial",
        "s"
      ],
      [
        "i",
        "ous"
      ],
      [
        "Ġne",
        "xt"
      ],
      [
        "Ġc",
        "ol"
      ],
      [
        "at",
        "er"
      ],
      [
        "Ġcon",
        "f"
      ],
      [
        "Ġo",
        "ther"
      ],
      [
        "g",
        "r"
      ],
      [
        "l",
        "ing"
      ],
      [
        "et",
        "s"
      ],
      [
        "Ġ",
        "7"
      ],
      [
        "ec",
        "e"
      ],
      [
        "Ġtec",
        "hn"
      ],
      [
        "Ġameric",
        "an"
      ],
      [
        "Ġg",
        "r"
      ],
      [
        "k",
        "ed"
      ],
      [
        "b",
        "s"
      ],
      [
        "Ġs",
        "he"
      ],
      [
        "g",
        "le"
      ],
      [
        "icros",
        "oft"
      ],
      [
        "Ġw",
        "om"
      ],
      [
        "Ġre",
        "le"
      ],
      [
        "Ġn",
        "or"
      ],
      [
        "Ġn",
        "etw"
      ],
      [
        "t",
        "p"
      ],
      [
        "Ġ",
        "8"
      ],
      [
        "Ġm",
        "ost"
      ],
      [
        "Ġst",
        "ate"
      ],
      [
        "Ġserv",
        "ice"
      ],
      [
        "Ġt",
        "arg"
      ],
      [
        "Ġsecur",
        "ity"
      ],
      [
        "p",
        "h"
      ],
      [
        "ing",
        "s"
      ],
      [
        "Ġg",
        "u"
      ],
      [
        "Ġl",
        "arg"
      ],
      [
        "and",
        "s"
      ],
      [
        "m",
        "ed"
      ],
      [
        "el",
        "s"
      ],
      [
        "en",
        "c"
      ],
      [
        "a",
        "ir"
      ],
      [
        "Ġs",
        "ay"
      ],
      [
        "Ġto",
        "p"
      ],
      [
        "Ġn",
        "ational"
      ],
      [
        "ur",
        "ing"
      ],
      [
        "a",
        "z"
      ],
      [
        "i",
        "ent"
      ],
      [
        "Ġt",
        "ri"
      ],
      [
        "an",
        "ge"
      ],
      [
        "Ġun",
        "der"
      ],
      [
        "n",
        "ed"
      ],
      [
        "Ġre",
        "l"
      ],
      [
        "Ġch",
        "amp"
      ],
      [
        "Ġn",
        "ear"
      ],
      [
        "ment",
        "s"
      ],
      [
        "Ġop",
        "en"
      ],
      [
        "Ġde",
        "p"
      ],
      [
        "Ġcour",
        "t"
      ],
      [
        "he",
        "s"
      ],
      [
        "Ġreport",
        "ed"
      ],
      [
        "oo",
        "d"
      ],
      [
        "Ġb",
        "illion"
      ],
      [
        "Ġ1",
        "5"
      ],
      [
        "Ġal",
        "s"
      ],
      [
        "Ġp",
        "o"
      ],
      [
        "Ġp",
        "ublic"
      ],
      [
        "Ġth",
        "ro"
      ],
      [
        "ec",
        "ut"
      ],
      [
        "Ġv",
        "i"
      ],
      [
        "Ġc",
        "all"
      ],
      [
        "Ġgre",
        "ece"
      ],
      [
        "ord",
        "ing"
      ],
      [
        "Ġop",
        "er"
      ],
      [
        "Ġ1",
        "9"
      ],
      [
        "Ġen",
        "g"
      ],
      [
        "Ġgro",
        "w"
      ],
      [
        "b",
        "le"
      ],
      [
        "Ġh",
        "ome"
      ],
      [
        "Ġy",
        "ou"
      ],
      [
        "Ġannoun",
        "ced"
      ],
      [
        "l",
        "ud"
      ],
      [
        "g",
        "est"
      ],
      [
        "le",
        "y"
      ],
      [
        "Ġsh",
        "ow"
      ],
      [
        "Ġsal",
        "es"
      ],
      [
        "a",
        "res"
      ],
      [
        "f",
        "ore"
      ],
      [
        "Ġa",
        "ustral"
      ],
      [
        "Ġtarg",
        "et"
      ],
      [
        "Ġg",
        "ian"
      ],
      [
        "Ġnew",
        "s"
      ],
      [
        "Ġr",
        "uss"
      ],
      [
        "Ġacc",
        "ording"
      ],
      [
        "Ġintern",
        "ational"
      ],
      [
        "on",
        "s"
      ],
      [
        "ic",
        "es"
      ],
      [
        "Ġ1",
        "0"
      ],
      [
        "Ġs",
        "ays"
      ],
      [
        "Ġe",
        "u"
      ],
      [
        "a",
        "h"
      ],
      [
        "Ġ",
        "x"
      ],
      [
        "Ġh",
        "ol"
      ],
      [
        "Ġre",
        "b"
      ],
      [
        "y",
        "ear"
      ],
      [
        "Ġst",
        "art"
      ],
      [
        "vel",
        "op"
      ],
      [
        "Ġbr",
        "it"
      ],
      [
        "for",
        "m"
      ],
      [
        "Ġbe",
        "fore"
      ],
      [
        "in",
        "t"
      ],
      [
        "an",
        "g"
      ],
      [
        "at",
        "ch"
      ],
      [
        "Ġg",
        "en"
      ],
      [
        "Ġjo",
        "hn"
      ],
      [
        "Ġs",
        "ee"
      ],
      [
        "Ġe",
        "m"
      ],
      [
        "p",
        "t"
      ],
      [
        "Ġc",
        "ent"
      ],
      [
        "Ġm",
        "aj"
      ],
      [
        "is",
        "ion"
      ],
      [
        "res",
        "s"
      ],
      [
        "er",
        "ic"
      ],
      [
        "Ġc",
        "ost"
      ],
      [
        "Ġh",
        "im"
      ],
      [
        "Ġf",
        "ore"
      ],
      [
        "il",
        "d"
      ],
      [
        "Ġvic",
        "tory"
      ],
      [
        "r",
        "or"
      ],
      [
        "Ġc",
        "re"
      ],
      [
        "Ġm",
        "en"
      ],
      [
        "Ġth",
        "re"
      ],
      [
        "c",
        "ess"
      ],
      [
        "Ġn",
        "ajaf"
      ],
      [
        "Ġwh",
        "at"
      ],
      [
        "6",
        "6"
      ],
      [
        "Ġthe",
        "m"
      ],
      [
        "ist",
        "an"
      ],
      [
        "Ġd",
        "el"
      ],
      [
        "Ġst",
        "re"
      ],
      [
        "Ġj",
        "u"
      ],
      [
        "b",
        "r"
      ],
      [
        "le",
        "t"
      ],
      [
        "u",
        "res"
      ],
      [
        "Ġmaj",
        "or"
      ],
      [
        "b",
        "e"
      ],
      [
        "h",
        "ip"
      ],
      [
        "Ġ",
        "if"
      ],
      [
        "Ġth",
        "ird"
      ],
      [
        "Ġde",
        "velop"
      ],
      [
        "Ġfed",
        "eral"
      ],
      [
        "Ġtechn",
        "olog"
      ],
      [
        "Ġthro",
        "ugh"
      ],
      [
        "i",
        "o"
      ],
      [
        "Ġt",
        "al"
      ],
      [
        "in",
        "ce"
      ],
      [
        "Ġs",
        "m"
      ],
      [
        "Ġp",
        "ost"
      ],
      [
        "Ġg",
        "et"
      ],
      [
        "Ġpl",
        "ans"
      ],
      [
        "i",
        "el"
      ],
      [
        "u",
        "ter"
      ],
      [
        "w",
        "in"
      ],
      [
        "Ġp",
        "ar"
      ],
      [
        "Ġwin",
        "d"
      ],
      [
        "a",
        "use"
      ],
      [
        "Ġc",
        "he"
      ],
      [
        "Ġb",
        "as"
      ],
      [
        "Ġwh",
        "ile"
      ],
      [
        "Ġinc",
        "lud"
      ],
      [
        "an",
        "ts"
      ],
      [
        "oo",
        "k"
      ],
      [
        "af",
        "p"
      ],
      [
        "ick",
        "er"
      ],
      [
        "Ġb",
        "el"
      ],
      [
        "Ġm",
        "ade"
      ],
      [
        "ver",
        "y"
      ],
      [
        "l",
        "ess"
      ],
      [
        "Ġs",
        "ign"
      ],
      [
        "c",
        "hed"
      ],
      [
        "u",
        "k"
      ],
      [
        "Ġp",
        "a"
      ],
      [
        "Ġin",
        "f"
      ],
      [
        "Ġh",
        "om"
      ],
      [
        "Ġg",
        "ame"
      ],
      [
        "Ġpro",
        "v"
      ],
      [
        "ee",
        "p"
      ],
      [
        "at",
        "or"
      ],
      [
        "Ġh",
        "it"
      ],
      [
        "Ġl",
        "a"
      ],
      [
        "Ġb",
        "ar"
      ],
      [
        "Ġan",
        "t"
      ],
      [
        "am",
        "s"
      ],
      [
        "e",
        "en"
      ],
      [
        "Ġf",
        "e"
      ],
      [
        "Ġre",
        "m"
      ],
      [
        "en",
        "e"
      ],
      [
        "in",
        "f"
      ],
      [
        "on",
        "t"
      ],
      [
        "Ġin",
        "s"
      ],
      [
        "ro",
        "und"
      ],
      [
        "Ġl",
        "aw"
      ],
      [
        "al",
        "if"
      ],
      [
        "is",
        "ing"
      ],
      [
        "st",
        "r"
      ],
      [
        "Ġpro",
        "t"
      ],
      [
        "Ġ1",
        "00"
      ],
      [
        "Ġ200",
        "4"
      ],
      [
        "Ġsou",
        "th"
      ],
      [
        "or",
        "n"
      ],
      [
        "Ġst",
        "ock"
      ],
      [
        "c",
        "er"
      ],
      [
        "Ġt",
        "ro"
      ],
      [
        "Ġbe",
        "g"
      ],
      [
        "Ġa",
        "p"
      ],
      [
        "Ġch",
        "arg"
      ],
      [
        "Ġ",
        "i"
      ],
      [
        "Ġde",
        "al"
      ],
      [
        "Ġpr",
        "ime"
      ],
      [
        "ht",
        "tp"
      ],
      [
        "c",
        "es"
      ],
      [
        "Ġa",
        "ut"
      ],
      [
        "Ġc",
        "ut"
      ],
      [
        "Ġwor",
        "k"
      ],
      [
        "Ġgoo",
        "gle"
      ],
      [
        "w",
        "ash"
      ],
      [
        "k",
        "y"
      ],
      [
        "Ġhe",
        "ad"
      ],
      [
        "re",
        "f"
      ],
      [
        "Ġh",
        "ref"
      ],
      [
        "http",
        "ww"
      ],
      [
        "n",
        "t"
      ],
      [
        "Ġ",
        "ed"
      ],
      [
        "Ġb",
        "at"
      ],
      [
        "w",
        "ard"
      ],
      [
        "Ġh",
        "ur"
      ],
      [
        "Ġcomp",
        "et"
      ],
      [
        "Ġhref",
        "httpww"
      ],
      [
        "n",
        "er"
      ],
      [
        "Ġt",
        "ake"
      ],
      [
        "Ġf",
        "il"
      ],
      [
        "etw",
        "een"
      ],
      [
        "y",
        "s"
      ],
      [
        "Ġa",
        "ct"
      ],
      [
        "Ġb",
        "etween"
      ],
      [
        "Ġcomp",
        "uter"
      ],
      [
        "Ġb",
        "re"
      ],
      [
        "us",
        "ed"
      ],
      [
        "Ġj",
        "ap"
      ],
      [
        "Ġsh",
        "i"
      ],
      [
        "Ġprof",
        "it"
      ],
      [
        "wash",
        "ington"
      ],
      [
        "a",
        "im"
      ],
      [
        "Ġch",
        "ina"
      ],
      [
        "Ġm",
        "iss"
      ],
      [
        "Ġsh",
        "ares"
      ],
      [
        "u",
        "el"
      ],
      [
        "Ġt",
        "a"
      ],
      [
        "an",
        "e"
      ],
      [
        "ain",
        "s"
      ],
      [
        "Ġcomp",
        "an"
      ],
      [
        "in",
        "s"
      ],
      [
        "in",
        "u"
      ],
      [
        "as",
        "p"
      ],
      [
        "ad",
        "a"
      ],
      [
        "Ġle",
        "ast"
      ],
      [
        "Ġw",
        "ay"
      ],
      [
        "Ġwe",
        "b"
      ],
      [
        "Ġwind",
        "ows"
      ],
      [
        "Ġst",
        "ri"
      ],
      [
        "Ġte",
        "le"
      ],
      [
        "Ġind",
        "ust"
      ],
      [
        "Ġf",
        "ound"
      ],
      [
        "Ġm",
        "icrosoft"
      ],
      [
        "Ġter",
        "ror"
      ],
      [
        "Ġcompan",
        "ies"
      ],
      [
        "Ġin",
        "it"
      ],
      [
        "Ġre",
        "f"
      ],
      [
        "Ġex",
        "t"
      ],
      [
        "Ġtr",
        "ad"
      ],
      [
        "Ġre",
        "d"
      ],
      [
        "st",
        "ocks"
      ],
      [
        "Ġpres",
        "s"
      ],
      [
        "m",
        "e"
      ],
      [
        "Ġh",
        "ow"
      ],
      [
        "Ġ",
        "ip"
      ],
      [
        "Ġo",
        "pp"
      ],
      [
        "Ġp",
        "ay"
      ],
      [
        "Ġiraq",
        "i"
      ],
      [
        "Ġbu",
        "y"
      ],
      [
        "w",
        "ay"
      ],
      [
        "Ġm",
        "ake"
      ],
      [
        "Ġn",
        "ow"
      ],
      [
        "qu",
        "ick"
      ],
      [
        "us",
        "p"
      ],
      [
        "ra",
        "el"
      ],
      [
        "m",
        "in"
      ],
      [
        "end",
        "ing"
      ],
      [
        "v",
        "es"
      ],
      [
        "Ġe",
        "ven"
      ],
      [
        "vest",
        "or"
      ],
      [
        "Ġpol",
        "ice"
      ],
      [
        "Ġmus",
        "ic"
      ],
      [
        "f",
        "ullquote"
      ],
      [
        "o",
        "ther"
      ],
      [
        "s",
        "u"
      ],
      [
        "Ġp",
        "ower"
      ],
      [
        "le",
        "g"
      ],
      [
        "Ġinc",
        "re"
      ],
      [
        "reuters",
        "com"
      ],
      [
        "Ġtarget",
        "stocks"
      ],
      [
        "win",
        "vestor"
      ],
      [
        "inf",
        "of"
      ],
      [
        "Ġhrefhttpww",
        "winvestor"
      ],
      [
        "asp",
        "xt"
      ],
      [
        "quick",
        "infof"
      ],
      [
        "fullquote",
        "aspxt"
      ],
      [
        "reuterscom",
        "fullquoteaspxt"
      ],
      [
        "Ġtargetstocks",
        "quickinfof"
      ],
      [
        "Ġhrefhttpwwwinvestor",
        "reuterscomfullquoteaspxt"
      ],
      [
        "n",
        "a"
      ],
      [
        "Ġon",
        "ly"
      ],
      [
        "Ġlarg",
        "est"
      ],
      [
        "Ġtechnolog",
        "y"
      ],
      [
        "er",
        "t"
      ],
      [
        "Ġan",
        "g"
      ],
      [
        "ar",
        "ing"
      ],
      [
        "Ġbe",
        "ing"
      ],
      [
        "Ġbec",
        "ause"
      ],
      [
        "Ġe",
        "l"
      ],
      [
        "Ġs",
        "ince"
      ],
      [
        "re",
        "ed"
      ],
      [
        "Ġan",
        "other"
      ],
      [
        "Ġkill",
        "ed"
      ],
      [
        "Ġgian",
        "t"
      ],
      [
        "Ġf",
        "ac"
      ],
      [
        "Ġh",
        "op"
      ],
      [
        "ou",
        "gh"
      ],
      [
        "Ġad",
        "v"
      ],
      [
        "f",
        "ul"
      ],
      [
        "y",
        "m"
      ],
      [
        "Ġt",
        "est"
      ],
      [
        "Ġs",
        "ix"
      ],
      [
        "Ġh",
        "al"
      ],
      [
        "ak",
        "ing"
      ],
      [
        "ond",
        "on"
      ],
      [
        "ning",
        "s"
      ],
      [
        "Ġhigh",
        "er"
      ],
      [
        "ro",
        "l"
      ],
      [
        "Ġr",
        "ad"
      ],
      [
        "Ġcl",
        "aim"
      ],
      [
        "Ġo",
        "wn"
      ],
      [
        "at",
        "est"
      ],
      [
        "Ġh",
        "old"
      ],
      [
        "Ġfor",
        "mer"
      ],
      [
        "Ġinvest",
        "ors"
      ],
      [
        "Ġgrow",
        "th"
      ],
      [
        "Ġh",
        "am"
      ],
      [
        "Ġon",
        "line"
      ],
      [
        "Ġst",
        "ocks"
      ],
      [
        "Ġnetw",
        "ork"
      ],
      [
        "ent",
        "s"
      ],
      [
        "Ġk",
        "n"
      ],
      [
        "Ġhrefhttpwwwinvestorreuterscomfullquoteaspxt",
        "icker"
      ],
      [
        "Ġs",
        "usp"
      ],
      [
        "Ġd",
        "ou"
      ],
      [
        "ac",
        "ks"
      ],
      [
        "Ġ2",
        "0"
      ],
      [
        "are",
        "d"
      ],
      [
        "on",
        "es"
      ],
      [
        "re",
        "st"
      ],
      [
        "Ġbus",
        "h"
      ],
      [
        "Ġeu",
        "rop"
      ],
      [
        "es",
        "e"
      ],
      [
        "Ġf",
        "ive"
      ],
      [
        "Ġst",
        "ar"
      ],
      [
        "Ġr",
        "ul"
      ],
      [
        "Ġret",
        "ail"
      ],
      [
        "Ġcons",
        "um"
      ],
      [
        "Ġoffer",
        "ing"
      ],
      [
        "at",
        "ors"
      ],
      [
        "Ġd",
        "at"
      ],
      [
        "Ġdr",
        "ug"
      ],
      [
        "er",
        "ed"
      ],
      [
        "ro",
        "w"
      ],
      [
        "in",
        "d"
      ],
      [
        "is",
        "co"
      ],
      [
        "Ġse",
        "ason"
      ],
      [
        "Ġbig",
        "gest"
      ],
      [
        "l",
        "os"
      ],
      [
        "Ġan",
        "y"
      ],
      [
        "Ġd",
        "ays"
      ],
      [
        "iv",
        "es"
      ],
      [
        "Ġmilit",
        "ary"
      ],
      [
        "b",
        "y"
      ],
      [
        "Ġs",
        "ub"
      ],
      [
        "Ġs",
        "earch"
      ],
      [
        "Ġcl",
        "eric"
      ],
      [
        "Ġjap",
        "an"
      ],
      [
        "l",
        "in"
      ],
      [
        "Ġ1",
        "8"
      ],
      [
        "ther",
        "n"
      ],
      [
        "at",
        "ic"
      ],
      [
        "Ġis",
        "rael"
      ],
      [
        "Ġprod",
        "uc"
      ],
      [
        "Ġ",
        "9"
      ],
      [
        "Ġro",
        "se"
      ],
      [
        "Ġf",
        "ell"
      ],
      [
        "Ġd",
        "uring"
      ],
      [
        "ure",
        "d"
      ],
      [
        "Ġreg",
        "ion"
      ],
      [
        "Ġwom",
        "en"
      ],
      [
        "i",
        "vers"
      ],
      [
        "Ġl",
        "o"
      ],
      [
        "ag",
        "ue"
      ],
      [
        "ud",
        "e"
      ],
      [
        "b",
        "ile"
      ],
      [
        "Ġb",
        "oo"
      ],
      [
        "Ġag",
        "reed"
      ],
      [
        "Ġinclud",
        "ing"
      ],
      [
        "p",
        "l"
      ],
      [
        "Ġs",
        "u"
      ],
      [
        "Ġth",
        "ere"
      ],
      [
        "ur",
        "y"
      ],
      [
        "Ġ1",
        "2"
      ],
      [
        "ag",
        "o"
      ],
      [
        "Ġlead",
        "er"
      ],
      [
        "Ġshi",
        "ite"
      ],
      [
        "r",
        "up"
      ],
      [
        "Ġa",
        "v"
      ],
      [
        "Ġpro",
        "p"
      ],
      [
        "Ġcl",
        "os"
      ],
      [
        "Ġwee",
        "ks"
      ],
      [
        "ros",
        "s"
      ],
      [
        "r",
        "on"
      ],
      [
        "z",
        "e"
      ],
      [
        "Ġle",
        "g"
      ],
      [
        "iel",
        "d"
      ],
      [
        "or",
        "ks"
      ],
      [
        "al",
        "th"
      ],
      [
        "Ġst",
        "ill"
      ],
      [
        "Ġen",
        "ter"
      ],
      [
        "Ġfin",
        "anc"
      ],
      [
        "b",
        "ut"
      ],
      [
        "ow",
        "ing"
      ],
      [
        "Ġeurop",
        "e"
      ],
      [
        "i",
        "um"
      ],
      [
        "Ġc",
        "ust"
      ],
      [
        "am",
        "ent"
      ],
      [
        "uct",
        "ion"
      ],
      [
        "Ġreg",
        "ul"
      ],
      [
        "Ġs",
        "ch"
      ],
      [
        "Ġc",
        "amp"
      ],
      [
        "Ġf",
        "ight"
      ],
      [
        "Ġst",
        "ud"
      ],
      [
        "Ġpric",
        "e"
      ],
      [
        "Ġear",
        "ly"
      ],
      [
        "a",
        "el"
      ],
      [
        "Ġb",
        "om"
      ],
      [
        "Ġexp",
        "ected"
      ],
      [
        "Ġw",
        "r"
      ],
      [
        "Ġr",
        "a"
      ],
      [
        "Ġac",
        "qu"
      ],
      [
        "Ġaug",
        "ust"
      ],
      [
        "Ġmak",
        "er"
      ],
      [
        "Ġinit",
        "ial"
      ],
      [
        "o",
        "ot"
      ],
      [
        "Ġm",
        "any"
      ],
      [
        "Ġst",
        "and"
      ],
      [
        "ad",
        "r"
      ],
      [
        "Ġstr",
        "ong"
      ],
      [
        "Ġindust",
        "ry"
      ],
      [
        "g",
        "y"
      ],
      [
        "n",
        "ey"
      ],
      [
        "Ġp",
        "ut"
      ],
      [
        "ic",
        "ago"
      ],
      [
        "il",
        "ity"
      ],
      [
        "Ġe",
        "qu"
      ],
      [
        "Ġsh",
        "ar"
      ],
      [
        "iss",
        "ion"
      ],
      [
        "Ġruss",
        "ian"
      ],
      [
        "Ġla",
        "un"
      ],
      [
        "b",
        "ers"
      ],
      [
        "it",
        "ing"
      ],
      [
        "Ġp",
        "at"
      ],
      [
        "Ġl",
        "atest"
      ],
      [
        "Ġsh",
        "are"
      ],
      [
        "Ġsp",
        "r"
      ],
      [
        "ie",
        "f"
      ],
      [
        "s",
        "p"
      ],
      [
        "ain",
        "ed"
      ],
      [
        "Ġe",
        "vent"
      ],
      [
        "Ġj",
        "ud"
      ],
      [
        "Ġle",
        "ft"
      ],
      [
        "Ġatt",
        "ack"
      ],
      [
        "Ġto",
        "ok"
      ],
      [
        "Ġn",
        "um"
      ],
      [
        "op",
        "s"
      ],
      [
        "Ġle",
        "ague"
      ],
      [
        "Ġfr",
        "anc"
      ],
      [
        "Ġinvest",
        "ig"
      ],
      [
        "b",
        "ased"
      ],
      [
        "c",
        "l"
      ],
      [
        "Ġs",
        "ud"
      ],
      [
        "Ġs",
        "em"
      ],
      [
        "Ġs",
        "ell"
      ],
      [
        "at",
        "ive"
      ],
      [
        "Ġm",
        "ich"
      ],
      [
        "is",
        "ed"
      ],
      [
        "Ġbe",
        "at"
      ],
      [
        "Ġex",
        "ecut"
      ],
      [
        "Ġag",
        "o"
      ],
      [
        "ire",
        "d"
      ],
      [
        "Ġpa",
        "ul"
      ],
      [
        "Ġm",
        "id"
      ],
      [
        "Ġl",
        "if"
      ],
      [
        "Ġsh",
        "r"
      ],
      [
        "Ġmo",
        "bile"
      ],
      [
        "Ġaustral",
        "ia"
      ],
      [
        "Ġcust",
        "om"
      ],
      [
        "p",
        "ar"
      ],
      [
        "igh",
        "ts"
      ],
      [
        "it",
        "t"
      ],
      [
        "Ġsh",
        "ould"
      ],
      [
        "Ġaf",
        "ric"
      ],
      [
        "Ġapp",
        "ro"
      ],
      [
        "Ġpe",
        "ace"
      ],
      [
        "Ġret",
        "urn"
      ],
      [
        "Ġbrit",
        "ish"
      ],
      [
        "Ġtal",
        "ks"
      ],
      [
        "if",
        "f"
      ],
      [
        "Ġro",
        "und"
      ],
      [
        "Ġapp",
        "e"
      ],
      [
        "Ġserv",
        "ices"
      ],
      [
        "Ġcap",
        "ital"
      ],
      [
        "enc",
        "y"
      ],
      [
        "Ġbas",
        "ket"
      ],
      [
        "g",
        "o"
      ],
      [
        "he",
        "ad"
      ],
      [
        "Ġw",
        "all"
      ],
      [
        "Ġm",
        "et"
      ],
      [
        "Ġd",
        "ar"
      ],
      [
        "os",
        "ition"
      ],
      [
        "Ġde",
        "v"
      ],
      [
        "ak",
        "istan"
      ],
      [
        "Ġwh",
        "ere"
      ],
      [
        "ip",
        "p"
      ],
      [
        "Ġad",
        "d"
      ],
      [
        "Ġf",
        "ace"
      ],
      [
        "Ġf",
        "oll"
      ],
      [
        "Ġb",
        "id"
      ],
      [
        "is",
        "hed"
      ],
      [
        "Ġ1",
        "1"
      ],
      [
        "00",
        "0"
      ],
      [
        "Ġnor",
        "th"
      ],
      [
        "Ġs",
        "old"
      ],
      [
        "Ġin",
        "j"
      ],
      [
        "Ġg",
        "er"
      ],
      [
        "Ġl",
        "oss"
      ],
      [
        "Ġe",
        "ff"
      ],
      [
        "Ġbasket",
        "ball"
      ],
      [
        "i",
        "k"
      ],
      [
        "s",
        "on"
      ],
      [
        "re",
        "l"
      ],
      [
        "Ġh",
        "and"
      ],
      [
        "Ġst",
        "ore"
      ],
      [
        "Ġqu",
        "ote"
      ],
      [
        "Ġmo",
        "ve"
      ],
      [
        "Ġmonth",
        "s"
      ],
      [
        "Ġdem",
        "and"
      ],
      [
        "Ġdat",
        "a"
      ],
      [
        "Ġs",
        "ing"
      ],
      [
        "Ġrec",
        "ent"
      ],
      [
        "Ġrele",
        "ased"
      ],
      [
        "o",
        "ol"
      ],
      [
        "Ġf",
        "all"
      ],
      [
        "Ġp",
        "op"
      ],
      [
        "Ġin",
        "st"
      ],
      [
        "Ġf",
        "ail"
      ],
      [
        "ad",
        "y"
      ],
      [
        "Ġwas",
        "h"
      ],
      [
        "Ġcomm",
        "un"
      ],
      [
        "Ġeconom",
        "ic"
      ],
      [
        "l",
        "ondon"
      ],
      [
        "Ġ",
        "est"
      ],
      [
        "Ġf",
        "ar"
      ],
      [
        "en",
        "ter"
      ],
      [
        "Ġcont",
        "r"
      ],
      [
        "Ġus",
        "e"
      ],
      [
        "Ġrep",
        "orts"
      ],
      [
        "Ġli",
        "ke"
      ],
      [
        "l",
        "am"
      ],
      [
        "Ġw",
        "al"
      ],
      [
        "Ġp",
        "ass"
      ],
      [
        "Ġ1",
        "4"
      ],
      [
        "lo",
        "y"
      ],
      [
        "Ġdes",
        "p"
      ],
      [
        "Ġnear",
        "ly"
      ],
      [
        "rup",
        "t"
      ],
      [
        "Ġc",
        "le"
      ],
      [
        "Ġm",
        "uch"
      ],
      [
        "Ġd",
        "ri"
      ],
      [
        "ens",
        "e"
      ],
      [
        "Ġdis",
        "c"
      ],
      [
        "Ġvi",
        "ol"
      ],
      [
        "Ġp",
        "ast"
      ],
      [
        "Ġin",
        "v"
      ],
      [
        "is",
        "m"
      ],
      [
        "Ġst",
        "e"
      ],
      [
        "Ġhe",
        "alth"
      ],
      [
        "Ġtr",
        "ans"
      ],
      [
        "Ġar",
        "m"
      ],
      [
        "Ġchamp",
        "ions"
      ],
      [
        "Ġc",
        "alif"
      ],
      [
        "Ġm",
        "ain"
      ],
      [
        "ver",
        "ed"
      ],
      [
        "Ġph",
        "one"
      ],
      [
        "Ġm",
        "at"
      ],
      [
        "Ġre",
        "v"
      ],
      [
        "Ġre",
        "al"
      ],
      [
        "Ġne",
        "ed"
      ],
      [
        "ib",
        "le"
      ],
      [
        "Ġman",
        "ag"
      ],
      [
        "Ġeconom",
        "y"
      ],
      [
        "Ġfinanc",
        "ial"
      ],
      [
        "s",
        "h"
      ],
      [
        "t",
        "y"
      ],
      [
        "Ġs",
        "an"
      ],
      [
        "as",
        "hed"
      ],
      [
        "Ġn",
        "as"
      ],
      [
        "Ġn",
        "et"
      ],
      [
        "ec",
        "ts"
      ],
      [
        "Ġrep",
        "ublic"
      ],
      [
        "Ġsc",
        "ient"
      ],
      [
        "Ġwash",
        "ington"
      ],
      [
        "b",
        "o"
      ],
      [
        "l",
        "ier"
      ],
      [
        "Ġ",
        "vers"
      ],
      [
        "Ġt",
        "ry"
      ],
      [
        "re",
        "d"
      ],
      [
        "Ġc",
        "a"
      ],
      [
        "Ġp",
        "it"
      ],
      [
        "is",
        "on"
      ],
      [
        "Ġd",
        "id"
      ],
      [
        "Ġd",
        "ist"
      ],
      [
        "Ġg",
        "e"
      ],
      [
        "Ġn",
        "ations"
      ],
      [
        "Ġcomm",
        "ission"
      ],
      [
        "Ġdep",
        "art"
      ],
      [
        "Ġt",
        "ra"
      ],
      [
        "Ġs",
        "our"
      ],
      [
        "Ġf",
        "ut"
      ],
      [
        "Ġm",
        "or"
      ],
      [
        "Ġm",
        "em"
      ],
      [
        "Ġe",
        "v"
      ],
      [
        "Ġe",
        "ight"
      ],
      [
        "im",
        "in"
      ],
      [
        "h",
        "or"
      ],
      [
        "n",
        "e"
      ],
      [
        "Ġt",
        "it"
      ],
      [
        "Ġp",
        "ri"
      ],
      [
        "Ġl",
        "ab"
      ],
      [
        "Ġ3",
        "6"
      ],
      [
        "Ġfir",
        "m"
      ],
      [
        "Ġar",
        "rest"
      ],
      [
        "Ġcr",
        "ude"
      ],
      [
        "Ġmich",
        "ael"
      ],
      [
        "Ġw",
        "ire"
      ],
      [
        "id",
        "ence"
      ],
      [
        "Ġch",
        "ip"
      ],
      [
        "Ġk",
        "ey"
      ],
      [
        "Ġv",
        "ide"
      ],
      [
        "Ġpol",
        "it"
      ],
      [
        "p",
        "r"
      ],
      [
        "Ġre",
        "st"
      ],
      [
        "Ġwith",
        "out"
      ],
      [
        "Ġbom",
        "b"
      ],
      [
        "Ġt",
        "im"
      ],
      [
        "Ġs",
        "uc"
      ],
      [
        "Ġl",
        "ower"
      ],
      [
        "ers",
        "on"
      ],
      [
        "Ġch",
        "ar"
      ],
      [
        "ear",
        "s"
      ],
      [
        "Ġcon",
        "cer"
      ],
      [
        "oc",
        "r"
      ],
      [
        "Ġsupp",
        "ort"
      ],
      [
        "Ġchamp",
        "ion"
      ],
      [
        "e",
        "mp"
      ],
      [
        "g",
        "ht"
      ],
      [
        "v",
        "ing"
      ],
      [
        "Ġs",
        "il"
      ],
      [
        "Ġc",
        "are"
      ],
      [
        "or",
        "y"
      ],
      [
        "Ġd",
        "et"
      ],
      [
        "Ġr",
        "iv"
      ],
      [
        "ul",
        "ar"
      ],
      [
        "Ġus",
        "ed"
      ],
      [
        "Ġv",
        "is"
      ],
      [
        "Ġcont",
        "rol"
      ],
      [
        "iz",
        "e"
      ],
      [
        "Ġthre",
        "at"
      ],
      [
        "Ġaut",
        "hor"
      ],
      [
        "r",
        "ation"
      ],
      [
        "Ġw",
        "est"
      ],
      [
        "ic",
        "t"
      ],
      [
        "Ġr",
        "ace"
      ],
      [
        "ot",
        "s"
      ],
      [
        "Ġprof",
        "ile"
      ],
      [
        "Ġcall",
        "ed"
      ],
      [
        "s",
        "c"
      ],
      [
        "Ġd",
        "om"
      ],
      [
        "Ġ1",
        "7"
      ],
      [
        "Ġju",
        "ly"
      ],
      [
        "Ġfranc",
        "isco"
      ],
      [
        "b",
        "ack"
      ],
      [
        "e",
        "es"
      ],
      [
        "Ġf",
        "und"
      ],
      [
        "Ġn",
        "ation"
      ],
      [
        "Ġv",
        "ir"
      ],
      [
        "c",
        "k"
      ],
      [
        "Ġl",
        "it"
      ],
      [
        "Ġpro",
        "gr"
      ],
      [
        "Ġsp",
        "orts"
      ],
      [
        "Ġstre",
        "et"
      ],
      [
        "Ġc",
        "up"
      ],
      [
        "Ġp",
        "oss"
      ],
      [
        "Ġp",
        "akistan"
      ],
      [
        "ut",
        "e"
      ],
      [
        "Ġus",
        "ers"
      ],
      [
        "Ġag",
        "ree"
      ],
      [
        "ra",
        "w"
      ],
      [
        "iv",
        "ing"
      ],
      [
        "Ġear",
        "nings"
      ],
      [
        "Ġme",
        "et"
      ],
      [
        "Ġimp",
        "ro"
      ],
      [
        "Ġcompet",
        "ition"
      ],
      [
        "c",
        "ast"
      ],
      [
        "Ġt",
        "urn"
      ],
      [
        "Ġs",
        "en"
      ],
      [
        "Ġs",
        "im"
      ],
      [
        "Ġc",
        "ur"
      ],
      [
        "Ġe",
        "mp"
      ],
      [
        "el",
        "es"
      ],
      [
        "Ġac",
        "ross"
      ],
      [
        "Ġals",
        "o"
      ],
      [
        "Ġwire",
        "less"
      ],
      [
        "f",
        "ur"
      ],
      [
        "Ġs",
        "um"
      ],
      [
        "Ġm",
        "ens"
      ],
      [
        "ac",
        "y"
      ],
      [
        "Ġ1",
        "3"
      ],
      [
        "Ġk",
        "ore"
      ],
      [
        "if",
        "ic"
      ],
      [
        "h",
        "d"
      ],
      [
        "i",
        "or"
      ],
      [
        "n",
        "s"
      ],
      [
        "it",
        "es"
      ],
      [
        "Ġb",
        "ill"
      ],
      [
        "Ġe",
        "as"
      ],
      [
        "of",
        "f"
      ],
      [
        "Ġse",
        "ver"
      ],
      [
        "av",
        "ing"
      ],
      [
        "Ġrele",
        "ase"
      ],
      [
        "d",
        "it"
      ],
      [
        "Ġs",
        "ol"
      ],
      [
        "Ġm",
        "ot"
      ],
      [
        "Ġh",
        "our"
      ],
      [
        "Ġit",
        "al"
      ],
      [
        "Ġsp",
        "ec"
      ],
      [
        "year",
        "old"
      ],
      [
        "Ġshr",
        "ine"
      ],
      [
        "Ġdepart",
        "ment"
      ],
      [
        "d",
        "e"
      ],
      [
        "g",
        "an"
      ],
      [
        "l",
        "l"
      ],
      [
        "p",
        "ort"
      ],
      [
        "Ġs",
        "oc"
      ],
      [
        "Ġf",
        "am"
      ],
      [
        "Ġl",
        "os"
      ],
      [
        "Ġcon",
        "n"
      ],
      [
        "Ġlead",
        "ing"
      ],
      [
        "Ġvers",
        "ion"
      ],
      [
        "b",
        "ed"
      ],
      [
        "l",
        "ines"
      ],
      [
        "re",
        "t"
      ],
      [
        "Ġch",
        "ief"
      ],
      [
        "Ġpart",
        "y"
      ],
      [
        "oll",
        "ar"
      ],
      [
        "Ġconsum",
        "er"
      ],
      [
        "Ġ",
        "z"
      ],
      [
        "Ġ",
        "er"
      ],
      [
        "es",
        "h"
      ],
      [
        "Ġh",
        "ost"
      ],
      [
        "Ġh",
        "ere"
      ],
      [
        "id",
        "er"
      ],
      [
        "el",
        "f"
      ],
      [
        "ut",
        "ion"
      ],
      [
        "Ġk",
        "eep"
      ],
      [
        "uc",
        "k"
      ],
      [
        "Ġbro",
        "ad"
      ],
      [
        "Ġsystem",
        "s"
      ],
      [
        "n",
        "ess"
      ],
      [
        "il",
        "y"
      ],
      [
        "Ġfor",
        "ces"
      ],
      [
        "Ġde",
        "ad"
      ],
      [
        "ain",
        "ing"
      ],
      [
        "Ġres",
        "ul"
      ],
      [
        "Ġcont",
        "inu"
      ],
      [
        "ym",
        "n"
      ],
      [
        "Ġhal",
        "f"
      ],
      [
        "in",
        "k"
      ],
      [
        "Ġp",
        "al"
      ],
      [
        "Ġm",
        "ight"
      ],
      [
        "Ġ1",
        "6"
      ],
      [
        "Ġun",
        "ivers"
      ],
      [
        "iz",
        "ed"
      ],
      [
        "b",
        "al"
      ],
      [
        "er",
        "ation"
      ],
      [
        "Ġp",
        "ack"
      ],
      [
        "Ġg",
        "ymn"
      ],
      [
        "Ġfour",
        "th"
      ],
      [
        "Ġp",
        "c"
      ],
      [
        "ad",
        "ian"
      ],
      [
        "ug",
        "g"
      ],
      [
        "Ġdem",
        "ocr"
      ],
      [
        "Ġsud",
        "an"
      ],
      [
        "a",
        "i"
      ],
      [
        "Ġa",
        "round"
      ],
      [
        "an",
        "k"
      ],
      [
        "Ġm",
        "ass"
      ],
      [
        "ian",
        "s"
      ],
      [
        "Ġmar",
        "k"
      ],
      [
        "Ġatt",
        "acks"
      ],
      [
        "Ġtargetstocksquickinfof",
        "ullquote"
      ],
      [
        "i",
        "as"
      ],
      [
        "j",
        "ect"
      ],
      [
        "m",
        "ing"
      ],
      [
        "Ġt",
        "re"
      ],
      [
        "in",
        "als"
      ],
      [
        "er",
        "gy"
      ],
      [
        "Ġan",
        "al"
      ],
      [
        "Ġd",
        "ro"
      ],
      [
        "Ġg",
        "lo"
      ],
      [
        "Ġdar",
        "fur"
      ],
      [
        "Ġdesp",
        "ite"
      ],
      [
        "c",
        "y"
      ],
      [
        "e",
        "x"
      ],
      [
        "i",
        "am"
      ],
      [
        "i",
        "ers"
      ],
      [
        "t",
        "ada"
      ],
      [
        "en",
        "g"
      ],
      [
        "Ġl",
        "ate"
      ],
      [
        "Ġy",
        "our"
      ],
      [
        "Ġk",
        "er"
      ],
      [
        "pp",
        "ed"
      ],
      [
        "Ġres",
        "er"
      ],
      [
        "Ġkill",
        "ing"
      ],
      [
        "Ġgen",
        "eral"
      ],
      [
        "Ġtro",
        "ops"
      ],
      [
        "Ġh",
        "ous"
      ],
      [
        "Ġl",
        "ine"
      ],
      [
        "Ġhe",
        "ld"
      ],
      [
        "Ġal",
        "le"
      ],
      [
        "Ġhol",
        "y"
      ],
      [
        "Ġboo",
        "st"
      ],
      [
        "n",
        "y"
      ],
      [
        "Ġd",
        "ig"
      ],
      [
        "Ġd",
        "ollar"
      ],
      [
        "Ġr",
        "ight"
      ],
      [
        "Ġres",
        "p"
      ],
      [
        "Ġwin",
        "ning"
      ],
      [
        "Ġcorp",
        "or"
      ],
      [
        "Ġli",
        "k"
      ],
      [
        "Ġshow",
        "ed"
      ],
      [
        "Ġsm",
        "all"
      ],
      [
        "Ġtrad",
        "ing"
      ],
      [
        "Ġlit",
        "tle"
      ],
      [
        "id",
        "ed"
      ],
      [
        "Ġl",
        "ow"
      ],
      [
        "Ġl",
        "oo"
      ],
      [
        "est",
        "in"
      ],
      [
        "Ġex",
        "ch"
      ],
      [
        "Ġsp",
        "e"
      ],
      [
        "um",
        "b"
      ],
      [
        "ard",
        "s"
      ],
      [
        "Ġse",
        "ven"
      ],
      [
        "Ġameric",
        "ans"
      ],
      [
        "Ġals",
        "adr"
      ],
      [
        "Ġx",
        "p"
      ],
      [
        "Ġopp",
        "osition"
      ],
      [
        "Ġtit",
        "le"
      ],
      [
        "u",
        "f"
      ],
      [
        "on",
        "y"
      ],
      [
        "Ġen",
        "ergy"
      ],
      [
        "Ġworld",
        "s"
      ],
      [
        "Ġman",
        "age"
      ],
      [
        "Ġbo",
        "th"
      ],
      [
        "ren",
        "ch"
      ],
      [
        "Ġ5",
        "0"
      ],
      [
        "Ġeng",
        "land"
      ],
      [
        "Ġcost",
        "s"
      ],
      [
        "Ġta",
        "x"
      ],
      [
        "Ġfight",
        "ing"
      ],
      [
        "Ġnum",
        "ber"
      ],
      [
        "Ġcustom",
        "ers"
      ],
      [
        "Ġgymn",
        "ast"
      ],
      [
        "i",
        "j"
      ],
      [
        "Ġs",
        "uch"
      ],
      [
        "Ġb",
        "et"
      ],
      [
        "Ġh",
        "ot"
      ],
      [
        "Ġco",
        "ach"
      ],
      [
        "Ġvide",
        "o"
      ],
      [
        "o",
        "ver"
      ],
      [
        "u",
        "mp"
      ],
      [
        "w",
        "ays"
      ],
      [
        "Ġre",
        "ce"
      ],
      [
        "Ġ2",
        "5"
      ],
      [
        "Ġsp",
        "ace"
      ],
      [
        "s",
        "an"
      ],
      [
        "Ġc",
        "e"
      ],
      [
        "Ġf",
        "ree"
      ],
      [
        "Ġe",
        "ver"
      ],
      [
        "Ġe",
        "very"
      ],
      [
        "end",
        "ed"
      ],
      [
        "Ġear",
        "lier"
      ],
      [
        "Ġelect",
        "ion"
      ],
      [
        "Ġreb",
        "els"
      ],
      [
        "Ġsuc",
        "cess"
      ],
      [
        "Ġsever",
        "al"
      ],
      [
        "Ġw",
        "he"
      ],
      [
        "ou",
        "ght"
      ],
      [
        "iv",
        "ed"
      ],
      [
        "Ġup",
        "d"
      ],
      [
        "ath",
        "er"
      ],
      [
        "Ġme",
        "ters"
      ],
      [
        "Ġbu",
        "ild"
      ],
      [
        "Ġresul",
        "ts"
      ],
      [
        "Ġexch",
        "ange"
      ],
      [
        "h",
        "er"
      ],
      [
        "t",
        "ain"
      ],
      [
        "t",
        "ime"
      ],
      [
        "Ġc",
        "ase"
      ],
      [
        "Ġf",
        "oot"
      ],
      [
        "at",
        "ely"
      ],
      [
        "ar",
        "m"
      ],
      [
        "Ġ3",
        "0"
      ],
      [
        "Ġpro",
        "cess"
      ],
      [
        "res",
        "h"
      ],
      [
        "Ġair",
        "lines"
      ],
      [
        "ky",
        "o"
      ],
      [
        "me",
        "ter"
      ],
      [
        "Ġt",
        "y"
      ],
      [
        "Ġa",
        "th"
      ],
      [
        "Ġa",
        "mp"
      ],
      [
        "on",
        "to"
      ],
      [
        "Ġc",
        "op"
      ],
      [
        "Ġm",
        "a"
      ],
      [
        "Ġto",
        "urn"
      ],
      [
        "Ġth",
        "ous"
      ],
      [
        "Ġun",
        "ion"
      ],
      [
        "Ġeng",
        "ine"
      ],
      [
        "a",
        "ign"
      ],
      [
        "d",
        "own"
      ],
      [
        "n",
        "al"
      ],
      [
        "t",
        "im"
      ],
      [
        "Ġ",
        "q"
      ],
      [
        "Ġf",
        "ield"
      ],
      [
        "Ġin",
        "form"
      ],
      [
        "Ġst",
        "ep"
      ],
      [
        "Ġis",
        "su"
      ],
      [
        "ag",
        "hd"
      ],
      [
        "Ġal",
        "m"
      ],
      [
        "ri",
        "es"
      ],
      [
        "oc",
        "i"
      ],
      [
        "gh",
        "an"
      ],
      [
        "Ġfore",
        "ign"
      ],
      [
        "Ġhur",
        "ric"
      ],
      [
        "Ġalle",
        "ged"
      ],
      [
        "aghd",
        "ad"
      ],
      [
        "Ġ",
        "es"
      ],
      [
        "Ġw",
        "ell"
      ],
      [
        "Ġh",
        "um"
      ],
      [
        "Ġg",
        "l"
      ],
      [
        "Ġl",
        "ight"
      ],
      [
        "Ġl",
        "ost"
      ],
      [
        "Ġmilit",
        "ants"
      ],
      [
        "Ġinf",
        "l"
      ],
      [
        "Ġbar",
        "rel"
      ],
      [
        "Ġang",
        "eles"
      ],
      [
        "Ġisrael",
        "i"
      ],
      [
        "Ġscient",
        "ists"
      ],
      [
        "Ġf",
        "ire"
      ],
      [
        "Ġb",
        "ase"
      ],
      [
        "Ġd",
        "av"
      ],
      [
        "Ġg",
        "ive"
      ],
      [
        "Ġst",
        "ra"
      ],
      [
        "ow",
        "ed"
      ],
      [
        "ch",
        "er"
      ],
      [
        "Ġpro",
        "m"
      ],
      [
        "Ġatt",
        "emp"
      ],
      [
        "Ġend",
        "ed"
      ],
      [
        "Ġass",
        "oci"
      ],
      [
        "Ġnetw",
        "orks"
      ],
      [
        "Ġem",
        "b"
      ],
      [
        "Ġju",
        "mp"
      ],
      [
        "Ġfoll",
        "owing"
      ],
      [
        "h",
        "old"
      ],
      [
        "n",
        "ajaf"
      ],
      [
        "o",
        "v"
      ],
      [
        "Ġ",
        "ur"
      ],
      [
        "Ġa",
        "head"
      ],
      [
        "Ġc",
        "enter"
      ],
      [
        "Ġf",
        "rench"
      ],
      [
        "os",
        "ed"
      ],
      [
        "Ġsh",
        "ort"
      ],
      [
        "av",
        "y"
      ],
      [
        "Ġgoo",
        "d"
      ],
      [
        "Ġplay",
        "er"
      ],
      [
        "Ġdes",
        "ign"
      ],
      [
        "Ġmak",
        "ing"
      ],
      [
        "Ġgr",
        "and"
      ],
      [
        "Ġoper",
        "ating"
      ],
      [
        "Ġcontr",
        "act"
      ],
      [
        "Ġtourn",
        "ament"
      ],
      [
        "a",
        "ug"
      ],
      [
        "g",
        "u"
      ],
      [
        "g",
        "ing"
      ],
      [
        "i",
        "ew"
      ],
      [
        "q",
        "tada"
      ],
      [
        "as",
        "ter"
      ],
      [
        "le",
        "x"
      ],
      [
        "us",
        "h"
      ],
      [
        "ap",
        "e"
      ],
      [
        "Ġ2",
        "3"
      ],
      [
        "Ġhis",
        "tory"
      ],
      [
        "Ġplay",
        "ers"
      ],
      [
        "Ġprod",
        "uct"
      ],
      [
        "Ġquarter",
        "ly"
      ],
      [
        "Ġcent",
        "ral"
      ],
      [
        "Ġeurope",
        "an"
      ],
      [
        "Ġcamp",
        "aign"
      ],
      [
        "Ġsem",
        "if"
      ],
      [
        "Ġge",
        "or"
      ],
      [
        "Ġt",
        "ak"
      ],
      [
        "Ġs",
        "ame"
      ],
      [
        "Ġf",
        "resh"
      ],
      [
        "al",
        "e"
      ],
      [
        "Ġd",
        "rop"
      ],
      [
        "Ġre",
        "ach"
      ],
      [
        "qu",
        "arter"
      ],
      [
        "Ġser",
        "ies"
      ],
      [
        "Ġapp",
        "lic"
      ],
      [
        "Ġset",
        "tle"
      ],
      [
        "Ġpolit",
        "ical"
      ],
      [
        "Ġemp",
        "loy"
      ],
      [
        "Ġj",
        "our"
      ],
      [
        "em",
        "ber"
      ],
      [
        "Ġgo",
        "ing"
      ],
      [
        "ester",
        "n"
      ],
      [
        "Ġcharg",
        "es"
      ],
      [
        "Ġker",
        "ry"
      ],
      [
        "Ġath",
        "let"
      ],
      [
        "Ġinform",
        "ation"
      ],
      [
        "i",
        "ver"
      ],
      [
        "Ġo",
        "s"
      ],
      [
        "Ġh",
        "ug"
      ],
      [
        "Ġre",
        "qu"
      ],
      [
        "Ġpro",
        "ble"
      ],
      [
        "ag",
        "es"
      ],
      [
        "Ġag",
        "ency"
      ],
      [
        "Ġtr",
        "ade"
      ],
      [
        "Ġor",
        "der"
      ],
      [
        "Ġor",
        "gan"
      ],
      [
        "Ġacc",
        "used"
      ],
      [
        "ound",
        "ed"
      ],
      [
        "Ġbec",
        "ome"
      ],
      [
        "Ġresearch",
        "ers"
      ],
      [
        "Ġprot",
        "est"
      ],
      [
        "Ġtele",
        "v"
      ],
      [
        "Ġconn",
        "ect"
      ],
      [
        "o",
        "on"
      ],
      [
        "t",
        "d"
      ],
      [
        "Ġw",
        "ater"
      ],
      [
        "Ġp",
        "ort"
      ],
      [
        "Ġp",
        "ull"
      ],
      [
        "Ġh",
        "und"
      ],
      [
        "Ġst",
        "or"
      ],
      [
        "Ġr",
        "ise"
      ],
      [
        "qu",
        "e"
      ],
      [
        "Ġaf",
        "ghan"
      ],
      [
        "ra",
        "ft"
      ],
      [
        "Ġqu",
        "est"
      ],
      [
        "Ġsay",
        "ing"
      ]
    ]
  }
}