{
  "version": "1.0",
  "truncation": {
    "direction": "Right",
    "max_length": 99,
    "strategy": "LongestFirst",
    "stride": 0
  },
  "padding": {
    "strategy": {
      "Fixed": 99
    },
    "direction": "Right",
    "pad_to_multiple_of": null,
    "pad_id": 0,
    "pad_type_id": 0,
    "pad_token": "[PAD]"
  },
  "added_tokens": [
    {
      "id": 0,
      "content": "[PAD]",
      "single_word": false,
      "lstrip": false,
      "rstrip": false,
      "normalized": false,
      "special": true
    },
    {
      "id": 1,
      "content": "[UNK]",
      "single_word": false,
      "lstrip": false,
      "rstrip": false,
      "normalized": false,
      "special": true
    }
  ],
  "normalizer": null,
  "pre_tokenizer": {
    "type": "ByteLevel",
    "add_prefix_space": false,
    "trim_offsets": true,
    "use_regex": true
  },
  "post_processor": null,
  "decoder": null,
  "model": {
    "type": "BPE",
    "dropout": null,
    "unk_token": "[UNK]",
    "continuing_subword_prefix": null,
    "end_of_word_suffix": null,
    "fuse_unk": false,
    "byte_fallback": false,
    "ignore_merges": false,
    "vocab": {
      "[PAD]": 0,
      "[UNK]": 1,
      "!": 2,
      "\"": 3,
      "#": 4,
      "$": 5,
      "%": 6,
      "&": 7,
      "'": 8,
      "(": 9,
      ")": 10,
      "*": 11,
      "+": 12,
      ",": 13,
      "-": 14,
      ".": 15,
      "/": 16,
      "0": 17,
      "1": 18,
      "2": 19,
      "3": 20,
      "4": 21,
      "5": 22,
      "6": 23,
      "7": 24,
      "8": 25,
      "9": 26,
      ":": 27,
      ";": 28,
      "<": 29,
      "=": 30,
      ">": 31,
      "?": 32,
      "@": 33,
      "A": 34,
      "B": 35,
      "C": 36,
      "D": 37,
      "E": 38,
      "F": 39,
      "G": 40,
      "H": 41,
      "I": 42,
      "J": 43,
      "K": 44,
      "L": 45,
      "M": 46,
      "N": 47,
      "O": 48,
      "P": 49,
      "Q": 50,
      "R": 51,
      "S": 52,
      "T": 53,
      "U": 54,
      "V": 55,
      "W": 56,
      "X": 57,
      "Y": 58,
      "Z": 59,
      "[": 60,
      "\\": 61,
      "]": 62,
      "^": 63,
      "_": 64,
      "`": 65,
      "a": 66,
      "b": 67,
      "c": 68,
      "d": 69,
      "e": 70,
      "f": 71,
      "g": 72,
      "h": 73,
      "i": 74,
      "j": 75,
      "k": 76,
      "l": 77,
      "m": 78,
      "n": 79,
      "o": 80,
      "p": 81,
      "q": 82,
      "r": 83,
      "s": 84,
      "t": 85,
      "u": 86,
      "v": 87,
      "w": 88,
      "x": 89,
      "y": 90,
      "z": 91,
      "{": 92,
      "|": 93,
      "}": 94,
      "~": 95,
      "¡": 96,
      "¢": 97,
      "£": 98,
      "¤": 99,
      "¥": 100,
      "¦": 101,
      "§": 102,
      "¨": 103,
      "©": 104,
      "ª": 105,
      "«": 106,
      "¬": 107,
      "®": 108,
      "¯": 109,
      "°": 110,
      "±": 111,
      "²": 112,
      "³": 113,
      "´": 114,
      "µ": 115,
      "¶": 116,
      "·": 117,
      "¸": 118,
      "¹": 119,
      "º": 120,
      "»": 121,
      "¼": 122,
      "½": 123,
      "¾": 124,
      "¿": 125,
      "À": 126,
      "Á": 127,
      "Â": 128,
      "Ã": 129,
      "Ä": 130,
      "Å": 131,
      "Æ": 132,
      "Ç": 133,
      "È": 134,
      "É": 135,
      "Ê": 136,
      "Ë": 137,
      "Ì": 138,
      "Í": 139,
      "Î": 140,
      "Ï": 141,
      "Ð": 142,
      "Ñ": 143,
      "Ò": 144,
      "Ó": 145,
      "Ô": 146,
      "Õ": 147,
      "Ö": 148,
      "×": 149,
      "Ø": 150,
      "Ù": 151,
      "Ú": 152,
      "Û": 153,
      "Ü": 154,
      "Ý": 155,
      "Þ": 156,
      "ß": 157,
      "à": 158,
      "á": 159,
      "â": 160,
      "ã": 161,
      "ä": 162,
      "å": 163,
      "æ": 164,
      "ç": 165,
      "è": 166,
      "é": 167,
      "ê": 168,
      "ë": 169,
      "ì": 170,
      "í": 171,
      "î": 172,
      "ï": 173,
      "ð": 174,
      "ñ": 175,
      "ò": 176,
      "ó": 177,
      "ô": 178,
      "õ": 179,
      "ö": 180,
      "÷": 181,
      "ø": 182,
      "ù": 183,
      "ú": 184,
      "û": 185,
      "ü": 186,
      "ý": 187,
      "þ": 188,
      "ÿ": 189,
      "Ā": 190,
      "ā": 191,
      "Ă": 192,
      "ă": 193,
      "Ą": 194,
      "ą": 195,
      "Ć": 196,
      "ć": 197,
      "Ĉ": 198,
      "ĉ": 199,
      "Ċ": 200,
      "ċ": 201,
      "Č": 202,
      "č": 203,
      "Ď": 204,
      "ď": 205,
      "Đ": 206,
      "đ": 207,
      "Ē": 208,
      "ē": 209,
      "Ĕ": 210,
      "ĕ": 211,
      "Ė": 212,
      "ė": 213,
      "Ę": 214,
      "ę": 215,
      "Ě": 216,
      "ě": 217,
      "Ĝ": 218,
      "ĝ": 219,
      "Ğ": 220,
      "ğ": 221,
      "Ġ": 222,
      "ġ": 223,
      "Ģ": 224,
      "ģ": 225,
      "Ĥ": 226,
      "ĥ": 227,
      "Ħ": 228,
      "ħ": 229,
      "Ĩ": 230,
      "ĩ": 231,
      "Ī": 232,
      "ī": 233,
      "Ĭ": 234,
      "ĭ": 235,
      "Į": 236,
      "į": 237,
      "İ": 238,
      "ı": 239,
      "Ĳ": 240,
      "ĳ": 241,
      "Ĵ": 242,
      "ĵ": 243,
      "Ķ": 244,
      "ķ": 245,
      "ĸ": 246,
      "Ĺ": 247,
      "ĺ": 248,
      "Ļ": 249,
      "ļ": 250,
      "Ľ": 251,
      "ľ": 252,
      "Ŀ": 253,
      "ŀ": 254,
      "Ł": 255,
      "ł": 256,
      "Ń": 257,
      "Ġt": 258,
      "Ġa": 259,
      "in": 260,
      "er": 261,
      "he": 262,
      "Ġs": 263,
      "on": 264,
      "re": 265,
      "Ġthe": 266,
      "Ġc": 267,
      "Ġo": 268,
      "ed": 269,
      "an": 270,
      "Ġw": 271,
      "es": 272,
      "Ġf": 273,
      "or": 274,
      "it": 275,
      "Ġb": 276,
      "Ġp": 277,
      "at": 278,
      "en": 279,
      "Ġm": 280,
      "ing": 281,
      "Ġin": 282,
      "al": 283,
      "ar": 284,
      "is": 285,
      "ic": 286,
      "Ġh": 287,
      "Ġto": 288,
      "Ġof": 289,
      "as": 290,
      "Ġan": 291,
      "Ġd": 292,
      "ro": 293,
      "ay": 294,
      "le": 295,
      "ter": 296,
      "Ġre": 297,
      "us": 298,
      "ion": 299,
      "Ġg": 300,
      "Ġn": 301,
      "il": 302,
      "Ġth": 303,
      "ou": 304,
      "Ġand": 305,
      "om": 306,
      "id": 307,
      "Ġl": 308,
      "Ġon": 309,
      "Ġe": 310,
      "ent": 311,
      "et": 312,
      "ir": 313,
      "un": 314,
      "day": 315,
      "st": 316,
      "ur": 317,
      "el": 318,
      "Ġst": 319,
      "ad": 320,
      "ac": 321,
      "ig": 322,
      "ec": 323,
      "am": 324,
      "ol": 325,
      "Ġfor": 326,
      "ly": 327,
      "Ġit": 328,
      "ut": 329,
      "ver": 330,
      "th": 331,
      "ve": 332,
      "Ġ3": 333,
      "im": 334,
      "Ġr": 335,
      "ill": 336,
      "ow": 337,
      "ot": 338,
      "Ġat": 339,
      "Ġy": 340,
      "ation": 341,
      "est": 342,
      "Ġ39": 343,
      "ers": 344,
      "Ġj": 345,
      "Ġthat": 346,
      "Ġas": 347,
      "ew": 348,
      "Ġcom": 349,
      "Ġbe": 350,
      "ch": 351,
      "igh": 352,
      "ith": 353,
      "ap": 354,
      "up": 355,
      "ters": 356,
      "ul": 357,
      "Ġwith": 358,
      "Ġpro": 359,
      "Ġis": 360,
      "qu": 361,
      "Ġch": 362,
      "ts": 363,
      "ear": 364,
      "os": 365,
      "Ġcon": 366,
      "Ġsh": 367,
      "Ġde": 368,
      "Ġsa": 369,
      "ce": 370,
      "and": 371,
      "Ġ1": 372,
      "Ġus": 373,
      "Ġk": 374,
      "Ġv": 375,
      "Ġhe": 376,
      "ag": 377,
      "ld": 378,
      "Ġits": 379,
      "ore": 380,
      "ain": 381,
      "op": 382,
      "uters": 383,
      "ak": 384,
      "Ġsaid": 385,
      "ment": 386,
      "Ġwh": 387,
      "mp": 388,
      "res": 389,
      "Ġun": 390,
      "Ġby": 391,
      "Ġal": 392,
      "ri": 393,
      "00": 394,
      "Ġle": 395,
      "Ġcomp": 396,
      "oun": 397,
      "Ġhas": 398,
      "oc": 399,
      "rom": 400,
      "ast": 401,
      "ug": 402,
      "Ġ2": 403,
      "ks": 404,
      "ust": 405,
      "ight": 406,
      "Ġex": 407,
      "all": 408,
      "Ġhis": 409,
      "ee": 410,
      "hen": 411,
      "if": 412,
      "Ġpl": 413,
      "Ġsp": 414,
      "Ġaf": 415,
      "Ġnew": 416,
      "Ġfrom": 417,
      "our": 418,
      "ian": 419,
      "Ġwas": 420,
      "oo": 421,
      "esday": 422,
      "ial": 423,
      "ort": 424,
      "Ġoff": 425,
      "Ġen": 426,
      "ess": 427,
      "ate": 428,
      "ct": 429,
      "ist": 430,
      "ies": 431,
      "ia": 432,
      "Ġag": 433,
      "ity": 434,
      "ave": 435,
      "ip": 436,
      "ost": 437,
      "art": 438,
      "ack": 439,
      "Ġinc": 440,
      "ra": 441,
      "Ġmon": 442,
      "um": 443,
      "Ġwill": 444,
      "are": 445,
      "old": 446,
      "ric": 447,
      "ud": 448,
      "em": 449,
      "Ġwor": 450,
      "Ġreuters": 451,
      "Ġafter": 452,
      "Ġro": 453,
      "Ġcl": 454,
      "Ġoly": 455,
      "Ġolymp": 456,
      "ine": 457,
      "ry": 458,
      "ere": 459,
      "Ġfr": 460,
      "Ġolympic": 461,
      "of": 462,
      "ard": 463,
      "Ġover": 464,
      "pp": 465,
      "Ġac": 466,
      "ive": 467,
      "ect": 468,
      "iv": 469,
      "ub": 470,
      "ab": 471,
      "Ġare": 472,
      "Ġfir": 473,
      "Ġhave": 474,
      "Ġup": 475,
      "ould": 476,
      "mer": 477,
      "Ġsec": 478,
      "Ġres": 479,
      "Ġmar": 480,
      "the": 481,
      "ell": 482,
      "any": 483,
      "Ġrep": 484,
      "Ġse": 485,
      "ans": 486,
      "Ġtw": 487,
      "Ġab": 488,
      "hens": 489,
      "Ġtheir": 490,
      "ond": 491,
      "ong": 492,
      "Ġte": 493,
      "end": 494,
      "ning": 495,
      "arg": 496,
      "ork": 497,
      "to": 498,
      "ice": 499,
      "Ġfin": 500,
      "Ġbut": 501,
      "Ġgo": 502,
      "Ġexp": 503,
      "Ġinter": 504,
      "Ġout": 505,
      "urs": 506,
      "ther": 507,
      "ord": 508,
      "ome": 509,
      "Ġyear": 510,
      "Ġtr": 511,
      "out": 512,
      "ree": 513,
      "Ġqu": 514,
      "ens": 515,
      "Ġfirst": 516,
      "ions": 517,
      "Ġser": 518,
      "Ġmed": 519,
      "ant": 520,
      "af": 521,
      "ick": 522,
      "Ġgro": 523,
      "Ġir": 524,
      "aq": 525,
      "ime": 526,
      "ire": 527,
      "ace": 528,
      "ursday": 529,
      "und": 530,
      "Ġper": 531,
      "Ġthursday": 532,
      "Ġwin": 533,
      "Ġpres": 534,
      "iday": 535,
      "Ġar": 536,
      "Ġmore": 537,
      "Ġmo": 538,
      "Ġad": 539,
      "hed": 540,
      "ors": 541,
      "Ġor": 542,
      "ile": 543,
      "ous": 544,
      "Ġtwo": 545,
      "Ġtu": 546,
      "Ġsc": 547,
      "ich": 548,
      "Ġne": 549,
      "Ġtuesday": 550,
      "illion": 551,
      "Ġwee": 552,
      "Ġrec": 553,
      "ure": 554,
      "Ġfriday": 555,
      "age": 556,
      "ail": 557,
      "ge": 558,
      "uc": 559,
      "Ġop": 560,
      "Ġthis": 561,
      "ations": 562,
      "ays": 563,
      "Ġdis": 564,
      "Ġcont": 565,
      "Ġpric": 566,
      "oft": 567,
      "Ġapp": 568,
      "Ġpe": 569,
      "ite": 570,
      "Ġwed": 571,
      "ide": 572,
      "Ġiraq": 573,
      "nesday": 574,
      "Ġwednesday": 575,
      "Ġbr": 576,
      "ke": 577,
      "Ġmonday": 578,
      "Ġcompany": 579,
      "reuters": 580,
      "Ġnot": 581,
      "ates": 582,
      "Ġacc": 583,
      "vest": 584,
      "anc": 585,
      "ign": 586,
      "Ġcr": 587,
      "ish": 588,
      "Ġyork": 589,
      "av": 590,
      "ident": 591,
      "Ġbl": 592,
      "ame": 593,
      "lic": 594,
      "ket": 595,
      "Ġind": 596,
      "Ġthan": 597,
      "Ġone": 598,
      "Ġworld": 599,
      "ting": 600,
      "ue": 601,
      "ited": 602,
      "ie": 603,
      "Ġmin": 604,
      "ull": 605,
      "tor": 606,
      "Ġcor": 607,
      "se": 608,
      "aj": 609,
      "der": 610,
      "ester": 611,
      "own": 612,
      "Ġintern": 613,
      "Ġall": 614,
      "Ġgre": 615,
      "hn": 616,
      "ated": 617,
      "ational": 618,
      "ton": 619,
      "Ġoil": 620,
      "amp": 621,
      "Ġim": 622,
      "one": 623,
      "Ġ200": 624,
      "new": 625,
      "Ġco": 626,
      "ass": 627,
      "athens": 628,
      "Ġthey": 629,
      "ib": 630,
      "ase": 631,
      "Ġhigh": 632,
      "Ġlast": 633,
      "og": 634,
      "Ġweek": 635,
      "Ġgold": 636,
      "Ġwho": 637,
      "Ġagain": 638,
      "Ġjo": 639,
      "Ġban": 640,
      "ote": 641,
      "Ġabout": 642,
      "Ġwere": 643,
      "Ġlead": 644,
      "Ġcorp": 645,
      "ake": 646,
      "ance": 647,
      "Ġwe": 648,
      "etw": 649,
      "ary": 650,
      "Ġbus": 651,
      "Ġmil": 652,
      "earch": 653,
      "Ġair": 654,
      "als": 655,
      "iz": 656,
      "Ġinto": 657,
      "ount": 658,
      "ros": 659,
      "com": 660,
      "ade": 661,
      "Ġman": 662,
      "vers": 663,
      "Ġoffic": 664,
      "vern": 665,
      "ence": 666,
      "Ġ4": 667,
      "aw": 668,
      "ition": 669,
      "xt": 670,
      "for": 671,
      "Ġgovern": 672,
      "Ġear": 673,
      "ach": 674,
      "ber": 675,
      "Ġbo": 676,
      "Ġsun": 677,
      "Ġyester": 678,
      "Ġfl": 679,
      "Ġyesterday": 680,
      "ash": 681,
      "Ġprices": 682,
      "Ġhad": 683,
      "Ġsat": 684,
      "Ġbeen": 685,
      "Ġteam": 686,
      "ath": 687,
      "Ġreport": 688,
      "Ġamer": 689,
      "Ġpol": 690,
      "Ġameric": 691,
      "act": 692,
      "Ġsecond": 693,
      "Ġcomm": 694,
      "ds": 695,
      "ven": 696,
      "Ġpr": 697,
      "Ġatt": 698,
      "ased": 699,
      "ating": 700,
      "Ġgovernment": 701,
      "Ġcan": 702,
      "arter": 703,
      "Ġserv": 704,
      "Ġpresident": 705,
      "Ġofficial": 706,
      "ey": 707,
      "uct": 708,
      "lo": 709,
      "Ġann": 710,
      "ht": 711,
      "Ġaug": 712,
      "ally": 713,
      "lect": 714,
      "urn": 715,
      "Ġagainst": 716,
      "iss": 717,
      "Ġunited": 718,
      "Ġwhen": 719,
      "led": 720,
      "ound": 721,
      "Ġmedal": 722,
      "Ġret": 723,
      "Ġend": 724,
      "ock": 725,
      "ral": 726,
      "vel": 727,
      "Ġinvest": 728,
      "Ġno": 729,
      "Ġprof": 730,
      "Ġsl": 731,
      "Ġwhich": 732,
      "Ġreg": 733,
      "Ġmilit": 734,
      "Ġme": 735,
      "ww": 736,
      "Ġwould": 737,
      "Ġpeop": 738,
      "cent": 739,
      "Ġmillion": 740,
      "Ġstr": 741,
      "Ġpre": 742,
      "Ġsunday": 743,
      "eral": 744,
      "Ġsup": 745,
      "Ġthree": 746,
      "Ġfour": 747,
      "Ġgroup": 748,
      "Ġplan": 749,
      "Ġset": 750,
      "con": 751,
      "yst": 752,
      "Ġmarket": 753,
      "Ġcons": 754,
      "urday": 755,
      "Ġsaturday": 756,
      "Ġam": 757,
      "Ġcould": 758,
      "Ġnight": 759,
      "man": 760,
      "Ġbec": 761,
      "ren": 762,
      "Ġcount": 763,
      "ted": 764,
      "Ġph": 765,
      "ged": 766,
      "ames": 767,
      "Ġbu": 768,
      "ocks": 769,
      "Ġwar": 770,
      "ublic": 771,
      "Ġpeople": 772,
      "Ġpart": 773,
      "lp": 774,
      "ced": 775,
      "king": 776,
      "Ġdec": 777,
      "Ġgoo": 778,
      "Ġplay": 779,
      "ical": 780,
      "ware": 781,
      "Ġso": 782,
      "Ġdo": 783,
      "uss": 784,
      "Ġpercent": 785,
      "Ġ5": 786,
      "ected": 787,
      "rop": 788,
      "Ġyears": 789,
      "ullqu": 790,
      "land": 791,
      "Ġjust": 792,
      "tle": 793,
      "co": 794,
      "Ġtime": 795,
      "ington": 796,
      "ister": 797,
      "orts": 798,
      "ina": 799,
      "Ġdes": 800,
      "Ġtoday": 801,
      "Ġdef": 802,
      "Ġsur": 803,
      "Ġsou": 804,
      "Ġ6": 805,
      "ower": 806,
      "Ġimp": 807,
      "Ġsome": 808,
      "Ġsoft": 809,
      "ely": 810,
      "Ġsw": 811,
      "Ġsecur": 812,
      "Ġdown": 813,
      "wn": 814,
      "Ġback": 815,
      "Ġstates": 816,
      "line": 817,
      "Ġsal": 818,
      "oll": 819,
      "tory": 820,
      "Ġher": 821,
      "iness": 822,
      "ose": 823,
      "Ġtec": 824,
      "Ġresearch": 825,
      "ier": 826,
      "Ġrecord": 827,
      "Ġbro": 828,
      "ff": 829,
      "Ġrun": 830,
      "ult": 831,
      "Ġbank": 832,
      "Ġannoun": 833,
      "les": 834,
      "Ġprod": 835,
      "Ġfinal": 836,
      "vent": 837,
      "Ġcour": 838,
      "Ġint": 839,
      "ists": 840,
      "ows": 841,
      "ajaf": 842,
      "Ġcap": 843,
      "Ġmonth": 844,
      "ital": 845,
      "Ġmak": 846,
      "use": 847,
      "Ġkill": 848,
      "ugh": 849,
      "ines": 850,
      "Ġcity": 851,
      "Ġdem": 852,
      "able": 853,
      "ms": 854,
      "Ġminister": 855,
      "ball": 856,
      "gh": 857,
      "ger": 858,
      "Ġinternet": 859,
      "ities": 860,
      "Ġathens": 861,
      "oss": 862,
      "ok": 863,
      "Ġolympics": 864,
      "Ġbusiness": 865,
      "Ġsoftware": 866,
      "ystem": 867,
      "Ġbig": 868,
      "Ġday": 869,
      "Ġgames": 870,
      "Ġoffer": 871,
      "ix": 872,
      "Ġter": 873,
      "its": 874,
      "olog": 875,
      "Ġcar": 876,
      "ustral": 877,
      "Ġwon": 878,
      "ep": 879,
      "ics": 880,
      "Ġmay": 881,
      "ise": 882,
      "Ġass": 883,
      "ird": 884,
      "Ġdr": 885,
      "Ġelect": 886,
      "Ġquarter": 887,
      "ft": 888,
      "icros": 889,
      "ual": 890,
      "ved": 891,
      "Ġhelp": 892,
      "Ġlong": 893,
      "Ġli": 894,
      "Ġecon": 895,
      "Ġeconom": 896,
      "ullquote": 897,
      "Ġvic": 898,
      "Ġsystem": 899,
      "Ġsupp": 900,
      "od": 901,
      "uch": 902,
      "Ġmus": 903,
      "ason": 904,
      "Ġfed": 905,
      "app": 906,
      "Ġcountry": 907,
      "ied": 908,
      "Ġofficials": 909,
      "ious": 910,
      "Ġnext": 911,
      "Ġcol": 912,
      "ater": 913,
      "Ġconf": 914,
      "Ġother": 915,
      "gr": 916,
      "ling": 917,
      "ets": 918,
      "Ġ7": 919,
      "ece": 920,
      "Ġtechn": 921,
      "Ġamerican": 922,
      "Ġgr": 923,
      "ked": 924,
      "bs": 925,
      "Ġshe": 926,
      "gle": 927,
      "icrosoft": 928,
      "Ġwom": 929,
      "Ġrele": 930,
      "Ġnor": 931,
      "Ġnetw": 932,
      "tp": 933,
      "Ġ8": 934,
      "Ġmost": 935,
      "Ġstate": 936,
      "Ġservice": 937,
      "Ġtarg": 938,
      "Ġsecurity": 939,
      "ph": 940,
      "ings": 941,
      "Ġgu": 942,
      "Ġlarg": 943,
      "ands": 944,
      "med": 945,
      "els": 946,
      "enc": 947,
      "air": 948,
      "Ġsay": 949,
      "Ġtop": 950,
      "Ġnational": 951,
      "uring": 952,
      "az": 953,
      "ient": 954,
      "Ġtri": 955,
      "ange": 956,
      "Ġunder": 957,
      "ned": 958,
      "Ġrel": 959,
      "Ġchamp": 960,
      "Ġnear": 961,
      "ments": 962,
      "Ġopen": 963,
      "Ġdep": 964,
      "Ġcourt": 965,
      "hes": 966,
      "Ġreported": 967,
      "ood": 968,
      "Ġbillion": 969,
      "Ġ15": 970,
      "Ġals": 971,
      "Ġpo": 972,
      "Ġpublic": 973,
      "Ġthro": 974,
      "ecut": 975,
      "Ġvi": 976,
      "Ġcall": 977,
      "Ġgreece": 978,
      "ording": 979,
      "Ġoper": 980,
      "Ġ19": 981,
      "Ġeng": 982,
      "Ġgrow": 983,
      "ble": 984,
      "Ġhome": 985,
      "Ġyou": 986,
      "Ġannounced": 987,
      "lud": 988,
      "gest": 989,
      "ley": 990,
      "Ġshow": 991,
      "Ġsales": 992,
      "ares": 993,
      "fore": 994,
      "Ġaustral": 995,
      "Ġtarget": 996,
      "Ġgian": 997,
      "Ġnews": 998,
      "Ġruss": 999,
      "Ġaccording": 1000,
      "Ġinternational": 1001,
      "ons": 1002,
      "ices": 1003,
      "Ġ10": 1004,
      "Ġsays": 1005,
      "Ġeu": 1006,
      "ah": 1007,
      "Ġx": 1008,
      "Ġhol": 1009,
      "Ġreb": 1010,
      "year": 1011,
      "Ġstart": 1012,
      "velop": 1013,
      "Ġbrit": 1014,
      "form": 1015,
      "Ġbefore": 1016,
      "int": 1017,
      "ang": 1018,
      "atch": 1019,
      "Ġgen": 1020,
      "Ġjohn": 1021,
      "Ġsee": 1022,
      "Ġem": 1023,
      "pt": 1024,
      "Ġcent": 1025,
      "Ġmaj": 1026,
      "ision": 1027,
      "ress": 1028,
      "eric": 1029,
      "Ġcost": 1030,
      "Ġhim": 1031,
      "Ġfore": 1032,
      "ild": 1033,
      "Ġvictory": 1034,
      "ror": 1035,
      "Ġcre": 1036,
      "Ġmen": 1037,
      "Ġthre": 1038,
      "cess": 1039,
      "Ġnajaf": 1040,
      "Ġwhat": 1041,
      "66": 1042,
      "Ġthem": 1043,
      "istan": 1044,
      "Ġdel": 1045,
      "Ġstre": 1046,
      "Ġju": 1047,
      "br": 1048,
      "let": 1049,
      "ures": 1050,
      "Ġmajor": 1051,
      "be": 1052,
      "hip": 1053,
      "Ġif": 1054,
      "Ġthird": 1055,
      "Ġdevelop": 1056,
      "Ġfederal": 1057,
      "Ġtechnolog": 1058,
      "Ġthrough": 1059,
      "io": 1060,
      "Ġtal": 1061,
      "ince": 1062,
      "Ġsm": 1063,
      "Ġpost": 1064,
      "Ġget": 1065,
      "Ġplans": 1066,
      "iel": 1067,
      "uter": 1068,
      "win": 1069,
      "Ġpar": 1070,
      "Ġwind": 1071,
      "ause": 1072,
      "Ġche": 1073,
      "Ġbas": 1074,
      "Ġwhile": 1075,
      "Ġinclud": 1076,
      "ants": 1077,
      "ook": 1078,
      "afp": 1079,
      "icker": 1080,
      "Ġbel": 1081,
      "Ġmade": 1082,
      "very": 1083,
      "less": 1084,
      "Ġsign": 1085,
      "ched": 1086,
      "uk": 1087,
      "Ġpa": 1088,
      "Ġinf": 1089,
      "Ġhom": 1090,
      "Ġgame": 1091,
      "Ġprov": 1092,
      "eep": 1093,
      "ator": 1094,
      "Ġhit": 1095,
      "Ġla": 1096,
      "Ġbar": 1097,
      "Ġant": 1098,
      "ams": 1099,
      "een": 1100,
      "Ġfe": 1101,
      "Ġrem": 1102,
      "ene": 1103,
      "inf": 1104,
      "ont": 1105,
      "Ġins": 1106,
      "round": 1107,
      "Ġlaw": 1108,
      "alif": 1109,
      "ising": 1110,
      "str": 1111,
      "Ġprot": 1112,
      "Ġ100": 1113,
      "Ġ2004": 1114,
      "Ġsouth": 1115,
      "orn": 1116,
      "Ġstock": 1117,
      "cer": 1118,
      "Ġtro": 1119,
      "Ġbeg": 1120,
      "Ġap": 1121,
      "Ġcharg": 1122,
      "Ġi": 1123,
      "Ġdeal": 1124,
      "Ġprime": 1125,
      "http": 1126,
      "ces": 1127,
      "Ġaut": 1128,
      "Ġcut": 1129,
      "Ġwork": 1130,
      "Ġgoogle": 1131,
      "wash": 1132,
      "ky": 1133,
      "Ġhead": 1134,
      "ref": 1135,
      "Ġhref": 1136,
      "httpww": 1137,
      "nt": 1138,
      "Ġed": 1139,
      "Ġbat": 1140,
      "ward": 1141,
      "Ġhur": 1142,
      "Ġcompet": 1143,
      "Ġhrefhttpww": 1144,
      "ner": 1145,
      "Ġtake": 1146,
      "Ġfil": 1147,
      "etween": 1148,
      "ys": 1149,
      "Ġact": 1150,
      "Ġbetween": 1151,
      "Ġcomputer": 1152,
      "Ġbre": 1153,
      "used": 1154,
      "Ġjap": 1155,
      "Ġshi": 1156,
      "Ġprofit": 1157,
      "washington": 1158,
      "aim": 1159,
      "Ġchina": 1160,
      "Ġmiss": 1161,
      "Ġshares": 1162,
      "uel": 1163,
      "Ġta": 1164,
      "ane": 1165,
      "ains": 1166,
      "Ġcompan": 1167,
      "ins": 1168,
      "inu": 1169,
      "asp": 1170,
      "ada": 1171,
      "Ġleast": 1172,
      "Ġway": 1173,
      "Ġweb": 1174,
      "Ġwindows": 1175,
      "Ġstri": 1176,
      "Ġtele": 1177,
      "Ġindust": 1178,
      "Ġfound": 1179,
      "Ġmicrosoft": 1180,
      "Ġterror": 1181,
      "Ġcompanies": 1182,
      "Ġinit": 1183,
      "Ġref": 1184,
      "Ġext": 1185,
      "Ġtrad": 1186,
      "Ġred": 1187,
      "stocks": 1188,
      "Ġpress": 1189,
      "me": 1190,
      "Ġhow": 1191,
      "Ġip": 1192,
      "Ġopp": 1193,
      "Ġpay": 1194,
      "Ġiraqi": 1195,
      "Ġbuy": 1196,
      "way": 1197,
      "Ġmake": 1198,
      "Ġnow": 1199,
      "quick": 1200,
      "usp": 1201,
      "rael": 1202,
      "min": 1203,
      "ending": 1204,
      "ves": 1205,
      "Ġeven": 1206,
      "vestor": 1207,
      "Ġpolice": 1208,
      "Ġmusic": 1209,
      "fullquote": 1210,
      "other": 1211,
      "su": 1212,
      "Ġpower": 1213,
      "leg": 1214,
      "Ġincre": 1215,
      "reuterscom": 1216,
      "Ġtargetstocks": 1217,
      "winvestor": 1218,
      "infof": 1219,
      "Ġhrefhttpwwwinvestor": 1220,
      "aspxt": 1221,
      "quickinfof": 1222,
      "fullquoteaspxt": 1223,
      "reuterscomfullquoteaspxt": 1224,
      "Ġtargetstocksquickinfof": 1225,
      "Ġhrefhttpwwwinvestorreuterscomfullquoteaspxt": 1226,
      "na": 1227,
      "Ġonly": 1228,
      "Ġlargest": 1229,
      "Ġtechnology": 1230,
      "ert": 1231,
      "Ġang": 1232,
      "aring": 1233,
      "Ġbeing": 1234,
      "Ġbecause": 1235,
      "Ġel": 1236,
      "Ġsince": 1237,
      "reed": 1238,
      "Ġanother": 1239,
      "Ġkilled": 1240,
      "Ġgiant": 1241,
      "Ġfac": 1242,
      "Ġhop": 1243,
      "ough": 1244,
      "Ġadv": 1245,
      "ful": 1246,
      "ym": 1247,
      "Ġtest": 1248,
      "Ġsix": 1249,
      "Ġhal": 1250,
      "aking": 1251,
      "ondon": 1252,
      "nings": 1253,
      "Ġhigher": 1254,
      "rol": 1255,
      "Ġrad": 1256,
      "Ġclaim": 1257,
      "Ġown": 1258,
      "atest": 1259,
      "Ġhold": 1260,
      "Ġformer": 1261,
      "Ġinvestors": 1262,
      "Ġgrowth": 1263,
      "Ġham": 1264,
      "Ġonline": 1265,
      "Ġstocks": 1266,
      "Ġnetwork": 1267,
      "ents": 1268,
      "Ġkn": 1269,
      "Ġhrefhttpwwwinvestorreuterscomfullquoteaspxticker": 1270,
      "Ġsusp": 1271,
      "Ġdou": 1272,
      "acks": 1273,
      "Ġ20": 1274,
      "ared": 1275,
      "ones": 1276,
      "rest": 1277,
      "Ġbush": 1278,
      "Ġeurop": 1279,
      "ese": 1280,
      "Ġfive": 1281,
      "Ġstar": 1282,
      "Ġrul": 1283,
      "Ġretail": 1284,
      "Ġconsum": 1285,
      "Ġoffering": 1286,
      "ators": 1287,
      "Ġdat": 1288,
      "Ġdrug": 1289,
      "ered": 1290,
      "row": 1291,
      "ind": 1292,
      "isco": 1293,
      "Ġseason": 1294,
      "Ġbiggest": 1295,
      "los": 1296,
      "Ġany": 1297,
      "Ġdays": 1298,
      "ives": 1299,
      "Ġmilitary": 1300,
      "by": 1301,
      "Ġsub": 1302,
      "Ġsearch": 1303,
      "Ġcleric": 1304,
      "Ġjapan": 1305,
      "lin": 1306,
      "Ġ18": 1307,
      "thern": 1308,
      "atic": 1309,
      "Ġisrael": 1310,
      "Ġproduc": 1311,
      "Ġ9": 1312,
      "Ġrose": 1313,
      "Ġfell": 1314,
      "Ġduring": 1315,
      "ured": 1316,
      "Ġregion": 1317,
      "Ġwomen": 1318,
      "ivers": 1319,
      "Ġlo": 1320,
      "ague": 1321,
      "ude": 1322,
      "bile": 1323,
      "Ġboo": 1324,
      "Ġagreed": 1325,
      "Ġincluding": 1326,
      "pl": 1327,
      "Ġsu": 1328,
      "Ġthere": 1329,
      "ury": 1330,
      "Ġ12": 1331,
      "ago": 1332,
      "Ġleader": 1333,
      "Ġshiite": 1334,
      "rup": 1335,
      "Ġav": 1336,
      "Ġprop": 1337,
      "Ġclos": 1338,
      "Ġweeks": 1339,
      "ross": 1340,
      "ron": 1341,
      "ze": 1342,
      "Ġleg": 1343,
      "ield": 1344,
      "orks": 1345,
      "alth": 1346,
      "Ġstill": 1347,
      "Ġenter": 1348,
      "Ġfinanc": 1349,
      "but": 1350,
      "owing": 1351,
      "Ġeurope": 1352,
      "ium": 1353,
      "Ġcust": 1354,
      "ament": 1355,
      "uction": 1356,
      "Ġregul": 1357,
      "Ġsch": 1358,
      "Ġcamp": 1359,
      "Ġfight": 1360,
      "Ġstud": 1361,
      "Ġprice": 1362,
      "Ġearly": 1363,
      "ael": 1364,
      "Ġbom": 1365,
      "Ġexpected": 1366,
      "Ġwr": 1367,
      "Ġra": 1368,
      "Ġacqu": 1369,
      "Ġaugust": 1370,
      "Ġmaker": 1371,
      "Ġinitial": 1372,
      "oot": 1373,
      "Ġmany": 1374,
      "Ġstand": 1375,
      "adr": 1376,
      "Ġstrong": 1377,
      "Ġindustry": 1378,
      "gy": 1379,
      "ney": 1380,
      "Ġput": 1381,
      "icago": 1382,
      "ility": 1383,
      "Ġequ": 1384,
      "Ġshar": 1385,
      "ission": 1386,
      "Ġrussian": 1387,
      "Ġlaun": 1388,
      "bers": 1389,
      "iting": 1390,
      "Ġpat": 1391,
      "Ġlatest": 1392,
      "Ġshare": 1393,
      "Ġspr": 1394,
      "ief": 1395,
      "sp": 1396,
      "ained": 1397,
      "Ġevent": 1398,
      "Ġjud": 1399,
      "Ġleft": 1400,
      "Ġattack": 1401,
      "Ġtook": 1402,
      "Ġnum": 1403,
      "ops": 1404,
      "Ġleague": 1405,
      "Ġfranc": 1406,
      "Ġinvestig": 1407,
      "based": 1408,
      "cl": 1409,
      "Ġsud": 1410,
      "Ġsem": 1411,
      "Ġsell": 1412,
      "ative": 1413,
      "Ġmich": 1414,
      "ised": 1415,
      "Ġbeat": 1416,
      "Ġexecut": 1417,
      "Ġago": 1418,
      "ired": 1419,
      "Ġpaul": 1420,
      "Ġmid": 1421,
      "Ġlif": 1422,
      "Ġshr": 1423,
      "Ġmobile": 1424,
      "Ġaustralia": 1425,
      "Ġcustom": 1426,
      "par": 1427,
      "ights": 1428,
      "itt": 1429,
      "Ġshould": 1430,
      "Ġafric": 1431,
      "Ġappro": 1432,
      "Ġpeace": 1433,
      "Ġreturn": 1434,
      "Ġbritish": 1435,
      "Ġtalks": 1436,
      "iff": 1437,
      "Ġround": 1438,
      "Ġappe": 1439,
      "Ġservices": 1440,
      "Ġcapital": 1441,
      "ency": 1442,
      "Ġbasket": 1443,
      "go": 1444,
      "head": 1445,
      "Ġwall": 1446,
      "Ġmet": 1447,
      "Ġdar": 1448,
      "osition": 1449,
      "Ġdev": 1450,
      "akistan": 1451,
      "Ġwhere": 1452,
      "ipp": 1453,
      "Ġadd": 1454,
      "Ġface": 1455,
      "Ġfoll": 1456,
      "Ġbid": 1457,
      "ished": 1458,
      "Ġ11": 1459,
      "000": 1460,
      "Ġnorth": 1461,
      "Ġsold": 1462,
      "Ġinj": 1463,
      "Ġger": 1464,
      "Ġloss": 1465,
      "Ġeff": 1466,
      "Ġbasketball": 1467,
      "ik": 1468,
      "son": 1469,
      "rel": 1470,
      "Ġhand": 1471,
      "Ġstore": 1472,
      "Ġquote": 1473,
      "Ġmove": 1474,
      "Ġmonths": 1475,
      "Ġdemand": 1476,
      "Ġdata": 1477,
      "Ġsing": 1478,
      "Ġrecent": 1479,
      "Ġreleased": 1480,
      "ool": 1481,
      "Ġfall": 1482,
      "Ġpop": 1483,
      "Ġinst": 1484,
      "Ġfail": 1485,
      "ady": 1486,
      "Ġwash": 1487,
      "Ġcommun": 1488,
      "Ġeconomic": 1489,
      "london": 1490,
      "Ġest": 1491,
      "Ġfar": 1492,
      "enter": 1493,
      "Ġcontr": 1494,
      "Ġuse": 1495,
      "Ġreports": 1496,
      "Ġlike": 1497,
      "lam": 1498,
      "Ġwal": 1499,
      "Ġpass": 1500,
      "Ġ14": 1501,
      "loy": 1502,
      "Ġdesp": 1503,
      "Ġnearly": 1504,
      "rupt": 1505,
      "Ġcle": 1506,
      "Ġmuch": 1507,
      "Ġdri": 1508,
      "ense": 1509,
      "Ġdisc": 1510,
      "Ġviol": 1511,
      "Ġpast": 1512,
      "Ġinv": 1513,
      "ism": 1514,
      "Ġste": 1515,
      "Ġhealth": 1516,
      "Ġtrans": 1517,
      "Ġarm": 1518,
      "Ġchampions": 1519,
      "Ġcalif": 1520,
      "Ġmain": 1521,
      "vered": 1522,
      "Ġphone": 1523,
      "Ġmat": 1524,
      "Ġrev": 1525,
      "Ġreal": 1526,
      "Ġneed": 1527,
      "ible": 1528,
      "Ġmanag": 1529,
      "Ġeconomy": 1530,
      "Ġfinancial": 1531,
      "sh": 1532,
      "ty": 1533,
      "Ġsan": 1534,
      "ashed": 1535,
      "Ġnas": 1536,
      "Ġnet": 1537,
      "ects": 1538,
      "Ġrepublic": 1539,
      "Ġscient": 1540,
      "Ġwashington": 1541,
      "bo": 1542,
      "lier": 1543,
      "Ġvers": 1544,
      "Ġtry": 1545,
      "red": 1546,
      "Ġca": 1547,
      "Ġpit": 1548,
      "ison": 1549,
      "Ġdid": 1550,
      "Ġdist": 1551,
      "Ġge": 1552,
      "Ġnations": 1553,
      "Ġcommission": 1554,
      "Ġdepart": 1555,
      "Ġtra": 1556,
      "Ġsour": 1557,
      "Ġfut": 1558,
      "Ġmor": 1559,
      "Ġmem": 1560,
      "Ġev": 1561,
      "Ġeight": 1562,
      "imin": 1563,
      "hor": 1564,
      "ne": 1565,
      "Ġtit": 1566,
      "Ġpri": 1567,
      "Ġlab": 1568,
      "Ġ36": 1569,
      "Ġfirm": 1570,
      "Ġarrest": 1571,
      "Ġcrude": 1572,
      "Ġmichael": 1573,
      "Ġwire": 1574,
      "idence": 1575,
      "Ġchip": 1576,
      "Ġkey": 1577,
      "Ġvide": 1578,
      "Ġpolit": 1579,
      "pr": 1580,
      "Ġrest": 1581,
      "Ġwithout": 1582,
      "Ġbomb": 1583,
      "Ġtim": 1584,
      "Ġsuc": 1585,
      "Ġlower": 1586,
      "erson": 1587,
      "Ġchar": 1588,
      "ears": 1589,
      "Ġconcer": 1590,
      "ocr": 1591,
      "Ġsupport": 1592,
      "Ġchampion": 1593,
      "emp": 1594,
      "ght": 1595,
      "ving": 1596,
      "Ġsil": 1597,
      "Ġcare": 1598,
      "ory": 1599,
      "Ġdet": 1600,
      "Ġriv": 1601,
      "ular": 1602,
      "Ġused": 1603,
      "Ġvis": 1604,
      "Ġcontrol": 1605,
      "ize": 1606,
      "Ġthreat": 1607,
      "Ġauthor": 1608,
      "ration": 1609,
      "Ġwest": 1610,
      "ict": 1611,
      "Ġrace": 1612,
      "ots": 1613,
      "Ġprofile": 1614,
      "Ġcalled": 1615,
      "sc": 1616,
      "Ġdom": 1617,
      "Ġ17": 1618,
      "Ġjuly": 1619,
      "Ġfrancisco": 1620,
      "back": 1621,
      "ees": 1622,
      "Ġfund": 1623,
      "Ġnation": 1624,
      "Ġvir": 1625,
      "ck": 1626,
      "Ġlit": 1627,
      "Ġprogr": 1628,
      "Ġsports": 1629,
      "Ġstreet": 1630,
      "Ġcup": 1631,
      "Ġposs": 1632,
      "Ġpakistan": 1633,
      "ute": 1634,
      "Ġusers": 1635,
      "Ġagree": 1636,
      "raw": 1637,
      "iving": 1638,
      "Ġearnings": 1639,
      "Ġmeet": 1640,
      "Ġimpro": 1641,
      "Ġcompetition": 1642,
      "cast": 1643,
      "Ġturn": 1644,
      "Ġsen": 1645,
      "Ġsim": 1646,
      "Ġcur": 1647,
      "Ġemp": 1648,
      "eles": 1649,
      "Ġacross": 1650,
      "Ġalso": 1651,
      "Ġwireless": 1652,
      "fur": 1653,
      "Ġsum": 1654,
      "Ġmens": 1655,
      "acy": 1656,
      "Ġ13": 1657,
      "Ġkore": 1658,
      "ific": 1659,
      "hd": 1660,
      "ior": 1661,
      "ns": 1662,
      "ites": 1663,
      "Ġbill": 1664,
      "Ġeas": 1665,
      "off": 1666,
      "Ġsever": 1667,
      "aving": 1668,
      "Ġrelease": 1669,
      "dit": 1670,
      "Ġsol": 1671,
      "Ġmot": 1672,
      "Ġhour": 1673,
      "Ġital": 1674,
      "Ġspec": 1675,
      "yearold": 1676,
      "Ġshrine": 1677,
      "Ġdepartment": 1678,
      "de": 1679,
      "gan": 1680,
      "ll": 1681,
      "port": 1682,
      "Ġsoc": 1683,
      "Ġfam": 1684,
      "Ġlos": 1685,
      "Ġconn": 1686,
      "Ġleading": 1687,
      "Ġversion": 1688,
      "bed": 1689,
      "lines": 1690,
      "ret": 1691,
      "Ġchief": 1692,
      "Ġparty": 1693,
      "ollar": 1694,
      "Ġconsumer": 1695,
      "Ġz": 1696,
      "Ġer": 1697,
      "esh": 1698,
      "Ġhost": 1699,
      "Ġhere": 1700,
      "ider": 1701,
      "elf": 1702,
      "ution": 1703,
      "Ġkeep": 1704,
      "uck": 1705,
      "Ġbroad": 1706,
      "Ġsystems": 1707,
      "ness": 1708,
      "ily": 1709,
      "Ġforces": 1710,
      "Ġdead": 1711,
      "aining": 1712,
      "Ġresul": 1713,
      "Ġcontinu": 1714,
      "ymn": 1715,
      "Ġhalf": 1716,
      "ink": 1717,
      "Ġpal": 1718,
      "Ġmight": 1719,
      "Ġ16": 1720,
      "Ġunivers": 1721,
      "ized": 1722,
      "bal": 1723,
      "eration": 1724,
      "Ġpack": 1725,
      "Ġgymn": 1726,
      "Ġfourth": 1727,
      "Ġpc": 1728,
      "adian": 1729,
      "ugg": 1730,
      "Ġdemocr": 1731,
      "Ġsudan": 1732,
      "ai": 1733,
      "Ġaround": 1734,
      "ank": 1735,
      "Ġmass": 1736,
      "ians": 1737,
      "Ġmark": 1738,
      "Ġattacks": 1739,
      "Ġtargetstocksquickinfofullquote": 1740,
      "ias": 1741,
      "ject": 1742,
      "ming": 1743,
      "Ġtre": 1744,
      "inals": 1745,
      "ergy": 1746,
      "Ġanal": 1747,
      "Ġdro": 1748,
      "Ġglo": 1749,
      "Ġdarfur": 1750,
      "Ġdespite": 1751,
      "cy": 1752,
      "ex": 1753,
      "iam": 1754,
      "iers": 1755,
      "tada": 1756,
      "eng": 1757,
      "Ġlate": 1758,
      "Ġyour": 1759,
      "Ġker": 1760,
      "pped": 1761,
      "Ġreser": 1762,
      "Ġkilling": 1763,
      "Ġgeneral": 1764,
      "Ġtroops": 1765,
      "Ġhous": 1766,
      "Ġline": 1767,
      "Ġheld": 1768,
      "Ġalle": 1769,
      "Ġholy": 1770,
      "Ġboost": 1771,
      "ny": 1772,
      "Ġdig": 1773,
      "Ġdollar": 1774,
      "Ġright": 1775,
      "Ġresp": 1776,
      "Ġwinning": 1777,
      "Ġcorpor": 1778,
      "Ġlik": 1779,
      "Ġshowed": 1780,
      "Ġsmall": 1781,
      "Ġtrading": 1782,
      "Ġlittle": 1783,
      "ided": 1784,
      "Ġlow": 1785,
      "Ġloo": 1786,
      "estin": 1787,
      "Ġexch": 1788,
      "Ġspe": 1789,
      "umb": 1790,
      "ards": 1791,
      "Ġseven": 1792,
      "Ġamericans": 1793,
      "Ġalsadr": 1794,
      "Ġxp": 1795,
      "Ġopposition": 1796,
      "Ġtitle": 1797,
      "uf": 1798,
      "ony": 1799,
      "Ġenergy": 1800,
      "Ġworlds": 1801,
      "Ġmanage": 1802,
      "Ġboth": 1803,
      "rench": 1804,
      "Ġ50": 1805,
      "Ġengland": 1806,
      "Ġcosts": 1807,
      "Ġtax": 1808,
      "Ġfighting": 1809,
      "Ġnumber": 1810,
      "Ġcustomers": 1811,
      "Ġgymnast": 1812,
      "ij": 1813,
      "Ġsuch": 1814,
      "Ġbet": 1815,
      "Ġhot": 1816,
      "Ġcoach": 1817,
      "Ġvideo": 1818,
      "over": 1819,
      "ump": 1820,
      "ways": 1821,
      "Ġrece": 1822,
      "Ġ25": 1823,
      "Ġspace": 1824,
      "san": 1825,
      "Ġce": 1826,
      "Ġfree": 1827,
      "Ġever": 1828,
      "Ġevery": 1829,
      "ended": 1830,
      "Ġearlier": 1831,
      "Ġelection": 1832,
      "Ġrebels": 1833,
      "Ġsuccess": 1834,
      "Ġseveral": 1835,
      "Ġwhe": 1836,
      "ought": 1837,
      "ived": 1838,
      "Ġupd": 1839,
      "ather": 1840,
      "Ġmeters": 1841,
      "Ġbuild": 1842,
      "Ġresults": 1843,
      "Ġexchange": 1844,
      "her": 1845,
      "tain": 1846,
      "time": 1847,
      "Ġcase": 1848,
      "Ġfoot": 1849,
      "ately": 1850,
      "arm": 1851,
      "Ġ30": 1852,
      "Ġprocess": 1853,
      "resh": 1854,
      "Ġairlines": 1855,
      "kyo": 1856,
      "meter": 1857,
      "Ġty": 1858,
      "Ġath": 1859,
      "Ġamp": 1860,
      "onto": 1861,
      "Ġcop": 1862,
      "Ġma": 1863,
      "Ġtourn": 1864,
      "Ġthous": 1865,
      "Ġunion": 1866,
      "Ġengine": 1867,
      "aign": 1868,
      "down": 1869,
      "nal": 1870,
      "tim": 1871,
      "Ġq": 1872,
      "Ġfield": 1873,
      "Ġinform": 1874,
      "Ġstep": 1875,
      "Ġissu": 1876,
      "aghd": 1877,
      "Ġalm": 1878,
      "ries": 1879,
      "oci": 1880,
      "ghan": 1881,
      "Ġforeign": 1882,
      "Ġhurric": 1883,
      "Ġalleged": 1884,
      "aghdad": 1885,
      "Ġes": 1886,
      "Ġwell": 1887,
      "Ġhum": 1888,
      "Ġgl": 1889,
      "Ġlight": 1890,
      "Ġlost": 1891,
      "Ġmilitants": 1892,
      "Ġinfl": 1893,
      "Ġbarrel": 1894,
      "Ġangeles": 1895,
      "Ġisraeli": 1896,
      "Ġscientists": 1897,
      "Ġfire": 1898,
      "Ġbase": 1899,
      "Ġdav": 1900,
      "Ġgive": 1901,
      "Ġstra": 1902,
      "owed": 1903,
      "cher": 1904,
      "Ġprom": 1905,
      "Ġattemp": 1906,
      "Ġended": 1907,
      "Ġassoci": 1908,
      "Ġnetworks": 1909,
      "Ġemb": 1910,
      "Ġjump": 1911,
      "Ġfollowing": 1912,
      "hold": 1913,
      "najaf": 1914,
      "ov": 1915,
      "Ġur": 1916,
      "Ġahead": 1917,
      "Ġcenter": 1918,
      "Ġfrench": 1919,
      "osed": 1920,
      "Ġshort": 1921,
      "avy": 1922,
      "Ġgood": 1923,
      "Ġplayer": 1924,
      "Ġdesign": 1925,
      "Ġmaking": 1926,
      "Ġgrand": 1927,
      "Ġoperating": 1928,
      "Ġcontract": 1929,
      "Ġtournament": 1930,
      "aug": 1931,
      "gu": 1932,
      "ging": 1933,
      "iew": 1934,
      "qtada": 1935,
      "aster": 1936,
      "lex": 1937,
      "ush": 1938,
      "ape": 1939,
      "Ġ23": 1940,
      "Ġhistory": 1941,
      "Ġplayers": 1942,
      "Ġproduct": 1943,
      "Ġquarterly": 1944,
      "Ġcentral": 1945,
      "Ġeuropean": 1946,
      "Ġcampaign": 1947,
      "Ġsemif": 1948,
      "Ġgeor": 1949,
      "Ġtak": 1950,
      "Ġsame": 1951,
      "Ġfresh": 1952,
      "ale": 1953,
      "Ġdrop": 1954,
      "Ġreach": 1955,
      "quarter": 1956,
      "Ġseries": 1957,
      "Ġapplic": 1958,
      "Ġsettle": 1959,
      "Ġpolitical": 1960,
      "Ġemploy": 1961,
      "Ġjour": 1962,
      "ember": 1963,
      "Ġgoing": 1964,
      "estern": 1965,
      "Ġcharges": 1966,
      "Ġkerry": 1967,
      "Ġathlet": 1968,
      "Ġinformation": 1969,
      "iver": 1970,
      "Ġos": 1971,
      "Ġhug": 1972,
      "Ġrequ": 1973,
      "Ġproble": 1974,
      "ages": 1975,
      "Ġagency": 1976,
      "Ġtrade": 1977,
      "Ġorder": 1978,
      "Ġorgan": 1979,
      "Ġaccused": 1980,
      "ounded": 1981,
      "Ġbecome": 1982,
      "Ġresearchers": 1983,
      "Ġprotest": 1984,
      "Ġtelev": 1985,
      "Ġconnect": 1986,
      "oon": 1987,
      "td": 1988,
      "Ġwater": 1989,
      "Ġport": 1990,
      "Ġpull": 1991,
      "Ġhund": 1992,
      "Ġstor": 1993,
      "Ġrise": 1994,
      "que": 1995,
      "Ġafghan": 1996,
      "raft": 1997,
      "Ġquest": 1998,
      "Ġsaying": 1999,
      "Ġsharp": 2000,
      "Ġwhether": 2001,
      "get": 2002,
      "pe": 2003,
      "zuel": 2004,
      "Ġaway": 2005,
      "ications": 2006,
      "Ġgas": 2007,
      "amed": 2008,
      "Ġtrack": 2009,
      "Ġleaders": 2010,
      "Ġsouthern": 2011,
      "Ġhamm": 2012,
      "Ġexecutive": 2013,
      "Ġchampionship": 2014,
      "Ġhours": 2015,
      "Ġuniversity": 2016,
      "Ġmanagement": 2017,
      "Ġalmost": 2018,
      "Ġjournal": 2019,
      "ike": 2020,
      "we": 2021,
      "ying": 2022,
      "Ġfew": 2023,
      "Ġperson": 2024,
      "etic": 2025,
      "Ġmedia": 2026,
      "Ġaccess": 2027,
      "Ġcrit": 2028,
      "ibm": 2029,
      "Ġlabor": 2030,
      "many": 2031,
      "Ġve": 2032,
      "aced": 2033,
      "Ġshot": 2034,
      "oston": 2035,
      "Ġexper": 2036,
      "Ġapple": 2037,
      "Ġfeat": 2038,
      "Ġbegin": 2039,
      "Ġproducts": 2040,
      "Ġglobal": 2041,
      "Ġthousands": 2042,
      "Ġhurricane": 2043,
      "set": 2044,
      "Ġuk": 2045,
      "ened": 2046,
      "ential": 2047,
      "Ġform": 2048,
      "utes": 2049,
      "Ġdeb": 2050,
      "Ġusing": 2051,
      "Ġval": 2052,
      "Ġvol": 2053,
      "Ġclass": 2054,
      "Ġclose": 2055,
      "Ġsept": 2056,
      "irect": 2057,
      "Ġart": 2058,
      "Ġdisco": 2059,
      "Ġprison": 2060,
      "Ġauthorities": 2061,
      "Ġagreement": 2062,
      "Ġsummer": 2063,
      "help": 2064,
      "Ġcub": 2065,
      "Ġold": 2066,
      "Ġphelp": 2067,
      "Ġmer": 2068,
      "Ġgree": 2069,
      "ung": 2070,
      "ech": 2071,
      "ott": 2072,
      "istration": 2073,
      "Ġmedals": 2074,
      "Ġperform": 2075,
      "Ġblock": 2076,
      "Ġrunning": 2077,
      "Ġdigital": 2078,
      "Ġstraight": 2079,
      "Ġphelps": 2080,
      "gl": 2081,
      "Ġtaking": 2082,
      "Ġcy": 2083,
      "Ġber": 2084,
      "enn": 2085,
      "Ġdue": 2086,
      "iled": 2087,
      "Ġvo": 2088,
      "opp": 2089,
      "Ġali": 2090,
      "Ġ21": 2091,
      "ession": 2092,
      "Ġamid": 2093,
      "Ġdecision": 2094,
      "6666": 2095,
      "Ġposted": 2096,
      "Ġschool": 2097,
      "Ġmorning": 2098,
      "Ġarrested": 2099,
      "Ġcoun": 2100,
      "Ġbal": 2101,
      "Ġinning": 2102,
      "Ġlin": 2103,
      "vert": 2104,
      "Ġjones": 2105,
      "Ġadmin": 2106,
      "Ġtrial": 2107,
      "Ġjudge": 2108,
      "Ġprogram": 2109,
      "Ġanalyst": 2110,
      "Ġgymnastics": 2111,
      "Ġsy": 2112,
      "Ġdre": 2113,
      "aper": 2114,
      "Ġplace": 2115,
      "Ġinterest": 2116,
      "Ġbron": 2117,
      "Ġindia": 2118,
      "Ġelectron": 2119,
      "Ġinsur": 2120,
      "Ġstrike": 2121,
      "Ġretailer": 2122,
      "Ġlaunch": 2123,
      "Ġvisit": 2124,
      "ker": 2125,
      "microsoft": 2126,
      "uce": 2127,
      "Ġbest": 2128,
      "Ġdirect": 2129,
      "ida": 2130,
      "Ġrally": 2131,
      "Ġchair": 2132,
      "Ġspok": 2133,
      "Ġfind": 2134,
      "Ġprev": 2135,
      "Ġsuper": 2136,
      "Ġaustralian": 2137,
      "ornia": 2138,
      "Ġpalestin": 2139,
      "band": 2140,
      "ler": 2141,
      "yal": 2142,
      "Ġil": 2143,
      "Ġsent": 2144,
      "Ġwif": 2145,
      "Ġfre": 2146,
      "Ġmal": 2147,
      "Ġloc": 2148,
      "Ġltd": 2149,
      "Ġweekend": 2150,
      "Ġairways": 2151,
      "Ġlife": 2152,
      "Ġrival": 2153,
      "Ġlikely": 2154,
      "wa": 2155,
      "Ġtor": 2156,
      "reds": 2157,
      "Ġcame": 2158,
      "Ġcomb": 2159,
      "Ġchicago": 2160,
      "Ġvene": 2161,
      "ored": 2162,
      "Ġexplos": 2163,
      "Ġbring": 2164,
      "Ġairline": 2165,
      "Ġconfir": 2166,
      "Ġbegan": 2167,
      "Ġipo": 2168,
      "Ġvenezuel": 2169,
      "ault": 2170,
      "gress": 2171,
      "val": 2172,
      "Ġthen": 2173,
      "Ġfood": 2174,
      "thing": 2175,
      "ander": 2176,
      "Ġneg": 2177,
      "anced": 2178,
      "Ġphil": 2179,
      "Ġdoub": 2180,
      "Ġviolence": 2181,
      "oid": 2182,
      "ta": 2183,
      "oring": 2184,
      "Ġmc": 2185,
      "aled": 2186,
      "Ġho": 2187,
      "Ġtoo": 2188,
      "Ġthose": 2189,
      "ached": 2190,
      "Ġsecret": 2191,
      "Ġrussia": 2192,
      "Ġgermany": 2193,
      "Ġestim": 2194,
      "Ġfuture": 2195,
      "Ġtimes": 2196,
      "Ġcharley": 2197,
      "Ġbetter": 2198,
      "Ġchairman": 2199,
      "Ġcash": 2200,
      "Ġhard": 2201,
      "Ġless": 2202,
      "Ġjun": 2203,
      "Ġislam": 2204,
      "Ġsaf": 2205,
      "Ġkid": 2206,
      "Ġwarned": 2207,
      "Ġsecurities": 2208,
      "Ġbelie": 2209,
      "Ġactiv": 2210,
      "inux": 2211,
      "Ġcalifornia": 2212,
      "Ġevidence": 2213,
      "Ġspokes": 2214,
      "Ġcell": 2215,
      "anke": 2216,
      "Ġdiv": 2217,
      "Ġled": 2218,
      "Ġran": 2219,
      "Ġouts": 2220,
      "Ġarri": 2221,
      "Ġcontin": 2222,
      "Ġ400": 2223,
      "load": 2224,
      "ullquot": 2225,
      "Ġcolor": 2226,
      "Ġprotect": 2227,
      "Ġtroub": 2228,
      "Ġtargetstocksquickinfofullquot": 2229,
      "Ġarmy": 2230,
      "Ġtelevision": 2231,
      "iet": 2232,
      "ience": 2233,
      "tled": 2234,
      "ready": 2235,
      "Ġbur": 2236,
      "thers": 2237,
      "Ġbeh": 2238,
      "Ġheavy": 2239,
      "aker": 2240,
      "Ġmoney": 2241,
      "Ġamerica": 2242,
      "Ġstores": 2243,
      "dy": 2244,
      "ham": 2245,
      "ners": 2246,
      "vir": 2247,
      "Ġsn": 2248,
      "Ġsize": 2249,
      "Ġfull": 2250,
      "Ġfuel": 2251,
      "Ġonce": 2252,
      "Ġisland": 2253,
      "osc": 2254,
      "Ġdeath": 2255,
      "Ġclub": 2256,
      "Ġcris": 2257,
      "awa": 2258,
      "Ġpresidential": 2259,
      "Ġsox": 2260,
      "Ġcarri": 2261,
      "Ġbattle": 2262,
      "Ġincrease": 2263,
      "Ġtrying": 2264,
      "Ġhuman": 2265,
      "bit": 2266,
      "ule": 2267,
      "ering": 2268,
      "Ġbra": 2269,
      "Ġtoward": 2270,
      "Ġdoc": 2271,
      "Ġalready": 2272,
      "ught": 2273,
      "vention": 2274,
      "apped": 2275,
      "Ġ151": 2276,
      "Ġgetting": 2277,
      "Ġradical": 2278,
      "Ġinvestigation": 2279,
      "ufact": 2280,
      "Ġgreek": 2281,
      "ches": 2282,
      "ded": 2283,
      "Ġaim": 2284,
      "Ġari": 2285,
      "Ġsite": 2286,
      "Ġcard": 2287,
      "Ġwent": 2288,
      "Ġwestern": 2289,
      "Ġmatch": 2290,
      "Ġgot": 2291,
      "Ġstad": 2292,
      "Ġnever": 2293,
      "Ġmarkets": 2294,
      "Ġwomens": 2295,
      "Ġworkers": 2296,
      "Ġfailed": 2297,
      "Ġcurren": 2298,
      "Ġbronze": 2299,
      "Ġstadium": 2300,
      "iw": 2301,
      "mit": 2302,
      "Ġboston": 2303,
      "rod": 2304,
      "ides": 2305,
      "Ġchall": 2306,
      "Ġconv": 2307,
      "Ġunt": 2308,
      "Ġunve": 2309,
      "Ġ22": 2310,
      "oods": 2311,
      "Ġrob": 2312,
      "tokyo": 2313,
      "Ġgreat": 2314,
      "Ġstarting": 2315,
      "Ġjapanese": 2316,
      "Ġafrica": 2317,
      "Ġcareer": 2318,
      "Ġdomin": 2319,
      "Ġitalian": 2320,
      "oscow": 2321,
      "can": 2322,
      "han": 2323,
      "lant": 2324,
      "yle": 2325,
      "Ġwant": 2326,
      "asing": 2327,
      "Ġland": 2328,
      "chicago": 2329,
      "Ġchild": 2330,
      "Ġshut": 2331,
      "aged": 2332,
      "ified": 2333,
      "Ġblue": 2334,
      "Ġmanufact": 2335,
      "Ġbankrupt": 2336,
      "Ġbritain": 2337,
      "Ġhomes": 2338,
      "Ġdouble": 2339,
      "Ġreserve": 2340,
      "Ġupdate": 2341,
      "cal": 2342,
      "mart": 2343,
      "ined": 2344,
      "ening": 2345,
      "icip": 2346,
      "tered": 2347,
      "Ġgave": 2348,
      "Ġlist": 2349,
      "Ġexpect": 2350,
      "ishing": 2351,
      "Ġmilitia": 2352,
      "Ġrepublican": 2353,
      "Ġimprove": 2354,
      "Ġkorea": 2355,
      "Ġhundreds": 2356,
      "Ġpot": 2357,
      "Ġpos": 2358,
      "Ġpick": 2359,
      "Ġmag": 2360,
      "Ġtom": 2361,
      "Ġtown": 2362,
      "Ġyanke": 2363,
      "cept": 2364,
      "ribut": 2365,
      "Ġoffice": 2366,
      "Ġaccoun": 2367,
      "Ġdoes": 2368,
      "Ġ64": 2369,
      "Ġruns": 2370,
      "Ġlawsu": 2371,
      "Ġfiled": 2372,
      "Ġbreak": 2373,
      "Ġinvol": 2374,
      "Ġpossible": 2375,
      "daq": 2376,
      "goo": 2377,
      "iams": 2378,
      "inc": 2379,
      "ints": 2380,
      "Ġpil": 2381,
      "Ġmic": 2382,
      "ases": 2383,
      "Ġdam": 2384,
      "aff": 2385,
      "Ġblack": 2386,
      "Ġminutes": 2387,
      "Ġslow": 2388,
      "Ġnorthern": 2389,
      "Ġforecast": 2390,
      "Ġhopes": 2391,
      "Ġcopy": 2392,
      "Ġperformance": 2393,
      "Ġilleg": 2394,
      "Ġyankees": 2395,
      "hel": 2396,
      "Ġfast": 2397,
      "Ġfears": 2398,
      "Ġpub": 2399,
      "Ġmult": 2400,
      "Ġden": 2401,
      "Ġris": 2402,
      "Ġyet": 2403,
      "Ġyoun": 2404,
      "Ġdebut": 2405,
      "oping": 2406,
      "Ġwilliams": 2407,
      "Ġmod": 2408,
      "Ġadvert": 2409,
      "Ġrecall": 2410,
      "Ġjob": 2411,
      "berg": 2412,
      "Ġamong": 2413,
      "Ġhelped": 2414,
      "Ġmembers": 2415,
      "Ġprevious": 2416,
      "Ġcrisis": 2417,
      "dle": 2418,
      "gian": 2419,
      "mar": 2420,
      "Ġthese": 2421,
      "Ġwatch": 2422,
      "ats": 2423,
      "Ġforce": 2424,
      "verage": 2425,
      "Ġcond": 2426,
      "Ġhew": 2427,
      "Ġsport": 2428,
      "Ġjobs": 2429,
      "Ġcommitt": 2430,
      "Ġcredit": 2431,
      "Ġcharged": 2432,
      "Ġterrorism": 2433,
      "Ġturned": 2434,
      "ijing": 2435,
      "Ġadministration": 2436,
      "Ġanalysts": 2437,
      "Ġcontinue": 2438,
      "oy": 2439,
      "pal": 2440,
      "wide": 2441,
      "Ġfis": 2442,
      "Ġfig": 2443,
      "Ġfif": 2444,
      "Ġgun": 2445,
      "oming": 2446,
      "Ġeach": 2447,
      "ention": 2448,
      "iger": 2449,
      "Ġry": 2450,
      "Ġasked": 2451,
      "Ġwithd": 2452,
      "Ġconvention": 2453,
      "ipment": 2454,
      "raf": 2455,
      "Ġsepar": 2456,
      "Ġscre": 2457,
      "Ġdefe": 2458,
      "Ġdownload": 2459,
      "Ġgiants": 2460,
      "Ġafrican": 2461,
      "Ġmanager": 2462,
      "Ġsoccer": 2463,
      "Ġdemocratic": 2464,
      "Ġhouse": 2465,
      "Ġcorporate": 2466,
      "Ġfootball": 2467,
      "Ġpubl": 2468,
      "fin": 2469,
      "Ġcrow": 2470,
      "lear": 2471,
      "Ġreven": 2472,
      "Ġlook": 2473,
      "Ġemer": 2474,
      "ama": 2475,
      "Ġlevel": 2476,
      "Ġ28": 2477,
      "Ġexpl": 2478,
      "Ġflor": 2479,
      "Ġcanada": 2480,
      "Ġplanned": 2481,
      "brit": 2482,
      "Ġpressure": 2483,
      "Ġipod": 2484,
      "Ġavail": 2485,
      "Ġlegal": 2486,
      "Ġregulators": 2487,
      "Ġbehind": 2488,
      "Ġuntil": 2489,
      "ford": 2490,
      "mo": 2491,
      "ris": 2492,
      "uan": 2493,
      "erence": 2494,
      "Ġwit": 2495,
      "Ġbay": 2496,
      "Ġbene": 2497,
      "Ġpan": 2498,
      "Ġmis": 2499,
      "Ġmur": 2500,
      "Ġhar": 2501,
      "Ġtold": 2502,
      "Ġlim": 2503,
      "Ġlinux": 2504,
      "Ġef": 2505,
      "Ġheart": 2506,
      "eek": 2507,
      "Ġblo": 2508,
      "news": 2509,
      "Ġpract": 2510,
      "Ġstrugg": 2511,
      "Ġrebel": 2512,
      "Ġdelay": 2513,
      "Ġdrugs": 2514,
      "Ġeffect": 2515,
      "Ġsources": 2516,
      "Ġpriv": 2517,
      "ax": 2518,
      "pan": 2519,
      "right": 2520,
      "ually": 2521,
      "xas": 2522,
      "Ġibm": 2523,
      "Ġtur": 2524,
      "inh": 2525,
      "Ġsom": 2526,
      "Ġsqu": 2527,
      "ili": 2528,
      "Ġrange": 2529,
      "Ġchain": 2530,
      "Ġ27": 2531,
      "rab": 2532,
      "Ġpolic": 2533,
      "Ġprep": 2534,
      "Ġswim": 2535,
      "ept": 2536,
      "Ġconcerns": 2537,
      "Ġsilver": 2538,
      "Ġcontinued": 2539,
      "Ġspokesman": 2540,
      "Ġcommittee": 2541,
      "aul": 2542,
      "Ġent": 2543,
      "Ġfur": 2544,
      "Ġmess": 2545,
      "Ġhands": 2546,
      "Ġnuc": 2547,
      "ading": 2548,
      "vey": 2549,
      "Ġcommer": 2550,
      "apore": 2551,
      "Ġwithin": 2552,
      "Ġwhite": 2553,
      "Ġ24": 2554,
      "ivid": 2555,
      "Ġserver": 2556,
      "Ġopt": 2557,
      "ization": 2558,
      "forts": 2559,
      "Ġearth": 2560,
      "Ġannual": 2561,
      "Ġdoz": 2562,
      "Ġconflic": 2563,
      "aza": 2564,
      "Ġemail": 2565,
      "atory": 2566,
      "Ġcommunications": 2567,
      "Ġtravel": 2568,
      "prise": 2569,
      "Ġsenior": 2570,
      "Ġlooking": 2571,
      "Ġefforts": 2572,
      "eer": 2573,
      "mw": 2574,
      "Ġob": 2575,
      "Ġothers": 2576,
      "ann": 2577,
      "Ġhos": 2578,
      "Ġgains": 2579,
      "irc": 2580,
      "oted": 2581,
      "ulation": 2582,
      "riend": 2583,
      "Ġleave": 2584,
      "ift": 2585,
      "arent": 2586,
      "Ġfirms": 2587,
      "Ġtexas": 2588,
      "Ġfinally": 2589,
      "Ġbox": 2590,
      "Ġcanadian": 2591,
      "Ġsigned": 2592,
      "Ġstudy": 2593,
      "Ġsemifinals": 2594,
      "Ġfifth": 2595,
      "Ġflorida": 2596,
      "Ġbenef": 2597,
      "Ġnuclear": 2598,
      "ga": 2599,
      "gen": 2600,
      "uj": 2601,
      "Ġciting": 2602,
      "Ġour": 2603,
      "Ġfav": 2604,
      "eth": 2605,
      "ural": 2606,
      "acle": 2607,
      "oti": 2608,
      "Ġcome": 2609,
      "Ġenough": 2610,
      "ellig": 2611,
      "Ġindivid": 2612,
      "Ġ199": 2613,
      "Ġtaiw": 2614,
      "Ġsoldiers": 2615,
      "Ġinjured": 2616,
      "Ġapplications": 2617,
      "Ġpotential": 2618,
      "Ġposit": 2619,
      "Ġbloom": 2620,
      "Ġmu": 2621,
      "tern": 2622,
      "Ġnort": 2623,
      "Ġattor": 2624,
      "Ġchance": 2625,
      "Ġlet": 2626,
      "raud": 2627,
      "onduct": 2628,
      "ensive": 2629,
      "Ġintellig": 2630,
      "Ġcountrys": 2631,
      "Ġmotor": 2632,
      "viron": 2633,
      "Ġwitness": 2634,
      "Ġattorney": 2635,
      "austral": 2636,
      "bre": 2637,
      "top": 2638,
      "ues": 2639,
      "Ġcou": 2640,
      "Ġbased": 2641,
      "ars": 2642,
      "Ġdan": 2643,
      "adesh": 2644,
      "utch": 2645,
      "aging": 2646,
      "akes": 2647,
      "Ġenviron": 2648,
      "Ġworking": 2649,
      "iven": 2650,
      "ension": 2651,
      "Ġbecame": 2652,
      "Ġsweep": 2653,
      "Ġbusinesses": 2654,
      "Ġequipment": 2655,
      "Ġlaunched": 2656,
      "Ġselling": 2657,
      "Ġsecretary": 2658,
      "Ġcopyright": 2659,
      "Ġhosp": 2660,
      "Ġtaiwan": 2661,
      "dney": 2662,
      "li": 2663,
      "pected": 2664,
      "Ġcal": 2665,
      "Ġmy": 2666,
      "lebr": 2667,
      "Ġreached": 2668,
      "using": 2669,
      "Ġnin": 2670,
      "Ġvill": 2671,
      "Ġunit": 2672,
      "Ġalong": 2673,
      "Ġcomputers": 2674,
      "abad": 2675,
      "Ġgroups": 2676,
      "Ġplanet": 2677,
      "Ġdefense": 2678,
      "Ġprovide": 2679,
      "Ġclaims": 2680,
      "Ġsource": 2681,
      "etica": 2682,
      "Ġpalestinian": 2683,
      "Ġtenn": 2684,
      "Ġaud": 2685,
      "Ġwa": 2686,
      "Ġmill": 2687,
      "Ġtool": 2688,
      "oles": 2689,
      "Ġje": 2690,
      "Ġpros": 2691,
      "Ġchange": 2692,
      "Ġroad": 2693,
      "Ġground": 2694,
      "Ġscand": 2695,
      "Ġcontent": 2696,
      "Ġiraqs": 2697,
      "Ġacquire": 2698,
      "Ġdevices": 2699,
      "Ġeffort": 2700,
      "Ġmeeting": 2701,
      "Ġcelebr": 2702,
      "Ġbaseball": 2703,
      "Ġpersonal": 2704,
      "Ġlocal": 2705,
      "Ġislamic": 2706,
      "Ġbankruptcy": 2707,
      "Ġavailable": 2708,
      "Ġbloomberg": 2709,
      "Ġintelligence": 2710,
      "cc": 2711,
      "dan": 2712,
      "fl": 2713,
      "game": 2714,
      "hal": 2715,
      "lim": 2716,
      "wor": 2717,
      "orters": 2718,
      "Ġball": 2719,
      "Ġbird": 2720,
      "Ġbaghdad": 2721,
      "asts": 2722,
      "Ġ35": 2723,
      "Ġvote": 2724,
      "Ġ26": 2725,
      "Ġmarath": 2726,
      "Ġmov": 2727,
      "Ġdisp": 2728,
      "Ġindian": 2729,
      "oney": 2730,
      "Ġ2005": 2731,
      "Ġconsecut": 2732,
      "Ġrelay": 2733,
      "Ġgrowing": 2734,
      "Ġaction": 2735,
      "Ġrefer": 2736,
      "Ġrules": 2737,
      "Ġacquis": 2738,
      "Ġsprin": 2739,
      "Ġnasdaq": 2740,
      "Ġproblems": 2741,
      "Ġconsecutive": 2742,
      "cing": 2743,
      "Ġver": 2744,
      "Ġfigh": 2745,
      "Ġpen": 2746,
      "Ġpur": 2747,
      "attle": 2748,
      "Ġmort": 2749,
      "Ġdiff": 2750,
      "Ġrain": 2751,
      "Ġproject": 2752,
      "Ġchave": 2753,
      "Ġplot": 2754,
      "Ġclim": 2755,
      "Ġmarch": 2756,
      "Ġoutl": 2757,
      "Ġdisapp": 2758,
      "Ġdesk": 2759,
      "Ġannounce": 2760,
      "Ġhomer": 2761,
      "Ġautom": 2762,
      "Ġterrorist": 2763,
      "Ġavoid": 2764,
      "Ġpopular": 2765,
      "Ġattempt": 2766,
      "Ġconfirmed": 2767,
      "Ġnegoti": 2768,
      "Ġoutside": 2769,
      "Ġaccounting": 2770,
      "Ġmarathon": 2771,
      "Ġchavez": 2772,
      "gin": 2773,
      "oin": 2774,
      "real": 2775,
      "Ġobs": 2776,
      "Ġhp": 2777,
      "Ġgiving": 2778,
      "Ġlater": 2779,
      "iracy": 2780,
      "Ġstake": 2781,
      "ades": 2782,
      "aps": 2783,
      "Ġcomple": 2784,
      "Ġfinance": 2785,
      "Ġqualif": 2786,
      "Ġcoast": 2787,
      "Ġprofits": 2788,
      "Ġconference": 2789,
      "phone": 2790,
      "Ġholdings": 2791,
      "Ġtaken": 2792,
      "Ġhugo": 2793,
      "Ġtennis": 2794,
      "cri": 2795,
      "des": 2796,
      "den": 2797,
      "font": 2798,
      "ple": 2799,
      "erem": 2800,
      "Ġcp": 2801,
      "ises": 2802,
      "iconduct": 2803,
      "Ġey": 2804,
      "uts": 2805,
      "Ġven": 2806,
      "Ġcomplet": 2807,
      "Ġspending": 2808,
      "Ġfrance": 2809,
      "Ġbangl": 2810,
      "Ġsurvey": 2811,
      "inese": 2812,
      "Ġdevelopment": 2813,
      "Ġadvanced": 2814,
      "Ġsuspected": 2815,
      "Ġconsumers": 2816,
      "Ġdavid": 2817,
      "Ġwifi": 2818,
      "Ġyoung": 2819,
      "Ġindividual": 2820,
      "Ġmuqtada": 2821,
      "Ġbangladesh": 2822,
      "aed": 2823,
      "car": 2824,
      "ders": 2825,
      "ever": 2826,
      "fire": 2827,
      "men": 2828,
      "inal": 2829,
      "Ġsites": 2830,
      "Ġwat": 2831,
      "Ġbad": 2832,
      "Ġpush": 2833,
      "Ġny": 2834,
      "ilities": 2835,
      "Ġthought": 2836,
      "iding": 2837,
      "Ġstation": 2838,
      "aces": 2839,
      "rian": 2840,
      "0000": 2841,
      "Ġspot": 2842,
      "Ġcompanys": 2843,
      "ances": 2844,
      "Ġallow": 2845,
      "ibility": 2846,
      "Ġ40": 2847,
      "Ġpoll": 2848,
      "Ġpred": 2849,
      "Ġpoints": 2850,
      "Ġseeking": 2851,
      "Ġrefug": 2852,
      "Ġreceived": 2853,
      "Ġemployees": 2854,
      "Ġtoronto": 2855,
      "Ġchallen": 2856,
      "Ġfurther": 2857,
      "bc": 2858,
      "kn": 2859,
      "uit": 2860,
      "wh": 2861,
      "ona": 2862,
      "Ġcirc": 2863,
      "Ġfer": 2864,
      "Ġfans": 2865,
      "uses": 2866,
      "Ġthough": 2867,
      "Ġstun": 2868,
      "Ġstaff": 2869,
      "Ġship": 2870,
      "Ġenc": 2871,
      "Ġmont": 2872,
      "Ġworth": 2873,
      "Ġnepal": 2874,
      "Ġhighs": 2875,
      "Ġinvestment": 2876,
      "Ġsoon": 2877,
      "Ġtech": 2878,
      "Ġruling": 2879,
      "Ġspeed": 2880,
      "Ġrequest": 2881,
      "Ġquestion": 2882,
      "Ġchildren": 2883,
      "Ġlawsuit": 2884,
      "Ġprosecut": 2885,
      "iconductor": 2886,
      "ban": 2887,
      "egr": 2888,
      "nam": 2889,
      "ove": 2890,
      "pro": 2891,
      "tal": 2892,
      "Ġ0": 2893,
      "Ġtv": 2894,
      "Ġfle": 2895,
      "itz": 2896,
      "Ġmom": 2897,
      "icon": 2898,
      "ashes": 2899,
      "Ġdon": 2900,
      "Ġnine": 2901,
      "Ġname": 2902,
      "ola": 2903,
      "Ġ31": 2904,
      "ighth": 2905,
      "aph": 2906,
      "Ġdeleg": 2907,
      "Ġkh": 2908,
      "ager": 2909,
      "ability": 2910,
      "Ġresident": 2911,
      "Ġexplo": 2912,
      "Ġiran": 2913,
      "Ġsched": 2914,
      "izing": 2915,
      "Ġintel": 2916,
      "Ġintrod": 2917,
      "tpack": 2918,
      "phoon": 2919,
      "Ġstarted": 2920,
      "lettpack": 2921,
      "Ġhope": 2922,
      "Ġspecial": 2923,
      "Ġdiscovered": 2924,
      "Ġjune": 2925,
      "Ġmurder": 2926,
      "Ġenvironment": 2927,
      "Ġninth": 2928,
      "Ġacquisition": 2929,
      "oil": 2930,
      "ss": 2931,
      "zil": 2932,
      "Ġaverage": 2933,
      "Ġsk": 2934,
      "Ġcanc": 2935,
      "Ġcbs": 2936,
      "Ġfraud": 2937,
      "Ġpet": 2938,
      "Ġpict": 2939,
      "alem": 2940,
      "Ġtour": 2941,
      "Ġrej": 2942,
      "olf": 2943,
      "Ġrates": 2944,
      "Ġatlant": 2945,
      "Ġjav": 2946,
      "Ġspan": 2947,
      "Ġfinished": 2948,
      "Ġdispl": 2949,
      "Ġweight": 2950,
      "Ġmiles": 2951,
      "Ġboard": 2952,
      "reng": 2953,
      "Ġintegr": 2954,
      "Ġcapt": 2955,
      "Ġsupply": 2956,
      "Ġmuslim": 2957,
      "Ġjohnson": 2958,
      "Ġradio": 2959,
      "Ġruled": 2960,
      "Ġgerman": 2961,
      "Ġsingle": 2962,
      "Ġbroadband": 2963,
      "Ġkidn": 2964,
      "Ġrevenue": 2965,
      "lettpackard": 2966,
      "bur": 2967,
      "lif": 2968,
      "tw": 2969,
      "Ġsug": 2970,
      "reme": 2971,
      "Ġcam": 2972,
      "Ġfun": 2973,
      "Ġple": 2974,
      "Ġmust": 2975,
      "Ġmist": 2976,
      "arian": 2977,
      "Ġhapp": 2978,
      "Ġdied": 2979,
      "rovers": 2980,
      "Ġgat": 2981,
      "acec": 2982,
      "Ġsaw": 2983,
      "Ġkong": 2984,
      "istry": 2985,
      "Ġrow": 2986,
      "Ġquick": 2987,
      "Ġcrashed": 2988,
      "Ġbody": 2989,
      "Ġteams": 2990,
      "Ġseconds": 2991,
      "Ġphones": 2992,
      "Ġdecided": 2993,
      "Ġjustice": 2994,
      "Ġ63": 2995,
      "Ġpoor": 2996,
      "Ġview": 2997,
      "Ġholding": 2998,
      "Ġsuff": 2999,
      "Ġsemiconductor": 3000,
      "Ġdropped": 3001,
      "Ġinflation": 3002,
      "Ġcarrier": 3003,
      "canadian": 3004,
      "Ġpublished": 3005,
      "bab": 3006,
      "cape": 3007,
      "ef": 3008,
      "limin": 3009,
      "netw": 3010,
      "ino": 3011,
      "erv": 3012,
      "Ġsit": 3013,
      "Ġciv": 3014,
      "Ġcoll": 3015,
      "Ġfoc": 3016,
      "Ġhaving": 3017,
      "term": 3018,
      "Ġgaza": 3019,
      "Ġstop": 3020,
      "Ġbeating": 3021,
      "Ġchinese": 3022,
      "Ġclin": 3023,
      "Ġrepl": 3024,
      "Ġtemp": 3025,
      "Ġcontrovers": 3026,
      "key": 3027,
      "ocked": 3028,
      "Ġprelimin": 3029,
      "Ġdecl": 3030,
      "Ġxinh": 3031,
      "Ġmissing": 3032,
      "ipped": 3033,
      "Ġfutures": 3034,
      "Ġchips": 3035,
      "Ġcurrent": 3036,
      "Ġadvertising": 3037,
      "Ġconflict": 3038,
      "eing": 3039,
      "ox": 3040,
      "with": 3041,
      "Ġvery": 3042,
      "Ġauction": 3043,
      "erus": 3044,
      "Ġwants": 3045,
      "islam": 3046,
      "Ġreve": 3047,
      "ushed": 3048,
      "Ġgiven": 3049,
      "Ġstreng": 3050,
      "Ġrate": 3051,
      "Ġrule": 3052,
      "rich": 3053,
      "Ġfront": 3054,
      "Ġupgr": 3055,
      "Ġserious": 3056,
      "Ġconsider": 3057,
      "Ġopening": 3058,
      "Ġpark": 3059,
      "Ġbatter": 3060,
      "Ġtelecom": 3061,
      "Ġpropos": 3062,
      "Ġreturned": 3063,
      "Ġappeal": 3064,
      "Ġrecently": 3065,
      "Ġclear": 3066,
      "Ġlosing": 3067,
      "Ġissued": 3068,
      "Ġunveiled": 3069,
      "Ġhospital": 3070,
      "Ġscandal": 3071,
      "erusalem": 3072,
      "islamabad": 3073,
      "fr": 3074,
      "fer": 3075,
      "mand": 3076,
      "te": 3077,
      "Ġalex": 3078,
      "oned": 3079,
      "Ġcro": 3080,
      "Ġcert": 3081,
      "Ġoct": 3082,
      "itor": 3083,
      "Ġpent": 3084,
      "Ġmut": 3085,
      "Ġmount": 3086,
      "Ġdoping": 3087,
      "Ġnat": 3088,
      "aded": 3089,
      "adel": 3090,
      "Ġrising": 3091,
      "uston": 3092,
      "Ġmars": 3093,
      "Ġabu": 3094,
      "Ġgoal": 3095,
      "Ġscr": 3096,
      "Ġdism": 3097,
      "Ġbanks": 3098,
      "Ġflag": 3099,
      "Ġprem": 3100,
      "Ġpartners": 3101,
      "Ġsale": 3102,
      "Ġbroke": 3103,
      "Ġstatement": 3104,
      "Ġpool": 3105,
      "Ġcaused": 3106,
      "Ġfunds": 3107,
      "Ġafghanistan": 3108,
      "Ġaimed": 3109,
      "Ġariel": 3110,
      "Ġcbsmw": 3111,
      "bi": 3112,
      "fect": 3113,
      "wood": 3114,
      "Ġside": 3115,
      "ana": 3116,
      "Ġfier": 3117,
      "Ġbord": 3118,
      "Ġpow": 3119,
      "Ġhall": 3120,
      "oul": 3121,
      "outh": 3122,
      "Ġlay": 3123,
      "Ġlou": 3124,
      "acing": 3125,
      "Ġpromp": 3126,
      "Ġexports": 3127,
      "toronto": 3128,
      "Ġgreen": 3129,
      "Ġimam": 3130,
      "Ġproduction": 3131,
      "phia": 3132,
      "Ġincreased": 3133,
      "Ġincreasing": 3134,
      "Ġentertain": 3135,
      "Ġstudents": 3136,
      "Ġsharon": 3137,
      "Ġexecutives": 3138,
      "Ġtyphoon": 3139,
      "Ġissues": 3140,
      "Ġjournalist": 3141,
      "Ġfeatures": 3142,
      "Ġdivision": 3143,
      "Ġfighters": 3144,
      "Ġoutlook": 3145,
      "Ġcivil": 3146,
      "mandu": 3147,
      "nes": 3148,
      "Ġtell": 3149,
      "Ġsans": 3150,
      "itors": 3151,
      "Ġbir": 3152,
      "Ġgam": 3153,
      "Ġnec": 3154,
      "Ġniger": 3155,
      "Ġeast": 3156,
      "Ġstay": 3157,
      "Ġrights": 3158,
      "ota": 3159,
      "estyle": 3160,
      "Ġcomes": 3161,
      "Ġcho": 3162,
      "Ġchang": 3163,
      "Ġalq": 3164,
      "Ġhistor": 3165,
      "ume": 3166,
      "Ġexpress": 3167,
      "Ġmedical": 3168,
      "Ġarch": 3169,
      "ailed": 3170,
      "Ġblow": 3171,
      "Ġweap": 3172,
      "Ġ42": 3173,
      "Ġslight": 3174,
      "Ġsurv": 3175,
      "Ġcuts": 3176,
      "Ġmissed": 3177,
      "Ġmission": 3178,
      "Ġknow": 3179,
      "Ġknown": 3180,
      "Ġnasa": 3181,
      "Ġrespons": 3182,
      "Ġurged": 3183,
      "Ġcritic": 3184,
      "awaited": 3185,
      "Ġryder": 3186,
      "Ġsuggest": 3187,
      "Ġentertainment": 3188,
      "bn": 3189,
      "bby": 3190,
      "moscow": 3191,
      "net": 3192,
      "Ġsend": 3193,
      "onents": 3194,
      "Ġocc": 3195,
      "anged": 3196,
      "Ġwild": 3197,
      "Ġwounded": 3198,
      "Ġmac": 3199,
      "Ġreason": 3200,
      "Ġalleg": 3201,
      "Ġplus": 3202,
      "Ġarea": 3203,
      "Ġseen": 3204,
      "Ġabove": 3205,
      "Ġteen": 3206,
      "Ġappear": 3207,
      "Ġministry": 3208,
      "Ġ2003": 3209,
      "Ġstruck": 3210,
      "encies": 3211,
      "Ġoperations": 3212,
      "beat": 3213,
      "Ġextra": 3214,
      "Ġcloser": 3215,
      "Ġraised": 3216,
      "Ġmiddle": 3217,
      "board": 3218,
      "Ġdistribut": 3219,
      "Ġsharply": 3220,
      "Ġveter": 3221,
      "Ġdebt": 3222,
      "Ġfreestyle": 3223,
      "Ġillegal": 3224,
      "Ġmillions": 3225,
      "Ġcomplete": 3226,
      "aeda": 3227,
      "bfont": 3228,
      "jerusalem": 3229,
      "ka": 3230,
      "oist": 3231,
      "vetica": 3232,
      "west": 3233,
      "Ġtick": 3234,
      "ini": 3235,
      "Ġsong": 3236,
      "Ġcand": 3237,
      "iter": 3238,
      "Ġbud": 3239,
      "Ġmater": 3240,
      "Ġinnings": 3241,
      "arn": 3242,
      "arial": 3243,
      "Ġhig": 3244,
      "Ġdow": 3245,
      "Ġandre": 3246,
      "Ġlu": 3247,
      "Ġlondon": 3248,
      "verdan": 3249,
      "Ġvend": 3250,
      "ifarial": 3251,
      "rict": 3252,
      "Ġresol": 3253,
      "Ġserifarial": 3254,
      "after": 3255,
      "Ġscore": 3256,
      "Ġsecondquarter": 3257,
      "lection": 3258,
      "Ġmilitiam": 3259,
      "Ġplanning": 3260,
      "Ġviet": 3261,
      "Ġpropert": 3262,
      "Ġwrong": 3263,
      "Ġapproved": 3264,
      "Ġapproval": 3265,
      "Ġappeals": 3266,
      "Ġfaceverdan": 3267,
      "Ġwalk": 3268,
      "Ġassociation": 3269,
      "666666": 3270,
      "Ġelectronics": 3271,
      "Ġestimates": 3272,
      "Ġbrazil": 3273,
      "Ġexpectations": 3274,
      "helvetica": 3275,
      "iliar": 3276,
      "Ġserifarialhelvetica": 3277,
      "Ġmilitiamen": 3278,
      "Ġfaceverdanams": 3279,
      "baghdad": 3280,
      "ko": 3281,
      "Ġrom": 3282,
      "Ġarab": 3283,
      "heim": 3284,
      "Ġpm": 3285,
      "enger": 3286,
      "Ġmach": 3287,
      "around": 3288,
      "ico": 3289,
      "Ġhun": 3290,
      "Ġlib": 3291,
      "ety": 3292,
      "uries": 3293,
      "Ġleaving": 3294,
      "Ġovertime": 3295,
      "endum": 3296,
      "Ġfinish": 3297,
      "under": 3298,
      "Ġmoved": 3299,
      "Ġapparent": 3300,
      "Ġblood": 3301,
      "Ġairc": 3302,
      "Ġ49": 3303,
      "athmandu": 3304,
      "Ġbrought": 3305,
      "Ġlongawaited": 3306,
      "Ġlarge": 3307,
      "Ġopened": 3308,
      "Ġhomered": 3309,
      "Ġcharge": 3310,
      "scri": 3311,
      "Ġfamiliar": 3312,
      "Ġsuccessful": 3313,
      "Ġgeorge": 3314,
      "Ġathletes": 3315,
      "icipated": 3316,
      "google": 3317,
      "Ġpilots": 3318,
      "Ġreferendum": 3319,
      "networks": 3320,
      "book": 3321,
      "dles": 3322,
      "eed": 3323,
      "har": 3324,
      "iod": 3325,
      "mun": 3326,
      "ps": 3327,
      "ract": 3328,
      "russ": 3329,
      "ws": 3330,
      "Ġident": 3331,
      "Ġson": 3332,
      "Ġoh": 3333,
      "eded": 3334,
      "Ġfish": 3335,
      "Ġbow": 3336,
      "Ġpip": 3337,
      "ald": 3338,
      "Ġanc": 3339,
      "Ġdutch": 3340,
      "Ġgolf": 3341,
      "Ġlot": 3342,
      "ills": 3343,
      "Ġchart": 3344,
      "Ġcondit": 3345,
      "oph": 3346,
      "Ġ29": 3347,
      "Ġplat": 3348,
      "ials": 3349,
      "Ġroc": 3350,
      "Ġrol": 3351,
      "Ġroyal": 3352,
      "Ġexpand": 3353,
      "Ġperiod": 3354,
      "Ġreco": 3355,
      "Ġcrack": 3356,
      "Ġindep": 3357,
      "Ġcoal": 3358,
      "atings": 3359,
      "Ġbecoming": 3360,
      "Ġwarning": 3361,
      "Ġdram": 3362,
      "Ġshowing": 3363,
      "Ġeuro": 3364,
      "ption": 3365,
      "Ġdeli": 3366,
      "Ġdeveloped": 3367,
      "Ġchec": 3368,
      "Ġprovider": 3369,
      "Ġlawy": 3370,
      "strong": 3371,
      "Ġfacing": 3372,
      "Ġclosed": 3373,
      "Ġmetres": 3374,
      "Ġwalmart": 3375,
      "Ġconcern": 3376,
      "Ġrivals": 3377,
      "Ġthreatened": 3378,
      "Ġsudanese": 3379,
      "Ġdrove": 3380,
      "Ġblockade": 3381,
      "Ġcounter": 3382,
      "Ġelectronic": 3383,
      "Ġrisk": 3384,
      "Ġwithdraw": 3385,
      "Ġresidents": 3386,
      "adelphia": 3387,
      "Ġhistoric": 3388,
      "Ġconditions": 3389,
      "cr": 3390,
      "nor": 3391,
      "night": 3392,
      "per": 3393,
      "ring": 3394,
      "sy": 3395,
      "Ġton": 3396,
      "Ġsky": 3397,
      "Ġfired": 3398,
      "Ġbond": 3399,
      "Ġmart": 3400,
      "Ġhack": 3401,
      "Ġtotal": 3402,
      "Ġrenew": 3403,
      "Ġnfl": 3404,
      "iling": 3405,
      "Ġthin": 3406,
      "ented": 3407,
      "actor": 3408,
      "rial": 3409,
      "Ġplc": 3410,
      "ips": 3411,
      "Ġaccept": 3412,
      "Ġable": 3413,
      "Ġmoqtada": 3414,
      "ouse": 3415,
      "ously": 3416,
      "anches": 3417,
      "Ġgren": 3418,
      "Ġ2006": 3419,
      "Ġjoin": 3420,
      "Ġairport": 3421,
      "bert": 3422,
      "Ġboy": 3423,
      "Ġflu": 3424,
      "Ġdefending": 3425,
      "Ġcourse": 3426,
      "Ġmakes": 3427,
      "Ġsuppl": 3428,
      "Ġguard": 3429,
      "Ġcalls": 3430,
      "Ġnewsp": 3431,
      "Ġhoping": 3432,
      "Ġclaimed": 3433,
      "going": 3434,
      "Ġdiscuss": 3435,
      "Ġreview": 3436,
      "Ġbuilding": 3437,
      "Ġmaoist": 3438,
      "Ġdesigned": 3439,
      "Ġseptember": 3440,
      "Ġsafety": 3441,
      "Ġprivate": 3442,
      "Ġpolicy": 3443,
      "Ġcommerc": 3444,
      "ething": 3445,
      "Ġwitnesses": 3446,
      "Ġweapons": 3447,
      "Ġaircraft": 3448,
      "Ġdramatic": 3449,
      "ding": 3450,
      "lus": 3451,
      "ma": 3452,
      "mon": 3453,
      "mal": 3454,
      "mers": 3455,
      "rist": 3456,
      "ship": 3457,
      "view": 3458,
      "Ġast": 3459,
      "arz": 3460,
      "Ġready": 3461,
      "Ġnamed": 3462,
      "iles": 3463,
      "Ġeighth": 3464,
      "igious": 3465,
      "estic": 3466,
      "Ġasia": 3467,
      "Ġcoming": 3468,
      "Ġshoot": 3469,
      "Ġkept": 3470,
      "Ġheat": 3471,
      "Ġspain": 3472,
      "ively": 3473,
      "Ġarmed": 3474,
      "uced": 3475,
      "coming": 3476,
      "awn": 3477,
      "Ġcommon": 3478,
      "Ġlonger": 3479,
      "Ġoperator": 3480,
      "Ġbelow": 3481,
      "struct": 3482,
      "Ġiniti": 3483,
      "Ġpowerful": 3484,
      "Ġproposed": 3485,
      "Ġclosing": 3486,
      "Ġenterprise": 3487,
      "Ġraising": 3488,
      "Ġstandards": 3489,
      "Ġnumbers": 3490,
      "Ġvirt": 3491,
      "Ġpulled": 3492,
      "Ġexperts": 3493,
      "Ġvenezuela": 3494,
      "Ġchallenge": 3495,
      "Ġcertain": 3496,
      "Ġfierce": 3497,
      "Ġvietnam": 3498,
      "bro": 3499,
      "gent": 3500,
      "put": 3501,
      "sing": 3502,
      "self": 3503,
      "south": 3504,
      "xpected": 3505,
      "Ġill": 3506,
      "ination": 3507,
      "Ġwre": 3508,
      "Ġbit": 3509,
      "Ġben": 3510,
      "Ġpair": 3511,
      "ena": 3512,
      "Ġmun": 3513,
      "Ġmos": 3514,
      "Ġhung": 3515,
      "roy": 3516,
      "Ġlog": 3517,
      "americ": 3518,
      "thane": 3519,
      "imes": 3520,
      "Ġjan": 3521,
      "Ġiss": 3522,
      "Ġoffers": 3523,
      "Ġincs": 3524,
      "Ġdise": 3525,
      "Ġbrand": 3526,
      "Ġcrimin": 3527,
      "Ġjoint": 3528,
      "force": 3529,
      "Ġplanes": 3530,
      "Ġimport": 3531,
      "Ġoffered": 3532,
      "Ġassault": 3533,
      "Ġwoman": 3534,
      "medi": 3535,
      "Ġrelations": 3536,
      "Ġholiday": 3537,
      "Ġparli": 3538,
      "Ġstandard": 3539,
      "Ġdomestic": 3540,
      "Ġmassive": 3541,
      "Ġtreas": 3542,
      "Ġboosted": 3543,
      "Ġstorm": 3544,
      "Ġphilipp": 3545,
      "Ġtroubled": 3546,
      "Ġpreviously": 3547,
      "Ġfigures": 3548,
      "Ġcrowd": 3549,
      "uanet": 3550,
      "Ġpanel": 3551,
      "Ġdozens": 3552,
      "world": 3553,
      "Ġpurch": 3554,
      "Ġcompleted": 3555,
      "Ġcamer": 3556,
      "thanexpected": 3557,
      "Ġparliament": 3558,
      "65": 3559,
      "don": 3560,
      "ev": 3561,
      "high": 3562,
      "nn": 3563,
      "oint": 3564,
      "pre": 3565,
      "ran": 3566,
      "Ġze": 3567,
      "Ġaz": 3568,
      "Ġcit": 3569,
      "att": 3570,
      "Ġgh": 3571,
      "stand": 3572,
      "Ġjew": 3573,
      "ching": 3574,
      "ighb": 3575,
      "Ġprosp": 3576,
      "Ġconc": 3577,
      "Ġcongress": 3578,
      "Ġdeep": 3579,
      "Ġwhose": 3580,
      "aren": 3581,
      "elled": 3582,
      "Ġsex": 3583,
      "Ġservers": 3584,
      "Ġorig": 3585,
      "Ġneighb": 3586,
      "igned": 3587,
      "Ġindic": 3588,
      "Ġallaround": 3589,
      "Ġgrew": 3590,
      "Ġcool": 3591,
      "Ġweak": 3592,
      "Ġwebs": 3593,
      "Ġofficer": 3594,
      "Ġflights": 3595,
      "Ġslam": 3596,
      "Ġstrate": 3597,
      "Ġcountries": 3598,
      "Ġbuil": 3599,
      "Ġ500": 3600,
      "Ġ62": 3601,
      "Ġcarry": 3602,
      "Ġ75": 3603,
      "Ġ85": 3604,
      "Ġguer": 3605,
      "Ġsubscri": 3606,
      "Ġproducer": 3607,
      "Ġspring": 3608,
      "Ġsprint": 3609,
      "Ġappeared": 3610,
      "Ġneeded": 3611,
      "Ġitaly": 3612,
      "Ġdollars": 3613,
      "Ġclassic": 3614,
      "Ġarrived": 3615,
      "Ġbenefits": 3616,
      "half": 3617,
      "Ġxinhuanet": 3618,
      "Ġcandid": 3619,
      "Ġancient": 3620,
      "bl": 3621,
      "dom": 3622,
      "ique": 3623,
      "rising": 3624,
      "ya": 3625,
      "Ġide": 3626,
      "Ġsand": 3627,
      "onstr": 3628,
      "Ġcatch": 3629,
      "Ġwide": 3630,
      "Ġbarg": 3631,
      "Ġpain": 3632,
      "Ġpurs": 3633,
      "Ġnames": 3634,
      "Ġlines": 3635,
      "though": 3636,
      "Ġjack": 3637,
      "Ġthats": 3638,
      "Ġbeijing": 3639,
      "Ġking": 3640,
      "Ġhearing": 3641,
      "Ġwhy": 3642,
      "ortun": 3643,
      "ansas": 3644,
      "Ġtraining": 3645,
      "Ġorders": 3646,
      "Ġscience": 3647,
      "Ġimmedi": 3648,
      "Ġ48": 3649,
      "Ġboeing": 3650,
      "Ġflat": 3651,
      "Ġmakers": 3652,
      "Ġelectric": 3653,
      "Ġelections": 3654,
      "Ġ89": 3655,
      "Ġguine": 3656,
      "ences": 3657,
      "atorial": 3658,
      "Ġsixth": 3659,
      "Ġlosses": 3660,
      "Ġprograms": 3661,
      "Ġdeadly": 3662,
      "Ġallegedly": 3663,
      "gether": 3664,
      "Ġcubs": 3665,
      "opping": 3666,
      "Ġdream": 3667,
      "Ġfiscal": 3668,
      "british": 3669,
      "Ġpractice": 3670,
      "Ġsprinters": 3671,
      "Ġrejected": 3672,
      "Ġjava": 3673,
      "Ġsupplies": 3674,
      "singapore": 3675,
      "11": 3676,
      "bot": 3677,
      "cle": 3678,
      "ead": 3679,
      "ges": 3680,
      "hib": 3681,
      "ober": 3682,
      "rust": 3683,
      "Ġu": 3684,
      "Ġawa": 3685,
      "hest": 3686,
      "Ġfriend": 3687,
      "Ġbell": 3688,
      "icted": 3689,
      "Ġhits": 3690,
      "Ġdie": 3691,
      "roit": 3692,
      "roke": 3693,
      "Ġthom": 3694,
      "Ġthings": 3695,
      "Ġthink": 3696,
      "iders": 3697,
      "Ġeased": 3698,
      "Ġjose": 3699,
      "eway": 3700,
      "Ġbeach": 3701,
      "Ġchanged": 3702,
      "ope": 3703,
      "Ġexc": 3704,
      "ify": 3705,
      "Ġspar": 3706,
      "iable": 3707,
      "ender": 3708,
      "Ġ2000": 3709,
      "Ġsatell": 3710,
      "action": 3711,
      "Ġcommit": 3712,
      "Ġgoog": 3713,
      "Ġplayed": 3714,
      "Ġimpact": 3715,
      "Ġquarterback": 3716,
      "Ġ80": 3717,
      "ients": 3718,
      "Ġreligious": 3719,
      "Ġgeneration": 3720,
      "Ġtechnologies": 3721,
      "Ġinside": 3722,
      "Ġadvance": 3723,
      "Ġradcl": 3724,
      "Ġevents": 3725,
      "Ġvirus": 3726,
      "Ġhousing": 3727,
      "Ġproblem": 3728,
      "Ġdoubled": 3729,
      "Ġbelieve": 3730,
      "Ġmagaz": 3731,
      "Ġsomething": 3732,
      "Ġfavor": 3733,
      "Ġdesktop": 3734,
      "Ġpreliminary": 3735,
      "Ġoctober": 3736,
      "Ġborder": 3737,
      "Ġslightly": 3738,
      "Ġissue": 3739,
      "Ġradcliff": 3740,
      "field": 3741,
      "iation": 3742,
      "long": 3743,
      "larg": 3744,
      "maker": 3745,
      "not": 3746,
      "tt": 3747,
      "Ġut": 3748,
      "Ġay": 3749,
      "iny": 3750,
      "inch": 3751,
      "ery": 3752,
      "Ġsure": 3753,
      "Ġcore": 3754,
      "Ġfile": 3755,
      "Ġfont": 3756,
      "Ġbry": 3757,
      "Ġdest": 3758,
      "Ġdone": 3759,
      "Ġread": 3760,
      "omo": 3761,
      "Ġrich": 3762,
      "ceed": 3763,
      "Ġko": 3764,
      "Ġvac": 3765,
      "akers": 3766,
      "Ġspam": 3767,
      "Ġagencies": 3768,
      "Ġrod": 3769,
      "Ġovernight": 3770,
      "Ġresult": 3771,
      "Ġsea": 3772,
      "Ġtwice": 3773,
      "Ġtruck": 3774,
      "Ġwinds": 3775,
      "Ġscored": 3776,
      "Ġrecover": 3777,
      "Ġdisarm": 3778,
      "Ġ2002": 3779,
      "comp": 3780,
      "Ġ45": 3781,
      "Ġteamm": 3782,
      "ounding": 3783,
      "Ġslashed": 3784,
      "Ġmilitant": 3785,
      "Ġsoaring": 3786,
      "Ġsurged": 3787,
      "Ġgrant": 3788,
      "Ġpoint": 3789,
      "Ġforest": 3790,
      "Ġcreate": 3791,
      "Ġstreets": 3792,
      "Ġcheck": 3793,
      "Ġpaid": 3794,
      "Ġremained": 3795,
      "wards": 3796,
      "Ġextended": 3797,
      "Ġstars": 3798,
      "Ġloyal": 3799,
      "Ġequatorial": 3800,
      "Ġinstall": 3801,
      "Ġkorean": 3802,
      "Ġfamily": 3803,
      "Ġtakes": 3804,
      "Ġorganization": 3805,
      "Ġsydney": 3806,
      "Ġdirector": 3807,
      "Ġmalays": 3808,
      "Ġhouston": 3809,
      "Ġprotection": 3810,
      "Ġdocu": 3811,
      "Ġboxing": 3812,
      "Ġcoup": 3813,
      "Ġproposal": 3814,
      "north": 3815,
      "Ġcriminal": 3816,
      "Ġguinea": 3817,
      "Ġmagazine": 3818,
      "Ġradcliffe": 3819,
      "ba": 3820,
      "gency": 3821,
      "lon": 3822,
      "ster": 3823,
      "when": 3824,
      "Ġastr": 3825,
      "erate": 3826,
      "Ġsar": 3827,
      "Ġcause": 3828,
      "Ġcross": 3829,
      "Ġwis": 3830,
      "Ġfly": 3831,
      "Ġfix": 3832,
      "icle": 3833,
      "Ġtogether": 3834,
      "Ġgets": 3835,
      "Ġthor": 3836,
      "elt": 3837,
      "oly": 3838,
      "Ġram": 3839,
      "Ġrap": 3840,
      "Ġsha": 3841,
      "Ġusa": 3842,
      "emb": 3843,
      "eman": 3844,
      "Ġareas": 3845,
      "Ġtwor": 3846,
      "Ġmoder": 3847,
      "Ġending": 3848,
      "Ġprofession": 3849,
      "Ġsurf": 3850,
      "Ġdemonstr": 3851,
      "gered": 3852,
      "Ġvictim": 3853,
      "ody": 3854,
      "apping": 3855,
      "Ġ72": 3856,
      "Ġcents": 3857,
      "Ġsigns": 3858,
      "Ġfeel": 3859,
      "Ġstriker": 3860,
      "Ġfaces": 3861,
      "Ġowners": 3862,
      "Ġsharehold": 3863,
      "ipping": 3864,
      "Ġinjury": 3865,
      "Ġinstead": 3866,
      "Ġvirgin": 3867,
      "engers": 3868,
      "Ġampt": 3869,
      "Ġathletics": 3870,
      "Ġconnections": 3871,
      "Ġinsurance": 3872,
      "Ġwanted": 3873,
      "Ġmanufacturing": 3874,
      "Ġmicro": 3875,
      "Ġlevels": 3876,
      "Ġexploded": 3877,
      "Ġpicture": 3878,
      "Ġmutual": 3879,
      "Ġcommercial": 3880,
      "Ġzeal": 3881,
      "Ġaziz": 3882,
      "nas": 3883,
      "uation": 3884,
      "rem": 3885,
      "orrow": 3886,
      "Ġpers": 3887,
      "ati": 3888,
      "Ġmad": 3889,
      "Ġmys": 3890,
      "Ġtough": 3891,
      "lement": 3892,
      "Ġgain": 3893,
      "igning": 3894,
      "Ġrare": 3895,
      "oting": 3896,
      "uled": 3897,
      "Ġshift": 3898,
      "Ġvar": 3899,
      "Ġalan": 3900,
      "Ġalthough": 3901,
      "allas": 3902,
      "iance": 3903,
      "Ġrole": 3904,
      "Ġroom": 3905,
      "Ġuprising": 3906,
      "Ġads": 3907,
      "licop": 3908,
      "Ġcode": 3909,
      "Ġweather": 3910,
      "Ġreporting": 3911,
      "Ġmeas": 3912,
      "Ġpeoples": 3913,
      "lands": 3914,
      "Ġswed": 3915,
      "ahoo": 3916,
      "Ġcreated": 3917,
      "Ġprovince": 3918,
      "Ġinsp": 3919,
      "struction": 3920,
      "Ġfiling": 3921,
      "Ġbrew": 3922,
      "Ġjapans": 3923,
      "Ġstripped": 3924,
      "Ġfactor": 3925,
      "Ġsuspic": 3926,
      "Ġcustomer": 3927,
      "Ġinstit": 3928,
      "Ġcommunity": 3929,
      "Ġdrive": 3930,
      "Ġtransport": 3931,
      "Ġmatter": 3932,
      "Ġsemifinal": 3933,
      "Ġapplication": 3934,
      "Ġhuge": 3935,
      "weight": 3936,
      "Ġprisoners": 3937,
      "Ġbringing": 3938,
      "Ġhewitt": 3939,
      "Ġhewlettpackard": 3940,
      "Ġdelayed": 3941,
      "Ġswimming": 3942,
      "Ġpositive": 3943,
      "Ġvillage": 3944,
      "Ġdispute": 3945,
      "Ġquickly": 3946,
      "Ġgrenade": 3947,
      "Ġnewspaper": 3948,
      "largest": 3949,
      "Ġtworun": 3950,
      "gage": 3951,
      "hit": 3952,
      "house": 3953,
      "jo": 3954,
      "ki": 3955,
      "lish": 3956,
      "pc": 3957,
      "post": 3958,
      "rill": 3959,
      "uff": 3960,
      "Ġian": 3961,
      "held": 3962,
      "Ġsession": 3963,
      "Ġcisco": 3964,
      "Ġwid": 3965,
      "attled": 3966,
      "icks": 3967,
      "Ġtouch": 3968,
      "irl": 3969,
      "Ġstem": 3970,
      "Ġrang": 3971,
      "earing": 3972,
      "Ġvent": 3973,
      "Ġhelicop": 3974,
      "Ġitself": 3975,
      "isted": 3976,
      "istic": 3977,
      "Ġrout": 3978,
      "Ġexpects": 3979,
      "Ġadop": 3980,
      "Ġallowed": 3981,
      "Ġhighly": 3982,
      "Ġbanking": 3983,
      "ashing": 3984,
      "Ġplane": 3985,
      "Ġ51": 3986,
      "Ġjustin": 3987,
      "ollah": 3988,
      "Ġhelping": 3989,
      "Ġcolle": 3990,
      "Ġoperation": 3991,
      "Ġholly": 3992,
      "ukos": 3993,
      "Ġremain": 3994,
      "Ġhurdles": 3995,
      "Ġtakeover": 3996,
      "Ġtelephone": 3997,
      "Ġrevol": 3998,
      "Ġneeds": 3999,
      "Ġbombing": 4000,
      "Ġsocial": 4001,
      "Ġtreat": 4002,
      "iami": 4003,
      "Ġcorporation": 4004,
      "timore": 4005,
      "Ġinflu": 4006,
      "Ġjumped": 4007,
      "Ġordered": 4008,
      "Ġactivity": 4009,
      "Ġdisappoin": 4010,
      "Ġnegotiations": 4011,
      "Ġspanish": 4012,
      "two": 4013,
      "Ġchanges": 4014,
      "Ġrecovery": 4015,
      "Ġrenewed": 4016,
      "Ġjewish": 4017,
      "Ġzealand": 4018,
      "10": 4019,
      "bing": 4020,
      "bus": 4021,
      "hy": 4022,
      "ken": 4023,
      "met": 4024,
      "sw": 4025,
      "Ġtan": 4026,
      "Ġsending": 4027,
      "Ġcable": 4028,
      "Ġcerem": 4029,
      "anch": 4030,
      "Ġwel": 4031,
      "itrust": 4032,
      "Ġbul": 4033,
      "Ġbri": 4034,
      "Ġmuse": 4035,
      "ality": 4036,
      "arry": 4037,
      "Ġhong": 4038,
      "Ġdv": 4039,
      "Ġdial": 4040,
      "Ġlack": 4041,
      "Ġstat": 4042,
      "iment": 4043,
      "Ġasian": 4044,
      "Ġconstruction": 4045,
      "Ġvia": 4046,
      "agu": 4047,
      "aka": 4048,
      "Ġcompl": 4049,
      "ctions": 4050,
      "Ġworries": 4051,
      "Ġrooney": 4052,
      "Ġinterim": 4053,
      "Ġinterview": 4054,
      "Ġopens": 4055,
      "Ġappears": 4056,
      "aven": 4057,
      "Ġindex": 4058,
      "ogr": 4059,
      "Ġ46": 4060,
      "Ġflight": 4061,
      "Ġconsp": 4062,
      "Ġphot": 4063,
      "Ġdecades": 4064,
      "Ġplaying": 4065,
      "Ġ60": 4066,
      "Ġ65": 4067,
      "ultane": 4068,
      "Ġconfidence": 4069,
      "Ġ800": 4070,
      "Ġ198": 4071,
      "istani": 4072,
      "beijing": 4073,
      "roundup": 4074,
      "Ġfilesh": 4075,
      "Ġterrorists": 4076,
      "Ġopportun": 4077,
      "lined": 4078,
      "liners": 4079,
      "Ġpaula": 4080,
      "Ġpassenger": 4081,
      "Ġpassengers": 4082,
      "Ġpitched": 4083,
      "Ġnationwide": 4084,
      "Ġpakistani": 4085,
      "Ġembass": 4086,
      "Ġgeorg": 4087,
      "Ġgasol": 4088,
      "australian": 4089,
      "Ġprosecutors": 4090,
      "Ġatlanta": 4091,
      "Ġfocus": 4092,
      "Ġupgrade": 4093,
      "Ġmountain": 4094,
      "Ġindepend": 4095,
      "Ġwreck": 4096,
      "Ġmuseum": 4097,
      "bes": 4098,
      "fed": 4099,
      "hp": 4100,
      "ien": 4101,
      "more": 4102,
      "run": 4103,
      "range": 4104,
      "Ġid": 4105,
      "Ġaward": 4106,
      "rec": 4107,
      "Ġcry": 4108,
      "Ġow": 4109,
      "Ġwrest": 4110,
      "Ġwounding": 4111,
      "Ġbought": 4112,
      "Ġpga": 4113,
      "atollah": 4114,
      "enal": 4115,
      "Ġmike": 4116,
      "arters": 4117,
      "Ġhy": 4118,
      "ask": 4119,
      "Ġdraw": 4120,
      "Ġnar": 4121,
      "oum": 4122,
      "stit": 4123,
      "ado": 4124,
      "Ġthatcher": 4125,
      "ewart": 4126,
      "charg": 4127,
      "Ġken": 4128,
      "Ġhen": 4129,
      "Ġpled": 4130,
      "Ġspir": 4131,
      "ource": 4132,
      "isting": 4133,
      "pping": 4134,
      "Ġresc": 4135,
      "Ġseattle": 4136,
      "Ġthanks": 4137,
      "Ġgreens": 4138,
      "Ġbobby": 4139,
      "ucture": 4140,
      "Ġsetting": 4141,
      "Ġwarner": 4142,
      "ffic": 4143,
      "Ġtried": 4144,
      "Ġdepot": 4145,
      "leyton": 4146,
      "Ġantitrust": 4147,
      "Ġremains": 4148,
      "Ġangels": 4149,
      "Ġdistrict": 4150,
      "Ġprix": 4151,
      "Ġkeeping": 4152,
      "Ġsettlement": 4153,
      "Ġsettlements": 4154,
      "Ġlinks": 4155,
      "Ġdamage": 4156,
      "Ġnorthe": 4157,
      "Ġdisplay": 4158,
      "Ġreplace": 4159,
      "Ġbatteries": 4160,
      "Ġdismiss": 4161,
      "Ġohio": 4162,
      "Ġpipel": 4163,
      "Ġdiego": 4164,
      "Ġfilesharing": 4165,
      "30": 4166,
      "finals": 4167,
      "gers": 4168,
      "ires": 4169,
      "light": 4170,
      "ml": 4171,
      "oke": 4172,
      "pes": 4173,
      "part": 4174,
      "sec": 4175,
      "Ġtony": 4176,
      "Ġsant": 4177,
      "Ġcarter": 4178,
      "Ġfair": 4179,
      "Ġbi": 4180,
      "Ġbook": 4181,
      "Ġpushed": 4182,
      "Ġms": 4183,
      "Ġmix": 4184,
      "Ġinn": 4185,
      "Ġdallas": 4186,
      "tery": 4187,
      "Ġgirl": 4188,
      "oman": 4189,
      "unt": 4190,
      "this": 4191,
      "vement": 4192,
      "illed": 4193,
      "Ġyukos": 4194,
      "Ġshows": 4195,
      "cep": 4196,
      "Ġkenter": 4197,
      "Ġvoted": 4198,
      "Ġhear": 4199,
      "ounds": 4200,
      "Ġspitz": 4201,
      "Ġaff": 4202,
      "Ġaftern": 4203,
      "Ġsevent": 4204,
      "Ġtwins": 4205,
      "Ġargu": 4206,
      "Ġoracle": 4207,
      "aves": 4208,
      "Ġminnes": 4209,
      "athlon": 4210,
      "Ġcounty": 4211,
      "Ġpharm": 4212,
      "Ġdescri": 4213,
      "Ġterm": 4214,
      "Ġquarterfinals": 4215,
      "odaf": 4216,
      "Ġcolum": 4217,
      "Ġcollect": 4218,
      "Ġ77": 4219,
      "Ġalsistani": 4220,
      "angu": 4221,
      "Ġhimself": 4222,
      "Ġdeliver": 4223,
      "Ġtalk": 4224,
      "ukat": 4225,
      "Ġhurt": 4226,
      "washingtonpost": 4227,
      "Ġwayne": 4228,
      "Ġadvis": 4229,
      "Ġtests": 4230,
      "Ġsuspended": 4231,
      "Ġbooks": 4232,
      "Ġattacked": 4233,
      "Ġdevice": 4234,
      "Ġmanagers": 4235,
      "Ġpitcher": 4236,
      "Ġimproved": 4237,
      "Ġsteps": 4238,
      "Ġschools": 4239,
      "Ġtrouble": 4240,
      "Ġdenied": 4241,
      "Ġconduct": 4242,
      "Ġmoment": 4243,
      "Ġcaptured": 4244,
      "Ġlouis": 4245,
      "Ġapparently": 4246,
      "Ġcrackdown": 4247,
      "Ġcoalition": 4248,
      "anchester": 4249,
      "Ġdisease": 4250,
      "Ġimmediately": 4251,
      "Ġayatollah": 4252,
      "Ġshaukat": 4253,
      "Ġbrief": 4254,
      "Ġembassy": 4255,
      "Ġgasoline": 4256,
      "Ġkenteris": 4257,
      "washingtonpostcom": 4258,
      "hi": 4259,
      "haka": 4260,
      "just": 4261,
      "sl": 4262,
      "tles": 4263,
      "inn": 4264,
      "Ġoak": 4265,
      "edia": 4266,
      "Ġful": 4267,
      "Ġfoods": 4268,
      "ato": 4269,
      "atives": 4270,
      "Ġmaster": 4271,
      "aron": 4272,
      "Ġnik": 4273,
      "Ġlose": 4274,
      "iring": 4275,
      "amo": 4276,
      "Ġforward": 4277,
      "Ġ33": 4278,
      "Ġratings": 4279,
      "Ġjet": 4280,
      "Ġjays": 4281,
      "china": 4282,
      "Ġkarz": 4283,
      "ried": 4284,
      "ockey": 4285,
      "Ġspect": 4286,
      "Ġafp": 4287,
      "ipe": 4288,
      "raib": 4289,
      "abil": 4290,
      "Ġmary": 4291,
      "Ġoptim": 4292,
      "Ġcruc": 4293,
      "Ġ43": 4294,
      "Ġ47": 4295,
      "itional": 4296,
      "acher": 4297,
      "Ġattend": 4298,
      "Ġprevent": 4299,
      "Ġdecade": 4300,
      "Ġgoods": 4301,
      "Ġcaptain": 4302,
      "Ġdemands": 4303,
      "Ġguil": 4304,
      "azeer": 4305,
      "Ġ150": 4306,
      "Ġstreak": 4307,
      "Ġdeveloper": 4308,
      "Ġsignific": 4309,
      "Ġanticipated": 4310,
      "Ġ10000": 4311,
      "Ġheaded": 4312,
      "Ġ90": 4313,
      "Ġdriven": 4314,
      "Ġdidnt": 4315,
      "Ġcontinues": 4316,
      "Ġpcs": 4317,
      "Ġvolley": 4318,
      "Ġcuba": 4319,
      "Ġbaltimore": 4320,
      "Ġsyn": 4321,
      "Ġfastest": 4322,
      "Ġseparate": 4323,
      "Ġoptions": 4324,
      "Ġpositions": 4325,
      "Ġwatched": 4326,
      "Ġoccup": 4327,
      "Ġsongs": 4328,
      "Ġhighest": 4329,
      "Ġtonight": 4330,
      "Ġghraib": 4331,
      "Ġmodern": 4332,
      "Ġgreenspan": 4333,
      "Ġafternoon": 4334,
      "odafone": 4335,
      "Ġkarzai": 4336,
      "azeera": 4337,
      "aur": 4338,
      "ca": 4339,
      "do": 4340,
      "factor": 4341,
      "ped": 4342,
      "rit": 4343,
      "za": 4344,
      "Ġtens": 4345,
      "Ġcities": 4346,
      "Ġches": 4347,
      "anamo": 4348,
      "itive": 4349,
      "itational": 4350,
      "Ġbol": 4351,
      "Ġboss": 4352,
      "Ġmig": 4353,
      "Ġmoscow": 4354,
      "isions": 4355,
      "ica": 4356,
      "icit": 4357,
      "Ġha": 4358,
      "Ġtokyo": 4359,
      "Ġreally": 4360,
      "Ġjail": 4361,
      "Ġjets": 4362,
      "Ġprobe": 4363,
      "Ġprobab": 4364,
      "Ġchrist": 4365,
      "Ġdeter": 4366,
      "Ġspre": 4367,
      "Ġspacec": 4368,
      "istance": 4369,
      "rick": 4370,
      "emen": 4371,
      "Ġworks": 4372,
      "Ġclashes": 4373,
      "elling": 4374,
      "Ġrepres": 4375,
      "ansion": 4376,
      "Ġabb": 4377,
      "antanamo": 4378,
      "Ġperfect": 4379,
      "Ġmoving": 4380,
      "Ġdisrupt": 4381,
      "kei": 4382,
      "Ġblast": 4383,
      "Ġmind": 4384,
      "Ġallows": 4385,
      "Ġgreater": 4386,
      "Ġinvestor": 4387,
      "Ġmean": 4388,
      "Ġmarketing": 4389,
      "Ġdod": 4390,
      "Ġdefensive": 4391,
      "Ġsurger": 4392,
      "Ġwont": 4393,
      "Ġcolin": 4394,
      "Ġtrip": 4395,
      "Ġcreating": 4396,
      "Ġdeveloping": 4397,
      "Ġbelgian": 4398,
      "Ġ1000": 4399,
      "Ġeduc": 4400,
      "Ġsuspects": 4401,
      "Ġstarts": 4402,
      "Ġentered": 4403,
      "Ġsudans": 4404,
      "Ġfollow": 4405,
      "Ġsoldier": 4406,
      "Ġsingh": 4407,
      "Ġfalling": 4408,
      "Ġpopulation": 4409,
      "Ġinvitational": 4410,
      "Ġtransfer": 4411,
      "Ġrealnetworks": 4412,
      "umbled": 4413,
      "Ġkerrys": 4414,
      "Ġlinked": 4415,
      "Ġburund": 4416,
      "Ġfischer": 4417,
      "Ġseparat": 4418,
      "Ġstruggling": 4419,
      "Ġdanger": 4420,
      "Ġjeff": 4421,
      "Ġmovies": 4422,
      "Ġmovie": 4423,
      "Ġdiffer": 4424,
      "Ġencour": 4425,
      "Ġkidnapped": 4426,
      "Ġgatlin": 4427,
      "Ġcontroversial": 4428,
      "Ġprompting": 4429,
      "Ġteenager": 4430,
      "Ġshooting": 4431,
      "Ġmosque": 4432,
      "Ġsatellite": 4433,
      "Ġprofessional": 4434,
      "Ġcollege": 4435,
      "Ġnarrow": 4436,
      "Ġminnesota": 4437,
      "Ġnikkei": 4438,
      "Ġguilty": 4439,
      "Ġvolleyball": 4440,
      "Ġprobably": 4441,
      "Ġsurgery": 4442,
      "bel": 4443,
      "cos": 4444,
      "kia": 4445,
      "lad": 4446,
      "mes": 4447,
      "sol": 4448,
      "ten": 4449,
      "tors": 4450,
      "va": 4451,
      "work": 4452,
      "Ġtie": 4453,
      "Ġaust": 4454,
      "inning": 4455,
      "erun": 4456,
      "Ġcat": 4457,
      "eday": 4458,
      "Ġfat": 4459,
      "Ġfact": 4460,
      "Ġpaper": 4461,
      "isa": 4462,
      "icide": 4463,
      "icult": 4464,
      "Ġhills": 4465,
      "Ġhockey": 4466,
      "Ġdail": 4467,
      "Ġrevered": 4468,
      "Ġnon": 4469,
      "Ġlad": 4470,
      "Ġlap": 4471,
      "Ġlive": 4472,
      "Ġlives": 4473,
      "Ġep": 4474,
      "state": 4475,
      "ador": 4476,
      "eces": 4477,
      "Ġforced": 4478,
      "vez": 4479,
      "Ġ38": 4480,
      "terson": 4481,
      "Ġproj": 4482,
      "Ġkathmandu": 4483,
      "Ġvan": 4484,
      "Ġvul": 4485,
      "Ġvodafone": 4486,
      "Ġhell": 4487,
      "resident": 4488,
      "ria": 4489,
      "Ġspend": 4490,
      "ateur": 4491,
      "iple": 4492,
      "Ġupcoming": 4493,
      "Ġsecure": 4494,
      "Ġexpansion": 4495,
      "Ġmedall": 4496,
      "Ġscoring": 4497,
      "Ġnote": 4498,
      "Ġworldwide": 4499,
      "Ġcoop": 4500,
      "Ġnothing": 4501,
      "cons": 4502,
      "Ġdoing": 4503,
      "Ġimplement": 4504,
      "ology": 4505,
      "Ġcolumb": 4506,
      "Ġlargely": 4507,
      "Ġrelief": 4508,
      "Ġcalling": 4509,
      "Ġforec": 4510,
      "Ġinclude": 4511,
      "Ġii": 4512,
      "Ġindustrial": 4513,
      "Ġextend": 4514,
      "Ġtraders": 4515,
      "Ġbuying": 4516,
      "Ġpowerbook": 4517,
      "Ġdatab": 4518,
      "Ġfellow": 4519,
      "Ġbombs": 4520,
      "Ġdevast": 4521,
      "Ġadded": 4522,
      "Ġsingapore": 4523,
      "boy": 4524,
      "Ġeasy": 4525,
      "Ġeasing": 4526,
      "Ġdebate": 4527,
      "Ġmerc": 4528,
      "opped": 4529,
      "Ġdrew": 4530,
      "Ġwife": 4531,
      "Ġexplosion": 4532,
      "Ġphiladelphia": 4533,
      "Ġariz": 4534,
      "Ġnortel": 4535,
      "Ġclimbed": 4536,
      "Ġqualifying": 4537,
      "Ġrefugees": 4538,
      "Ġmontreal": 4539,
      "Ġdelegation": 4540,
      "Ġscheduled": 4541,
      "Ġweightlif": 4542,
      "Ġstrength": 4543,
      "Ġallegations": 4544,
      "Ġmaterials": 4545,
      "russian": 4546,
      "Ġplatform": 4547,
      "Ġvirtual": 4548,
      "Ġimportant": 4549,
      "Ġcandidate": 4550,
      "Ġkobe": 4551,
      "Ġwreckage": 4552,
      "Ġsignificant": 4553,
      "Ġspacecraft": 4554,
      "au": 4555,
      "bthe": 4556,
      "friend": 4557,
      "lers": 4558,
      "ole": 4559,
      "rain": 4560,
      "rast": 4561,
      "ructure": 4562,
      "vio": 4563,
      "zz": 4564,
      "Ġtiny": 4565,
      "Ġsens": 4566,
      "Ġself": 4567,
      "Ġcink": 4568,
      "Ġfan": 4569,
      "Ġpace": 4570,
      "Ġposition": 4571,
      "Ġmr": 4572,
      "Ġinvent": 4573,
      "Ġrestruct": 4574,
      "Ġnav": 4575,
      "Ġlands": 4576,
      "Ġease": 4577,
      "etime": 4578,
      "acity": 4579,
      "aches": 4580,
      "Ġ32": 4581,
      "Ġjury": 4582,
      "chny": 4583,
      "Ġprogress": 4584,
      "quarters": 4585,
      "Ġkansas": 4586,
      "Ġwholes": 4587,
      "Ġunions": 4588,
      "alled": 4589,
      "ction": 4590,
      "artoum": 4591,
      "Ġaccep": 4592,
      "ival": 4593,
      "Ġupset": 4594,
      "Ġmarion": 4595,
      "antas": 4596,
      "Ġwinner": 4597,
      "Ġcru": 4598,
      "Ġcrimes": 4599,
      "Ġindians": 4600,
      "seeded": 4601,
      "Ġ41": 4602,
      "Ġflaw": 4603,
      "Ġattention": 4604,
      "Ġretire": 4605,
      "Ġstrain": 4606,
      "Ġsupreme": 4607,
      "Ġamateur": 4608,
      "Ġdeficit": 4609,
      "Ġbrown": 4610,
      "Ġbroker": 4611,
      "Ġassemb": 4612,
      "Ġmushar": 4613,
      "Ġ74": 4614,
      "Ġpostbfont": 4615,
      "Ġparts": 4616,
      "Ġchem": 4617,
      "Ġfeet": 4618,
      "Ġedge": 4619,
      "Ġcompete": 4620,
      "Ġfaced": 4621,
      "Ġtesting": 4622,
      "Ġsuicide": 4623,
      "Ġregular": 4624,
      "Ġpatterson": 4625,
      "Ġinvestigating": 4626,
      "Ġhealthday": 4627,
      "Ġsimultane": 4628,
      "Ġspecies": 4629,
      "Ġdeadline": 4630,
      "Ġlineup": 4631,
      "Ġlooked": 4632,
      "Ġcyber": 4633,
      "mitted": 4634,
      "Ġmanufactur": 4635,
      "Ġtomorrow": 4636,
      "Ġillegally": 4637,
      "Ġdefeated": 4638,
      "Ġexplor": 4639,
      "newsfactor": 4640,
      "Ġmortgage": 4641,
      "Ġdifficult": 4642,
      "Ġautomatic": 4643,
      "Ġeye": 4644,
      "Ġenvironmental": 4645,
      "Ġsuffered": 4646,
      "Ġdeclared": 4647,
      "Ġdelivered": 4648,
      "american": 4649,
      "Ġphilippines": 4650,
      "Ġmalaysia": 4651,
      "Ġdvd": 4652,
      "Ġdaily": 4653,
      "Ġvulner": 4654,
      "rastructure": 4655,
      "Ġmusharraf": 4656,
      "50": 4657,
      "cat": 4658,
      "card": 4659,
      "dt": 4660,
      "ez": 4661,
      "joy": 4662,
      "mad": 4663,
      "pn": 4664,
      "pass": 4665,
      "ued": 4666,
      "well": 4667,
      "Ġire": 4668,
      "Ġten": 4669,
      "Ġtight": 4670,
      "Ġtren": 4671,
      "Ġtable": 4672,
      "inas": 4673,
      "Ġsle": 4674,
      "reg": 4675,
      "Ġcas": 4676,
      "Ġwond": 4677,
      "Ġfal": 4678,
      "Ġbug": 4679,
      "Ġpatch": 4680,
      "Ġmiami": 4681,
      "isf": 4682,
      "ically": 4683,
      "Ġana": 4684,
      "Ġder": 4685,
      "Ġdiving": 4686,
      "Ġthing": 4687,
      "Ġlank": 4688,
      "Ġliable": 4689,
      "unes": 4690,
      "urning": 4691,
      "amb": 4692,
      "ami": 4693,
      "aming": 4694,
      "utions": 4695,
      "there": 4696,
      "Ġrather": 4697,
      "owled": 4698,
      "Ġyahoo": 4699,
      "ither": 4700,
      "Ġchris": 4701,
      "Ġvice": 4702,
      "Ġheard": 4703,
      "Ġplant": 4704,
      "Ġspy": 4705,
      "Ġspent": 4706,
      "Ġenforce": 4707,
      "artner": 4708,
      "Ġabd": 4709,
      "Ġquiet": 4710,
      "Ġmedley": 4711,
      "Ġargent": 4712,
      "Ġscot": 4713,
      "ucks": 4714,
      "Ġcontribut": 4715,
      "Ġcrash": 4716,
      "Ġgreatest": 4717,
      "Ġcorps": 4718,
      "away": 4719,
      "Ġfla": 4720,
      "Ġflash": 4721,
      "Ġcannot": 4722,
      "veland": 4723,
      "Ġdecline": 4724,
      "Ġsought": 4725,
      "Ġswe": 4726,
      "Ġrecords": 4727,
      "Ġdevelopers": 4728,
      "ielder": 4729,
      "Ġchechny": 4730,
      "Ġinfrastructure": 4731,
      "Ġhomel": 4732,
      "Ġremote": 4733,
      "Ġbreaking": 4734,
      "Ġhoward": 4735,
      "Ġevening": 4736,
      "Ġeli": 4737,
      "Ġowner": 4738,
      "Ġhamid": 4739,
      "Ġregional": 4740,
      "place": 4741,
      "Ġputting": 4742,
      "Ġinvestigators": 4743,
      "clus": 4744,
      "Ġinstant": 4745,
      "Ġfailing": 4746,
      "Ġfailure": 4747,
      "Ġpassed": 4748,
      "Ġclean": 4749,
      "Ġtraffic": 4750,
      "Ġdetroit": 4751,
      "Ġtaxes": 4752,
      "Ġqaeda": 4753,
      "Ġassociates": 4754,
      "Ġembar": 4755,
      "Ġosset": 4756,
      "Ġconnection": 4757,
      "Ġveh": 4758,
      "Ġvoters": 4759,
      "Ġvoice": 4760,
      "Ġpalestinians": 4761,
      "Ġestimated": 4762,
      "Ġlimited": 4763,
      "Ġdozen": 4764,
      "australia": 4765,
      "knowled": 4766,
      "Ġpowell": 4767,
      "Ġbirth": 4768,
      "Ġsurvived": 4769,
      "Ġdistribution": 4770,
      "Ġproperty": 4771,
      "Ġroman": 4772,
      "Ġlawyers": 4773,
      "Ġboyc": 4774,
      "Ġinitiative": 4775,
      "Ġelectricity": 4776,
      "Ġpeoplesoft": 4777,
      "Ġfactories": 4778,
      "Ġhollywood": 4779,
      "Ġabbey": 4780,
      "Ġwholesale": 4781,
      "ae": 4782,
      "eu": 4783,
      "hol": 4784,
      "hour": 4785,
      "iest": 4786,
      "kes": 4787,
      "mir": 4788,
      "mac": 4789,
      "nand": 4790,
      "pakistan": 4791,
      "tr": 4792,
      "uary": 4793,
      "yard": 4794,
      "Ġult": 4795,
      "Ġaere": 4796,
      "Ġsac": 4797,
      "Ġsadr": 4798,
      "onent": 4799,
      "Ġoce": 4800,
      "Ġflex": 4801,
      "Ġmets": 4802,
      "aries": 4803,
      "Ġtoy": 4804,
      "Ġdir": 4805,
      "Ġrevers": 4806,
      "Ġgard": 4807,
      "Ġgone": 4808,
      "Ġgained": 4809,
      "Ġgartner": 4810,
      "illy": 4811,
      "Ġliving": 4812,
      "Ġlangu": 4813,
      "iraq": 4814,
      "elly": 4815,
      "elves": 4816,
      "olis": 4817,
      "Ġ300": 4818,
      "Ġrall": 4819,
      "oty": 4820,
      "otcom": 4821,
      "Ġjim": 4822,
      "Ġprove": 4823,
      "ques": 4824,
      "anda": 4825,
      "Ġkind": 4826,
      "Ġunbeat": 4827,
      "ugged": 4828,
      "Ġplaced": 4829,
      "Ġspl": 4830,
      "Ġage": 4831,
      "Ġword": 4832,
      "Ġrobert": 4833,
      "Ġacknowled": 4834,
      "abilities": 4835,
      "Ġtrig": 4836,
      "Ġfirsthalf": 4837,
      "antage": 4838,
      "Ġimage": 4839,
      "asefire": 4840,
      "Ġflo": 4841,
      "Ġdoom": 4842,
      "Ġsurge": 4843,
      "Ġ61": 4844,
      "Ġbanknorth": 4845,
      "Ġliqu": 4846,
      "intel": 4847,
      "Ġgenetic": 4848,
      "Ġseek": 4849,
      "Ġthreerun": 4850,
      "Ġdelhi": 4851,
      "Ġincludes": 4852,
      "ukee": 4853,
      "Ġedwards": 4854,
      "ysis": 4855,
      "Ġreduce": 4856,
      "Ġhalt": 4857,
      "Ġknee": 4858,
      "Ġpatients": 4859,
      "Ġlifted": 4860,
      "paris": 4861,
      "ikh": 4862,
      "Ġsteve": 4863,
      "Ġpitch": 4864,
      "Ġsilicon": 4865,
      "Ġdetain": 4866,
      "Ġauthority": 4867,
      "rawford": 4868,
      "Ġhostage": 4869,
      "Ġspeech": 4870,
      "Ġceasefire": 4871,
      "Ġprocessors": 4872,
      "Ġquestions": 4873,
      "Ġbeginning": 4874,
      "Ġberlus": 4875,
      "Ġfinding": 4876,
      "waukee": 4877,
      "Ġcolorado": 4878,
      "iety": 4879,
      "Ġpicked": 4880,
      "Ġinvolved": 4881,
      "googo": 4882,
      "Ġmultiple": 4883,
      "mark": 4884,
      "Ġdefeat": 4885,
      "uja": 4886,
      "Ġtools": 4887,
      "Ġannouncement": 4888,
      "Ġrevealed": 4889,
      "Ġincreasingly": 4890,
      "Ġticket": 4891,
      "munications": 4892,
      "sydney": 4893,
      "Ġastros": 4894,
      "Ġprospect": 4895,
      "Ġbuilt": 4896,
      "Ġdocuments": 4897,
      "Ġthorpe": 4898,
      "Ġvictims": 4899,
      "Ġshareholders": 4900,
      "Ġhelicopter": 4901,
      "Ġdisappointing": 4902,
      "ograph": 4903,
      "Ġseventh": 4904,
      "Ġcolumn": 4905,
      "Ġfully": 4906,
      "Ġburundi": 4907,
      "Ġmedallist": 4908,
      "Ġireland": 4909,
      "Ġanaheim": 4910,
      "Ġchechnya": 4911,
      "Ġberluscon": 4912,
      "100": 4913,
      "ahead": 4914,
      "cil": 4915,
      "mission": 4916,
      "py": 4917,
      "she": 4918,
      "zen": 4919,
      "Ġteles": 4920,
      "Ġsamp": 4921,
      "reat": 4922,
      "Ġthems": 4923,
      "Ġcos": 4924,
      "Ġcnn": 4925,
      "Ġwave": 4926,
      "aling": 4927,
      "Ġhon": 4928,
      "Ġdont": 4929,
      "Ġlith": 4930,
      "Ġlarry": 4931,
      "Ġlleyton": 4932,
      "Ġeth": 4933,
      "ste": 4934,
      "eled": 4935,
      "Ġstewart": 4936,
      "acas": 4937,
      "uty": 4938,
      "vem": 4939,
      "Ġ3000": 4940,
      "imir": 4941,
      "Ġyen": 4942,
      "Ġjacks": 4943,
      "ula": 4944,
      "Ġproceed": 4945,
      "Ġcha": 4946,
      "Ġchann": 4947,
      "Ġshopping": 4948,
      "Ġsave": 4949,
      "Ġkick": 4950,
      "Ġvlad": 4951,
      "agon": 4952,
      "rif": 4953,
      "Ġcomplex": 4954,
      "ooks": 4955,
      "Ġwords": 4956,
      "Ġoverh": 4957,
      "ivity": 4958,
      "Ġaband": 4959,
      "Ġgoahead": 4960,
      "Ġexpos": 4961,
      "Ġoutput": 4962,
      "Ġpeak": 4963,
      "forms": 4964,
      "Ġattract": 4965,
      "Ġnovem": 4966,
      "Ġslump": 4967,
      "Ġpret": 4968,
      "Ġsurpr": 4969,
      "Ġswiss": 4970,
      "Ġbrows": 4971,
      "Ġcapacity": 4972,
      "Ġterms": 4973,
      "Ġcars": 4974,
      "Ġelected": 4975,
      "Ġsupposed": 4976,
      "Ġ70": 4977,
      "Ġdeport": 4978,
      "Ġgener": 4979,
      "Ġcostly": 4980,
      "Ġcrew": 4981,
      "Ġlaws": 4982,
      "Ġheadquarters": 4983,
      "Ġfiles": 4984,
      "Ġreflect": 4985,
      "Ġrefused": 4986,
      "Ġopponents": 4987,
      "Ġangry": 4988,
      "Ġelimin": 4989,
      "Ġclaiming": 4990,
      "Ġdoug": 4991,
      "Ġretailers": 4992,
      "Ġsubst": 4993,
      "Ġregulatory": 4994,
      "Ġraise": 4995,
      "adrid": 4996,
      "speed": 4997,
      "Ġcleveland": 4998,
      "Ġsanctions": 4999
    },
    "merges": [
      [
        "Ġ",
        "t"
      ],
      [
        "Ġ",
        "a"
      ],
      [
        "i",
        "n"
      ],
      [
        "e",
        "r"
      ],
      [
        "h",
        "e"
      ],
      [
        "Ġ",
        "s"
      ],
      [
        "o",
        "n"
      ],
      [
        "r",
        "e"
      ],
      [
        "Ġt",
        "he"
      ],
      [
        "Ġ",
        "c"
      ],
      [
        "Ġ",
        "o"
      ],
      [
        "e",
        "d"
      ],
      [
        "a",
        "n"
      ],
      [
        "Ġ",
        "w"
      ],
      [
        "e",
        "s"
      ],
      [
        "Ġ",
        "f"
      ],
      [
        "o",
        "r"
      ],
      [
        "i",
        "t"
      ],
      [
        "Ġ",
        "b"
      ],
      [
        "Ġ",
        "p"
      ],
      [
        "a",
        "t"
      ],
      [
        "e",
        "n"
      ],
      [
        "Ġ",
        "m"
      ],
      [
        "in",
        "g"
      ],
      [
        "Ġ",
        "in"
      ],
      [
        "a",
        "l"
      ],
      [
        "a",
        "r"
      ],
      [
        "i",
        "s"
      ],
      [
        "i",
        "c"
      ],
      [
        "Ġ",
        "h"
      ],
      [
        "Ġt",
        "o"
      ],
      [
        "Ġo",
        "f"
      ],
      [
        "a",
        "s"
      ],
      [
        "Ġa",
        "n"
      ],
      [
        "Ġ",
        "d"
      ],
      [
        "r",
        "o"
      ],
      [
        "a",
        "y"
      ],
      [
        "l",
        "e"
      ],
      [
        "t",
        "er"
      ],
      [
        "Ġ",
        "re"
      ],
      [
        "u",
        "s"
      ],
      [
        "i",
        "on"
      ],
      [
        "Ġ",
        "g"
      ],
      [
        "Ġ",
        "n"
      ],
      [
        "i",
        "l"
      ],
      [
        "Ġt",
        "h"
      ],
      [
        "o",
        "u"
      ],
      [
        "Ġan",
        "d"
      ],
      [
        "o",
        "m"
      ],
      [
        "i",
        "d"
      ],
      [
        "Ġ",
        "l"
      ],
      [
        "Ġ",
        "on"
      ],
      [
        "Ġ",
        "e"
      ],
      [
        "en",
        "t"
      ],
      [
        "e",
        "t"
      ],
      [
        "i",
        "r"
      ],
      [
        "u",
        "n"
      ],
      [
        "d",
        "ay"
      ],
      [
        "s",
        "t"
      ],
      [
        "u",
        "r"
      ],
      [
        "e",
        "l"
      ],
      [
        "Ġs",
        "t"
      ],
      [
        "a",
        "d"
      ],
      [
        "a",
        "c"
      ],
      [
        "i",
        "g"
      ],
      [
        "e",
        "c"
      ],
      [
        "a",
        "m"
      ],
      [
        "o",
        "l"
      ],
      [
        "Ġf",
        "or"
      ],
      [
        "l",
        "y"
      ],
      [
        "Ġ",
        "it"
      ],
      [
        "u",
        "t"
      ],
      [
        "v",
        "er"
      ],
      [
        "t",
        "h"
      ],
      [
        "v",
        "e"
      ],
      [
        "Ġ",
        "3"
      ],
      [
        "i",
        "m"
      ],
      [
        "Ġ",
        "r"
      ],
      [
        "il",
        "l"
      ],
      [
        "o",
        "w"
      ],
      [
        "o",
        "t"
      ],
      [
        "Ġa",
        "t"
      ],
      [
        "Ġ",
        "y"
      ],
      [
        "at",
        "ion"
      ],
      [
        "es",
        "t"
      ],
      [
        "Ġ3",
        "9"
      ],
      [
        "er",
        "s"
      ],
      [
        "Ġ",
        "j"
      ],
      [
        "Ġth",
        "at"
      ],
      [
        "Ġa",
        "s"
      ],
      [
        "e",
        "w"
      ],
      [
        "Ġc",
        "om"
      ],
      [
        "Ġb",
        "e"
      ],
      [
        "c",
        "h"
      ],
      [
        "ig",
        "h"
      ],
      [
        "it",
        "h"
      ],
      [
        "a",
        "p"
      ],
      [
        "u",
        "p"
      ],
      [
        "ter",
        "s"
      ],
      [
        "u",
        "l"
      ],
      [
        "Ġw",
        "ith"
      ],
      [
        "Ġp",
        "ro"
      ],
      [
        "Ġ",
        "is"
      ],
      [
        "q",
        "u"
      ],
      [
        "Ġc",
        "h"
      ],
      [
        "t",
        "s"
      ],
      [
        "e",
        "ar"
      ],
      [
        "o",
        "s"
      ],
      [
        "Ġc",
        "on"
      ],
      [
        "Ġs",
        "h"
      ],
      [
        "Ġd",
        "e"
      ],
      [
        "Ġs",
        "a"
      ],
      [
        "c",
        "e"
      ],
      [
        "an",
        "d"
      ],
      [
        "Ġ",
        "1"
      ],
      [
        "Ġ",
        "us"
      ],
      [
        "Ġ",
        "k"
      ],
      [
        "Ġ",
        "v"
      ],
      [
        "Ġ",
        "he"
      ],
      [
        "a",
        "g"
      ],
      [
        "l",
        "d"
      ],
      [
        "Ġit",
        "s"
      ],
      [
        "o",
        "re"
      ],
      [
        "a",
        "in"
      ],
      [
        "o",
        "p"
      ],
      [
        "u",
        "ters"
      ],
      [
        "a",
        "k"
      ],
      [
        "Ġsa",
        "id"
      ],
      [
        "m",
        "ent"
      ],
      [
        "Ġw",
        "h"
      ],
      [
        "m",
        "p"
      ],
      [
        "re",
        "s"
      ],
      [
        "Ġ",
        "un"
      ],
      [
        "Ġb",
        "y"
      ],
      [
        "Ġa",
        "l"
      ],
      [
        "r",
        "i"
      ],
      [
        "0",
        "0"
      ],
      [
        "Ġ",
        "le"
      ],
      [
        "Ġcom",
        "p"
      ],
      [
        "ou",
        "n"
      ],
      [
        "Ġh",
        "as"
      ],
      [
        "o",
        "c"
      ],
      [
        "ro",
        "m"
      ],
      [
        "as",
        "t"
      ],
      [
        "u",
        "g"
      ],
      [
        "Ġ",
        "2"
      ],
      [
        "k",
        "s"
      ],
      [
        "us",
        "t"
      ],
      [
        "igh",
        "t"
      ],
      [
        "Ġe",
        "x"
      ],
      [
        "al",
        "l"
      ],
      [
        "Ġh",
        "is"
      ],
      [
        "e",
        "e"
      ],
      [
        "he",
        "n"
      ],
      [
        "i",
        "f"
      ],
      [
        "Ġp",
        "l"
      ],
      [
        "Ġs",
        "p"
      ],
      [
        "Ġa",
        "f"
      ],
      [
        "Ġn",
        "ew"
      ],
      [
        "Ġf",
        "rom"
      ],
      [
        "ou",
        "r"
      ],
      [
        "i",
        "an"
      ],
      [
        "Ġw",
        "as"
      ],
      [
        "o",
        "o"
      ],
      [
        "es",
        "day"
      ],
      [
        "i",
        "al"
      ],
      [
        "or",
        "t"
      ],
      [
        "Ġof",
        "f"
      ],
      [
        "Ġ",
        "en"
      ],
      [
        "es",
        "s"
      ],
      [
        "at",
        "e"
      ],
      [
        "c",
        "t"
      ],
      [
        "is",
        "t"
      ],
      [
        "i",
        "es"
      ],
      [
        "i",
        "a"
      ],
      [
        "Ġa",
        "g"
      ],
      [
        "it",
        "y"
      ],
      [
        "a",
        "ve"
      ],
      [
        "i",
        "p"
      ],
      [
        "o",
        "st"
      ],
      [
        "ar",
        "t"
      ],
      [
        "ac",
        "k"
      ],
      [
        "Ġin",
        "c"
      ],
      [
        "r",
        "a"
      ],
      [
        "Ġm",
        "on"
      ],
      [
        "u",
        "m"
      ],
      [
        "Ġw",
        "ill"
      ],
      [
        "a",
        "re"
      ],
      [
        "ol",
        "d"
      ],
      [
        "r",
        "ic"
      ],
      [
        "u",
        "d"
      ],
      [
        "e",
        "m"
      ],
      [
        "Ġw",
        "or"
      ],
      [
        "Ġre",
        "uters"
      ],
      [
        "Ġaf",
        "ter"
      ],
      [
        "Ġ",
        "ro"
      ],
      [
        "Ġc",
        "l"
      ],
      [
        "Ġo",
        "ly"
      ],
      [
        "Ġoly",
        "mp"
      ],
      [
        "in",
        "e"
      ],
      [
        "r",
        "y"
      ],
      [
        "er",
        "e"
      ],
      [
        "Ġf",
        "r"
      ],
      [
        "Ġolymp",
        "ic"
      ],
      [
        "o",
        "f"
      ],
      [
        "ar",
        "d"
      ],
      [
        "Ġo",
        "ver"
      ],
      [
        "p",
        "p"
      ],
      [
        "Ġa",
        "c"
      ],
      [
        "i",
        "ve"
      ],
      [
        "ec",
        "t"
      ],
      [
        "i",
        "v"
      ],
      [
        "u",
        "b"
      ],
      [
        "a",
        "b"
      ],
      [
        "Ġa",
        "re"
      ],
      [
        "Ġf",
        "ir"
      ],
      [
        "Ġh",
        "ave"
      ],
      [
        "Ġ",
        "up"
      ],
      [
        "ou",
        "ld"
      ],
      [
        "m",
        "er"
      ],
      [
        "Ġs",
        "ec"
      ],
      [
        "Ġre",
        "s"
      ],
      [
        "Ġm",
        "ar"
      ],
      [
        "t",
        "he"
      ],
      [
        "el",
        "l"
      ],
      [
        "an",
        "y"
      ],
      [
        "Ġre",
        "p"
      ],
      [
        "Ġs",
        "e"
      ],
      [
        "an",
        "s"
      ],
      [
        "Ġt",
        "w"
      ],
      [
        "Ġa",
        "b"
      ],
      [
        "hen",
        "s"
      ],
      [
        "Ġthe",
        "ir"
      ],
      [
        "on",
        "d"
      ],
      [
        "on",
        "g"
      ],
      [
        "Ġt",
        "e"
      ],
      [
        "en",
        "d"
      ],
      [
        "n",
        "ing"
      ],
      [
        "ar",
        "g"
      ],
      [
        "or",
        "k"
      ],
      [
        "t",
        "o"
      ],
      [
        "ic",
        "e"
      ],
      [
        "Ġf",
        "in"
      ],
      [
        "Ġb",
        "ut"
      ],
      [
        "Ġg",
        "o"
      ],
      [
        "Ġex",
        "p"
      ],
      [
        "Ġin",
        "ter"
      ],
      [
        "Ġo",
        "ut"
      ],
      [
        "ur",
        "s"
      ],
      [
        "th",
        "er"
      ],
      [
        "or",
        "d"
      ],
      [
        "om",
        "e"
      ],
      [
        "Ġy",
        "ear"
      ],
      [
        "Ġt",
        "r"
      ],
      [
        "ou",
        "t"
      ],
      [
        "re",
        "e"
      ],
      [
        "Ġ",
        "qu"
      ],
      [
        "en",
        "s"
      ],
      [
        "Ġfir",
        "st"
      ],
      [
        "ion",
        "s"
      ],
      [
        "Ġs",
        "er"
      ],
      [
        "Ġm",
        "ed"
      ],
      [
        "an",
        "t"
      ],
      [
        "a",
        "f"
      ],
      [
        "ic",
        "k"
      ],
      [
        "Ġg",
        "ro"
      ],
      [
        "Ġ",
        "ir"
      ],
      [
        "a",
        "q"
      ],
      [
        "im",
        "e"
      ],
      [
        "i",
        "re"
      ],
      [
        "ac",
        "e"
      ],
      [
        "urs",
        "day"
      ],
      [
        "un",
        "d"
      ],
      [
        "Ġp",
        "er"
      ],
      [
        "Ġth",
        "ursday"
      ],
      [
        "Ġw",
        "in"
      ],
      [
        "Ġp",
        "res"
      ],
      [
        "id",
        "ay"
      ],
      [
        "Ġa",
        "r"
      ],
      [
        "Ġm",
        "ore"
      ],
      [
        "Ġm",
        "o"
      ],
      [
        "Ġa",
        "d"
      ],
      [
        "he",
        "d"
      ],
      [
        "or",
        "s"
      ],
      [
        "Ġo",
        "r"
      ],
      [
        "i",
        "le"
      ],
      [
        "o",
        "us"
      ],
      [
        "Ġtw",
        "o"
      ],
      [
        "Ġt",
        "u"
      ],
      [
        "Ġs",
        "c"
      ],
      [
        "ic",
        "h"
      ],
      [
        "Ġn",
        "e"
      ],
      [
        "Ġtu",
        "esday"
      ],
      [
        "ill",
        "ion"
      ],
      [
        "Ġw",
        "ee"
      ],
      [
        "Ġre",
        "c"
      ],
      [
        "u",
        "re"
      ],
      [
        "Ġfr",
        "iday"
      ],
      [
        "ag",
        "e"
      ],
      [
        "a",
        "il"
      ],
      [
        "g",
        "e"
      ],
      [
        "u",
        "c"
      ],
      [
        "Ġo",
        "p"
      ],
      [
        "Ġth",
        "is"
      ],
      [
        "ation",
        "s"
      ],
      [
        "ay",
        "s"
      ],
      [
        "Ġd",
        "is"
      ],
      [
        "Ġcon",
        "t"
      ],
      [
        "Ġp",
        "ric"
      ],
      [
        "of",
        "t"
      ],
      [
        "Ġa",
        "pp"
      ],
      [
        "Ġp",
        "e"
      ],
      [
        "it",
        "e"
      ],
      [
        "Ġw",
        "ed"
      ],
      [
        "id",
        "e"
      ],
      [
        "Ġir",
        "aq"
      ],
      [
        "n",
        "esday"
      ],
      [
        "Ġwed",
        "nesday"
      ],
      [
        "Ġb",
        "r"
      ],
      [
        "k",
        "e"
      ],
      [
        "Ġmon",
        "day"
      ],
      [
        "Ġcomp",
        "any"
      ],
      [
        "re",
        "uters"
      ],
      [
        "Ġn",
        "ot"
      ],
      [
        "at",
        "es"
      ],
      [
        "Ġac",
        "c"
      ],
      [
        "v",
        "est"
      ],
      [
        "an",
        "c"
      ],
      [
        "ig",
        "n"
      ],
      [
        "Ġc",
        "r"
      ],
      [
        "is",
        "h"
      ],
      [
        "Ġy",
        "ork"
      ],
      [
        "a",
        "v"
      ],
      [
        "id",
        "ent"
      ],
      [
        "Ġb",
        "l"
      ],
      [
        "am",
        "e"
      ],
      [
        "l",
        "ic"
      ],
      [
        "k",
        "et"
      ],
      [
        "Ġin",
        "d"
      ],
      [
        "Ġth",
        "an"
      ],
      [
        "Ġon",
        "e"
      ],
      [
        "Ġwor",
        "ld"
      ],
      [
        "t",
        "ing"
      ],
      [
        "u",
        "e"
      ],
      [
        "it",
        "ed"
      ],
      [
        "i",
        "e"
      ],
      [
        "Ġm",
        "in"
      ],
      [
        "ul",
        "l"
      ],
      [
        "t",
        "or"
      ],
      [
        "Ġc",
        "or"
      ],
      [
        "s",
        "e"
      ],
      [
        "a",
        "j"
      ],
      [
        "d",
        "er"
      ],
      [
        "es",
        "ter"
      ],
      [
        "ow",
        "n"
      ],
      [
        "Ġinter",
        "n"
      ],
      [
        "Ġal",
        "l"
      ],
      [
        "Ġg",
        "re"
      ],
      [
        "h",
        "n"
      ],
      [
        "at",
        "ed"
      ],
      [
        "ation",
        "al"
      ],
      [
        "t",
        "on"
      ],
      [
        "Ġo",
        "il"
      ],
      [
        "am",
        "p"
      ],
      [
        "Ġ",
        "im"
      ],
      [
        "on",
        "e"
      ],
      [
        "Ġ2",
        "00"
      ],
      [
        "n",
        "ew"
      ],
      [
        "Ġc",
        "o"
      ],
      [
        "as",
        "s"
      ],
      [
        "at",
        "hens"
      ],
      [
        "Ġthe",
        "y"
      ],
      [
        "i",
        "b"
      ],
      [
        "as",
        "e"
      ],
      [
        "Ġh",
        "igh"
      ],
      [
        "Ġl",
        "ast"
      ],
      [
        "o",
        "g"
      ],
      [
        "Ġwee",
        "k"
      ],
      [
        "Ġg",
        "old"
      ],
      [
        "Ġwh",
        "o"
      ],
      [
        "Ġag",
        "ain"
      ],
      [
        "Ġj",
        "o"
      ],
      [
        "Ġb",
        "an"
      ],
      [
        "ot",
        "e"
      ],
      [
        "Ġab",
        "out"
      ],
      [
        "Ġw",
        "ere"
      ],
      [
        "Ġle",
        "ad"
      ],
      [
        "Ġcor",
        "p"
      ],
      [
        "ak",
        "e"
      ],
      [
        "an",
        "ce"
      ],
      [
        "Ġw",
        "e"
      ],
      [
        "et",
        "w"
      ],
      [
        "ar",
        "y"
      ],
      [
        "Ġb",
        "us"
      ],
      [
        "Ġm",
        "il"
      ],
      [
        "ear",
        "ch"
      ],
      [
        "Ġa",
        "ir"
      ],
      [
        "al",
        "s"
      ],
      [
        "i",
        "z"
      ],
      [
        "Ġin",
        "to"
      ],
      [
        "oun",
        "t"
      ],
      [
        "ro",
        "s"
      ],
      [
        "c",
        "om"
      ],
      [
        "ad",
        "e"
      ],
      [
        "Ġm",
        "an"
      ],
      [
        "ver",
        "s"
      ],
      [
        "Ġoff",
        "ic"
      ],
      [
        "ver",
        "n"
      ],
      [
        "en",
        "ce"
      ],
      [
        "Ġ",
        "4"
      ],
      [
        "a",
        "w"
      ],
      [
        "it",
        "ion"
      ],
      [
        "x",
        "t"
      ],
      [
        "f",
        "or"
      ],
      [
        "Ġgo",
        "vern"
      ],
      [
        "Ġe",
        "ar"
      ],
      [
        "ac",
        "h"
      ],
      [
        "b",
        "er"
      ],
      [
        "Ġb",
        "o"
      ],
      [
        "Ġs",
        "un"
      ],
      [
        "Ġy",
        "ester"
      ],
      [
        "Ġf",
        "l"
      ],
      [
        "Ġyester",
        "day"
      ],
      [
        "as",
        "h"
      ],
      [
        "Ġpric",
        "es"
      ],
      [
        "Ġh",
        "ad"
      ],
      [
        "Ġs",
        "at"
      ],
      [
        "Ġbe",
        "en"
      ],
      [
        "Ġte",
        "am"
      ],
      [
        "at",
        "h"
      ],
      [
        "Ġrep",
        "ort"
      ],
      [
        "Ġa",
        "mer"
      ],
      [
        "Ġp",
        "ol"
      ],
      [
        "Ġamer",
        "ic"
      ],
      [
        "ac",
        "t"
      ],
      [
        "Ġsec",
        "ond"
      ],
      [
        "Ġcom",
        "m"
      ],
      [
        "d",
        "s"
      ],
      [
        "v",
        "en"
      ],
      [
        "Ġp",
        "r"
      ],
      [
        "Ġat",
        "t"
      ],
      [
        "as",
        "ed"
      ],
      [
        "at",
        "ing"
      ],
      [
        "Ġgovern",
        "ment"
      ],
      [
        "Ġc",
        "an"
      ],
      [
        "ar",
        "ter"
      ],
      [
        "Ġser",
        "v"
      ],
      [
        "Ġpres",
        "ident"
      ],
      [
        "Ġoffic",
        "ial"
      ],
      [
        "e",
        "y"
      ],
      [
        "u",
        "ct"
      ],
      [
        "l",
        "o"
      ],
      [
        "Ġan",
        "n"
      ],
      [
        "h",
        "t"
      ],
      [
        "Ġa",
        "ug"
      ],
      [
        "al",
        "ly"
      ],
      [
        "le",
        "ct"
      ],
      [
        "ur",
        "n"
      ],
      [
        "Ġagain",
        "st"
      ],
      [
        "is",
        "s"
      ],
      [
        "Ġun",
        "ited"
      ],
      [
        "Ġw",
        "hen"
      ],
      [
        "l",
        "ed"
      ],
      [
        "oun",
        "d"
      ],
      [
        "Ġmed",
        "al"
      ],
      [
        "Ġre",
        "t"
      ],
      [
        "Ġen",
        "d"
      ],
      [
        "oc",
        "k"
      ],
      [
        "r",
        "al"
      ],
      [
        "v",
        "el"
      ],
      [
        "Ġin",
        "vest"
      ],
      [
        "Ġn",
        "o"
      ],
      [
        "Ġpro",
        "f"
      ],
      [
        "Ġs",
        "l"
      ],
      [
        "Ġwh",
        "ich"
      ],
      [
        "Ġre",
        "g"
      ],
      [
        "Ġmil",
        "it"
      ],
      [
        "Ġm",
        "e"
      ],
      [
        "w",
        "w"
      ],
      [
        "Ġw",
        "ould"
      ],
      [
        "Ġpe",
        "op"
      ],
      [
        "c",
        "ent"
      ],
      [
        "Ġm",
        "illion"
      ],
      [
        "Ġst",
        "r"
      ],
      [
        "Ġp",
        "re"
      ],
      [
        "Ġsun",
        "day"
      ],
      [
        "er",
        "al"
      ],
      [
        "Ġs",
        "up"
      ],
      [
        "Ġth",
        "ree"
      ],
      [
        "Ġf",
        "our"
      ],
      [
        "Ġgro",
        "up"
      ],
      [
        "Ġpl",
        "an"
      ],
      [
        "Ġs",
        "et"
      ],
      [
        "c",
        "on"
      ],
      [
        "y",
        "st"
      ],
      [
        "Ġmar",
        "ket"
      ],
      [
        "Ġcon",
        "s"
      ],
      [
        "ur",
        "day"
      ],
      [
        "Ġsat",
        "urday"
      ],
      [
        "Ġa",
        "m"
      ],
      [
        "Ġc",
        "ould"
      ],
      [
        "Ġn",
        "ight"
      ],
      [
        "m",
        "an"
      ],
      [
        "Ġb",
        "ec"
      ],
      [
        "re",
        "n"
      ],
      [
        "Ġc",
        "ount"
      ],
      [
        "t",
        "ed"
      ],
      [
        "Ġp",
        "h"
      ],
      [
        "g",
        "ed"
      ],
      [
        "am",
        "es"
      ],
      [
        "Ġb",
        "u"
      ],
      [
        "oc",
        "ks"
      ],
      [
        "Ġw",
        "ar"
      ],
      [
        "ub",
        "lic"
      ],
      [
        "Ġpeop",
        "le"
      ],
      [
        "Ġp",
        "art"
      ],
      [
        "l",
        "p"
      ],
      [
        "c",
        "ed"
      ],
      [
        "k",
        "ing"
      ],
      [
        "Ġd",
        "ec"
      ],
      [
        "Ġg",
        "oo"
      ],
      [
        "Ġpl",
        "ay"
      ],
      [
        "ic",
        "al"
      ],
      [
        "w",
        "are"
      ],
      [
        "Ġs",
        "o"
      ],
      [
        "Ġd",
        "o"
      ],
      [
        "us",
        "s"
      ],
      [
        "Ġper",
        "cent"
      ],
      [
        "Ġ",
        "5"
      ],
      [
        "ect",
        "ed"
      ],
      [
        "ro",
        "p"
      ],
      [
        "Ġyear",
        "s"
      ],
      [
        "ull",
        "qu"
      ],
      [
        "l",
        "and"
      ],
      [
        "Ġj",
        "ust"
      ],
      [
        "t",
        "le"
      ],
      [
        "c",
        "o"
      ],
      [
        "Ġt",
        "ime"
      ],
      [
        "ing",
        "ton"
      ],
      [
        "is",
        "ter"
      ],
      [
        "or",
        "ts"
      ],
      [
        "in",
        "a"
      ],
      [
        "Ġd",
        "es"
      ],
      [
        "Ġto",
        "day"
      ],
      [
        "Ġde",
        "f"
      ],
      [
        "Ġs",
        "ur"
      ],
      [
        "Ġs",
        "ou"
      ],
      [
        "Ġ",
        "6"
      ],
      [
        "ow",
        "er"
      ],
      [
        "Ġim",
        "p"
      ],
      [
        "Ġs",
        "ome"
      ],
      [
        "Ġs",
        "oft"
      ],
      [
        "el",
        "y"
      ],
      [
        "Ġs",
        "w"
      ],
      [
        "Ġsec",
        "ur"
      ],
      [
        "Ġd",
        "own"
      ],
      [
        "w",
        "n"
      ],
      [
        "Ġb",
        "ack"
      ],
      [
        "Ġst",
        "ates"
      ],
      [
        "l",
        "ine"
      ],
      [
        "Ġs",
        "al"
      ],
      [
        "ol",
        "l"
      ],
      [
        "tor",
        "y"
      ],
      [
        "Ġh",
        "er"
      ],
      [
        "in",
        "ess"
      ],
      [
        "os",
        "e"
      ],
      [
        "Ġt",
        "ec"
      ],
      [
        "Ġres",
        "earch"
      ],
      [
        "i",
        "er"
      ],
      [
        "Ġrec",
        "ord"
      ],
      [
        "Ġb",
        "ro"
      ],
      [
        "f",
        "f"
      ],
      [
        "Ġr",
        "un"
      ],
      [
        "ul",
        "t"
      ],
      [
        "Ġban",
        "k"
      ],
      [
        "Ġann",
        "oun"
      ],
      [
        "l",
        "es"
      ],
      [
        "Ġpro",
        "d"
      ],
      [
        "Ġfin",
        "al"
      ],
      [
        "v",
        "ent"
      ],
      [
        "Ġc",
        "our"
      ],
      [
        "Ġin",
        "t"
      ],
      [
        "is",
        "ts"
      ],
      [
        "ow",
        "s"
      ],
      [
        "aj",
        "af"
      ],
      [
        "Ġc",
        "ap"
      ],
      [
        "Ġmon",
        "th"
      ],
      [
        "it",
        "al"
      ],
      [
        "Ġm",
        "ak"
      ],
      [
        "us",
        "e"
      ],
      [
        "Ġk",
        "ill"
      ],
      [
        "ug",
        "h"
      ],
      [
        "in",
        "es"
      ],
      [
        "Ġc",
        "ity"
      ],
      [
        "Ġde",
        "m"
      ],
      [
        "ab",
        "le"
      ],
      [
        "m",
        "s"
      ],
      [
        "Ġmin",
        "ister"
      ],
      [
        "b",
        "all"
      ],
      [
        "g",
        "h"
      ],
      [
        "g",
        "er"
      ],
      [
        "Ġintern",
        "et"
      ],
      [
        "it",
        "ies"
      ],
      [
        "Ġat",
        "hens"
      ],
      [
        "os",
        "s"
      ],
      [
        "o",
        "k"
      ],
      [
        "Ġolympic",
        "s"
      ],
      [
        "Ġbus",
        "iness"
      ],
      [
        "Ġsoft",
        "ware"
      ],
      [
        "yst",
        "em"
      ],
      [
        "Ġb",
        "ig"
      ],
      [
        "Ġd",
        "ay"
      ],
      [
        "Ġg",
        "ames"
      ],
      [
        "Ġoff",
        "er"
      ],
      [
        "i",
        "x"
      ],
      [
        "Ġt",
        "er"
      ],
      [
        "it",
        "s"
      ],
      [
        "ol",
        "og"
      ],
      [
        "Ġc",
        "ar"
      ],
      [
        "ust",
        "ral"
      ],
      [
        "Ġw",
        "on"
      ],
      [
        "e",
        "p"
      ],
      [
        "ic",
        "s"
      ],
      [
        "Ġm",
        "ay"
      ],
      [
        "is",
        "e"
      ],
      [
        "Ġas",
        "s"
      ],
      [
        "ir",
        "d"
      ],
      [
        "Ġd",
        "r"
      ],
      [
        "Ġe",
        "lect"
      ],
      [
        "Ġqu",
        "arter"
      ],
      [
        "f",
        "t"
      ],
      [
        "ic",
        "ros"
      ],
      [
        "u",
        "al"
      ],
      [
        "v",
        "ed"
      ],
      [
        "Ġhe",
        "lp"
      ],
      [
        "Ġl",
        "ong"
      ],
      [
        "Ġl",
        "i"
      ],
      [
        "Ġe",
        "con"
      ],
      [
        "Ġecon",
        "om"
      ],
      [
        "ullqu",
        "ote"
      ],
      [
        "Ġv",
        "ic"
      ],
      [
        "Ġs",
        "ystem"
      ],
      [
        "Ġsup",
        "p"
      ],
      [
        "o",
        "d"
      ],
      [
        "u",
        "ch"
      ],
      [
        "Ġm",
        "us"
      ],
      [
        "as",
        "on"
      ],
      [
        "Ġf",
        "ed"
      ],
      [
        "ap",
        "p"
      ],
      [
        "Ġcount",
        "ry"
      ],
      [
        "i",
        "ed"
      ],
      [
        "Ġofficial",
        "s"
      ],
      [
        "i",
        "ous"
      ],
      [
        "Ġne",
        "xt"
      ],
      [
        "Ġc",
        "ol"
      ],
      [
        "at",
        "er"
      ],
      [
        "Ġcon",
        "f"
      ],
      [
        "Ġo",
        "ther"
      ],
      [
        "g",
        "r"
      ],
      [
        "l",
        "ing"
      ],
      [
        "et",
        "s"
      ],
      [
        "Ġ",
        "7"
      ],
      [
        "ec",
        "e"
      ],
      [
        "Ġtec",
        "hn"
      ],
      [
        "Ġameric",
        "an"
      ],
      [
        "Ġg",
        "r"
      ],
      [
        "k",
        "ed"
      ],
      [
        "b",
        "s"
      ],
      [
        "Ġs",
        "he"
      ],
      [
        "g",
        "le"
      ],
      [
        "icros",
        "oft"
      ],
      [
        "Ġw",
        "om"
      ],
      [
        "Ġre",
        "le"
      ],
      [
        "Ġn",
        "or"
      ],
      [
        "Ġn",
        "etw"
      ],
      [
        "t",
        "p"
      ],
      [
        "Ġ",
        "8"
      ],
      [
        "Ġm",
        "ost"
      ],
      [
        "Ġst",
        "ate"
      ],
      [
        "Ġserv",
        "ice"
      ],
      [
        "Ġt",
        "arg"
      ],
      [
        "Ġsecur",
        "ity"
      ],
      [
        "p",
        "h"
      ],
      [
        "ing",
        "s"
      ],
      [
        "Ġg",
        "u"
      ],
      [
        "Ġl",
        "arg"
      ],
      [
        "and",
        "s"
      ],
      [
        "m",
        "ed"
      ],
      [
        "el",
        "s"
      ],
      [
        "en",
        "c"
      ],
      [
        "a",
        "ir"
      ],
      [
        "Ġs",
        "ay"
      ],
      [
        "Ġto",
        "p"
      ],
      [
        "Ġn",
        "ational"
      ],
      [
        "ur",
        "ing"
      ],
      [
        "a",
        "z"
      ],
      [
        "i",
        "ent"
      ],
      [
        "Ġt",
        "ri"
      ],
      [
        "an",
        "ge"
      ],
      [
        "Ġun",
        "der"
      ],
      [
        "n",
        "ed"
      ],
      [
        "Ġre",
        "l"
      ],
      [
        "Ġch",
        "amp"
      ],
      [
        "Ġn",
        "ear"
      ],
      [
        "ment",
        "s"
      ],
      [
        "Ġop",
        "en"
      ],
      [
        "Ġde",
        "p"
      ],
      [
        "Ġcour",
        "t"
      ],
      [
        "he",
        "s"
      ],
      [
        "Ġreport",
        "ed"
      ],
      [
        "oo",
        "d"
      ],
      [
        "Ġb",
        "illion"
      ],
      [
        "Ġ1",
        "5"
      ],
      [
        "Ġal",
        "s"
      ],
      [
        "Ġp",
        "o"
      ],
      [
        "Ġp",
        "ublic"
      ],
      [
        "Ġth",
        "ro"
      ],
      [
        "ec",
        "ut"
      ],
      [
        "Ġv",
        "i"
      ],
      [
        "Ġc",
        "all"
      ],
      [
        "Ġgre",
        "ece"
      ],
      [
        "ord",
        "ing"
      ],
      [
        "Ġop",
        "er"
      ],
      [
        "Ġ1",
        "9"
      ],
      [
        "Ġen",
        "g"
      ],
      [
        "Ġgro",
        "w"
      ],
      [
        "b",
        "le"
      ],
      [
        "Ġh",
        "ome"
      ],
      [
        "Ġy",
        "ou"
      ],
      [
        "Ġannoun",
        "ced"
      ],
      [
        "l",
        "ud"
      ],
      [
        "g",
        "est"
      ],
      [
        "le",
        "y"
      ],
      [
        "Ġsh",
        "ow"
      ],
      [
        "Ġsal",
        "es"
      ],
      [
        "a",
        "res"
      ],
      [
        "f",
        "ore"
      ],
      [
        "Ġa",
        "ustral"
      ],
      [
        "Ġtarg",
        "et"
      ],
      [
        "Ġg",
        "ian"
      ],
      [
        "Ġnew",
        "s"
      ],
      [
        "Ġr",
        "uss"
      ],
      [
        "Ġacc",
        "ording"
      ],
      [
        "Ġintern",
        "ational"
      ],
      [
        "on",
        "s"
      ],
      [
        "ic",
        "es"
      ],
      [
        "Ġ1",
        "0"
      ],
      [
        "Ġs",
        "ays"
      ],
      [
        "Ġe",
        "u"
      ],
      [
        "a",
        "h"
      ],
      [
        "Ġ",
        "x"
      ],
      [
        "Ġh",
        "ol"
      ],
      [
        "Ġre",
        "b"
      ],
      [
        "y",
        "ear"
      ],
      [
        "Ġst",
        "art"
      ],
      [
        "vel",
        "op"
      ],
      [
        "Ġbr",
        "it"
      ],
      [
        "for",
        "m"
      ],
      [
        "Ġbe",
        "fore"
      ],
      [
        "in",
        "t"
      ],
      [
        "an",
        "g"
      ],
      [
        "at",
        "ch"
      ],
      [
        "Ġg",
        "en"
      ],
      [
        "Ġjo",
        "hn"
      ],
      [
        "Ġs",
        "ee"
      ],
      [
        "Ġe",
        "m"
      ],
      [
        "p",
        "t"
      ],
      [
        "Ġc",
        "ent"
      ],
      [
        "Ġm",
        "aj"
      ],
      [
        "is",
        "ion"
      ],
      [
        "res",
        "s"
      ],
      [
        "er",
        "ic"
      ],
      [
        "Ġc",
        "ost"
      ],
      [
        "Ġh",
        "im"
      ],
      [
        "Ġf",
        "ore"
      ],
      [
        "il",
        "d"
      ],
      [
        "Ġvic",
        "tory"
      ],
      [
        "r",
        "or"
      ],
      [
        "Ġc",
        "re"
      ],
      [
        "Ġm",
        "en"
      ],
      [
        "Ġth",
        "re"
      ],
      [
        "c",
        "ess"
      ],
      [
        "Ġn",
        "ajaf"
      ],
      [
        "Ġwh",
        "at"
      ],
      [
        "6",
        "6"
      ],
      [
        "Ġthe",
        "m"
      ],
      [
        "ist",
        "an"
      ],
      [
        "Ġd",
        "el"
      ],
      [
        "Ġst",
        "re"
      ],
      [
        "Ġj",
        "u"
      ],
      [
        "b",
        "r"
      ],
      [
        "le",
        "t"
      ],
      [
        "u",
        "res"
      ],
      [
        "Ġmaj",
        "or"
      ],
      [
        "b",
        "e"
      ],
      [
        "h",
        "ip"
      ],
      [
        "Ġ",
        "if"
      ],
      [
        "Ġth",
        "ird"
      ],
      [
        "Ġde",
        "velop"
      ],
      [
        "Ġfed",
        "eral"
      ],
      [
        "Ġtechn",
        "olog"
      ],
      [
        "Ġthro",
        "ugh"
      ],
      [
        "i",
        "o"
      ],
      [
        "Ġt",
        "al"
      ],
      [
        "in",
        "ce"
      ],
      [
        "Ġs",
        "m"
      ],
      [
        "Ġp",
        "ost"
      ],
      [
        "Ġg",
        "et"
      ],
      [
        "Ġpl",
        "ans"
      ],
      [
        "i",
        "el"
      ],
      [
        "u",
        "ter"
      ],
      [
        "w",
        "in"
      ],
      [
        "Ġp",
        "ar"
      ],
      [
        "Ġwin",
        "d"
      ],
      [
        "a",
        "use"
      ],
      [
        "Ġc",
        "he"
      ],
      [
        "Ġb",
        "as"
      ],
      [
        "Ġwh",
        "ile"
      ],
      [
        "Ġinc",
        "lud"
      ],
      [
        "an",
        "ts"
      ],
      [
        "oo",
        "k"
      ],
      [
        "af",
        "p"
      ],
      [
        "ick",
        "er"
      ],
      [
        "Ġb",
        "el"
      ],
      [
        "Ġm",
        "ade"
      ],
      [
        "ver",
        "y"
      ],
      [
        "l",
        "ess"
      ],
      [
        "Ġs",
        "ign"
      ],
      [
        "c",
        "hed"
      ],
      [
        "u",
        "k"
      ],
      [
        "Ġp",
        "a"
      ],
      [
        "Ġin",
        "f"
      ],
      [
        "Ġh",
        "om"
      ],
      [
        "Ġg",
        "ame"
      ],
      [
        "Ġpro",
        "v"
      ],
      [
        "ee",
        "p"
      ],
      [
        "at",
        "or"
      ],
      [
        "Ġh",
        "it"
      ],
      [
        "Ġl",
        "a"
      ],
      [
        "Ġb",
        "ar"
      ],
      [
        "Ġan",
        "t"
      ],
      [
        "am",
        "s"
      ],
      [
        "e",
        "en"
      ],
      [
        "Ġf",
        "e"
      ],
      [
        "Ġre",
        "m"
      ],
      [
        "en",
        "e"
      ],
      [
        "in",
        "f"
      ],
      [
        "on",
        "t"
      ],
      [
        "Ġin",
        "s"
      ],
      [
        "ro",
        "und"
      ],
      [
        "Ġl",
        "aw"
      ],
      [
        "al",
        "if"
      ],
      [
        "is",
        "ing"
      ],
      [
        "st",
        "r"
      ],
      [
        "Ġpro",
        "t"
      ],
      [
        "Ġ1",
        "00"
      ],
      [
        "Ġ200",
        "4"
      ],
      [
        "Ġsou",
        "th"
      ],
      [
        "or",
        "n"
      ],
      [
        "Ġst",
        "ock"
      ],
      [
        "c",
        "er"
      ],
      [
        "Ġt",
        "ro"
      ],
      [
        "Ġbe",
        "g"
      ],
      [
        "Ġa",
        "p"
      ],
      [
        "Ġch",
        "arg"
      ],
      [
        "Ġ",
        "i"
      ],
      [
        "Ġde",
        "al"
      ],
      [
        "Ġpr",
        "ime"
      ],
      [
        "ht",
        "tp"
      ],
      [
        "c",
        "es"
      ],
      [
        "Ġa",
        "ut"
      ],
      [
        "Ġc",
        "ut"
      ],
      [
        "Ġwor",
        "k"
      ],
      [
        "Ġgoo",
        "gle"
      ],
      [
        "w",
        "ash"
      ],
      [
        "k",
        "y"
      ],
      [
        "Ġhe",
        "ad"
      ],
      [
        "re",
        "f"
      ],
      [
        "Ġh",
        "ref"
      ],
      [
        "http",
        "ww"
      ],
      [
        "n",
        "t"
      ],
      [
        "Ġ",
        "ed"
      ],
      [
        "Ġb",
        "at"
      ],
      [
        "w",
        "ard"
      ],
      [
        "Ġh",
        "ur"
      ],
      [
        "Ġcomp",
        "et"
      ],
      [
        "Ġhref",
        "httpww"
      ],
      [
        "n",
        "er"
      ],
      [
        "Ġt",
        "ake"
      ],
      [
        "Ġf",
        "il"
      ],
      [
        "etw",
        "een"
      ],
      [
        "y",
        "s"
      ],
      [
        "Ġa",
        "ct"
      ],
      [
        "Ġb",
        "etween"
      ],
      [
        "Ġcomp",
        "uter"
      ],
      [
        "Ġb",
        "re"
      ],
      [
        "us",
        "ed"
      ],
      [
        "Ġj",
        "ap"
      ],
      [
        "Ġsh",
        "i"
      ],
      [
        "Ġprof",
        "it"
      ],
      [
        "wash",
        "ington"
      ],
      [
        "a",
        "im"
      ],
      [
        "Ġch",
        "ina"
      ],
      [
        "Ġm",
        "iss"
      ],
      [
        "Ġsh",
        "ares"
      ],
      [
        "u",
        "el"
      ],
      [
        "Ġt",
        "a"
      ],
      [
        "an",
        "e"
      ],
      [
        "ain",
        "s"
      ],
      [
        "Ġcomp",
        "an"
      ],
      [
        "in",
        "s"
      ],
      [
        "in",
        "u"
      ],
      [
        "as",
        "p"
      ],
      [
        "ad",
        "a"
      ],
      [
        "Ġle",
        "ast"
      ],
      [
        "Ġw",
        "ay"
      ],
      [
        "Ġwe",
        "b"
      ],
      [
        "Ġwind",
        "ows"
      ],
      [
        "Ġst",
        "ri"
      ],
      [
        "Ġte",
        "le"
      ],
      [
        "Ġind",
        "ust"
      ],
      [
        "Ġf",
        "ound"
      ],
      [
        "Ġm",
        "icrosoft"
      ],
      [
        "Ġter",
        "ror"
      ],
      [
        "Ġcompan",
        "ies"
      ],
      [
        "Ġin",
        "it"
      ],
      [
        "Ġre",
        "f"
      ],
      [
        "Ġex",
        "t"
      ],
      [
        "Ġtr",
        "ad"
      ],
      [
        "Ġre",
        "d"
      ],
      [
        "st",
        "ocks"
      ],
      [
        "Ġpres",
        "s"
      ],
      [
        "m",
        "e"
      ],
      [
        "Ġh",
        "ow"
      ],
      [
        "Ġ",
        "ip"
      ],
      [
        "Ġo",
        "pp"
      ],
      [
        "Ġp",
        "ay"
      ],
      [
        "Ġiraq",
        "i"
      ],
      [
        "Ġbu",
        "y"
      ],
      [
        "w",
        "ay"
      ],
      [
        "Ġm",
        "ake"
      ],
      [
        "Ġn",
        "ow"
      ],
      [
        "qu",
        "ick"
      ],
      [
        "us",
        "p"
      ],
      [
        "ra",
        "el"
      ],
      [
        "m",
        "in"
      ],
      [
        "end",
        "ing"
      ],
      [
        "v",
        "es"
      ],
      [
        "Ġe",
        "ven"
      ],
      [
        "vest",
        "or"
      ],
      [
        "Ġpol",
        "ice"
      ],
      [
        "Ġmus",
        "ic"
      ],
      [
        "f",
        "ullquote"
      ],
      [
        "o",
        "ther"
      ],
      [
        "s",
        "u"
      ],
      [
        "Ġp",
        "ower"
      ],
      [
        "le",
        "g"
      ],
      [
        "Ġinc",
        "re"
      ],
      [
        "reuters",
        "com"
      ],
      [
        "Ġtarget",
        "stocks"
      ],
      [
        "win",
        "vestor"
      ],
      [
        "inf",
        "of"
      ],
      [
        "Ġhrefhttpww",
        "winvestor"
      ],
      [
        "asp",
        "xt"
      ],
      [
        "quick",
        "infof"
      ],
      [
        "fullquote",
        "aspxt"
      ],
      [
        "reuterscom",
        "fullquoteaspxt"
      ],
      [
        "Ġtargetstocks",
        "quickinfof"
      ],
      [
        "Ġhrefhttpwwwinvestor",
        "reuterscomfullquoteaspxt"
      ],
      [
        "n",
        "a"
      ],
      [
        "Ġon",
        "ly"
      ],
      [
        "Ġlarg",
        "est"
      ],
      [
        "Ġtechnolog",
        "y"
      ],
      [
        "er",
        "t"
      ],
      [
        "Ġan",
        "g"
      ],
      [
        "ar",
        "ing"
      ],
      [
        "Ġbe",
        "ing"
      ],
      [
        "Ġbec",
        "ause"
      ],
      [
        "Ġe",
        "l"
      ],
      [
        "Ġs",
        "ince"
      ],
      [
        "re",
        "ed"
      ],
      [
        "Ġan",
        "other"
      ],
      [
        "Ġkill",
        "ed"
      ],
      [
        "Ġgian",
        "t"
      ],
      [
        "Ġf",
        "ac"
      ],
      [
        "Ġh",
        "op"
      ],
      [
        "ou",
        "gh"
      ],
      [
        "Ġad",
        "v"
      ],
      [
        "f",
        "ul"
      ],
      [
        "y",
        "m"
      ],
      [
        "Ġt",
        "est"
      ],
      [
        "Ġs",
        "ix"
      ],
      [
        "Ġh",
        "al"
      ],
      [
        "ak",
        "ing"
      ],
      [
        "ond",
        "on"
      ],
      [
        "ning",
        "s"
      ],
      [
        "Ġhigh",
        "er"
      ],
      [
        "ro",
        "l"
      ],
      [
        "Ġr",
        "ad"
      ],
      [
        "Ġcl",
        "aim"
      ],
      [
        "Ġo",
        "wn"
      ],
      [
        "at",
        "est"
      ],
      [
        "Ġh",
        "old"
      ],
      [
        "Ġfor",
        "mer"
      ],
      [
        "Ġinvest",
        "ors"
      ],
      [
        "Ġgrow",
        "th"
      ],
      [
        "Ġh",
        "am"
      ],
      [
        "Ġon",
        "line"
      ],
      [
        "Ġst",
        "ocks"
      ],
      [
        "Ġnetw",
        "ork"
      ],
      [
        "ent",
        "s"
      ],
      [
        "Ġk",
        "n"
      ],
      [
        "Ġhrefhttpwwwinvestorreuterscomfullquoteaspxt",
        "icker"
      ],
      [
        "Ġs",
        "usp"
      ],
      [
        "Ġd",
        "ou"
      ],
      [
        "ac",
        "ks"
      ],
      [
        "Ġ2",
        "0"
      ],
      [
        "are",
        "d"
      ],
      [
        "on",
        "es"
      ],
      [
        "re",
        "st"
      ],
      [
        "Ġbus",
        "h"
      ],
      [
        "Ġeu",
        "rop"
      ],
      [
        "es",
        "e"
      ],
      [
        "Ġf",
        "ive"
      ],
      [
        "Ġst",
        "ar"
      ],
      [
        "Ġr",
        "ul"
      ],
      [
        "Ġret",
        "ail"
      ],
      [
        "Ġcons",
        "um"
      ],
      [
        "Ġoffer",
        "ing"
      ],
      [
        "at",
        "ors"
      ],
      [
        "Ġd",
        "at"
      ],
      [
        "Ġdr",
        "ug"
      ],
      [
        "er",
        "ed"
      ],
      [
        "ro",
        "w"
      ],
      [
        "in",
        "d"
      ],
      [
        "is",
        "co"
      ],
      [
        "Ġse",
        "ason"
      ],
      [
        "Ġbig",
        "gest"
      ],
      [
        "l",
        "os"
      ],
      [
        "Ġan",
        "y"
      ],
      [
        "Ġd",
        "ays"
      ],
      [
        "iv",
        "es"
      ],
      [
        "Ġmilit",
        "ary"
      ],
      [
        "b",
        "y"
      ],
      [
        "Ġs",
        "ub"
      ],
      [
        "Ġs",
        "earch"
      ],
      [
        "Ġcl",
        "eric"
      ],
      [
        "Ġjap",
        "an"
      ],
      [
        "l",
        "in"
      ],
      [
        "Ġ1",
        "8"
      ],
      [
        "ther",
        "n"
      ],
      [
        "at",
        "ic"
      ],
      [
        "Ġis",
        "rael"
      ],
      [
        "Ġprod",
        "uc"
      ],
      [
        "Ġ",
        "9"
      ],
      [
        "Ġro",
        "se"
      ],
      [
        "Ġf",
        "ell"
      ],
      [
        "Ġd",
        "uring"
      ],
      [
        "ure",
        "d"
      ],
      [
        "Ġreg",
        "ion"
      ],
      [
        "Ġwom",
        "en"
      ],
      [
        "i",
        "vers"
      ],
      [
        "Ġl",
        "o"
      ],
      [
        "ag",
        "ue"
      ],
      [
        "ud",
        "e"
      ],
      [
        "b",
        "ile"
      ],
      [
        "Ġb",
        "oo"
      ],
      [
        "Ġag",
        "reed"
      ],
      [
        "Ġinclud",
        "ing"
      ],
      [
        "p",
        "l"
      ],
      [
        "Ġs",
        "u"
      ],
      [
        "Ġth",
        "ere"
      ],
      [
        "ur",
        "y"
      ],
      [
        "Ġ1",
        "2"
      ],
      [
        "ag",
        "o"
      ],
      [
        "Ġlead",
        "er"
      ],
      [
        "Ġshi",
        "ite"
      ],
      [
        "r",
        "up"
      ],
      [
        "Ġa",
        "v"
      ],
      [
        "Ġpro",
        "p"
      ],
      [
        "Ġcl",
        "os"
      ],
      [
        "Ġwee",
        "ks"
      ],
      [
        "ros",
        "s"
      ],
      [
        "r",
        "on"
      ],
      [
        "z",
        "e"
      ],
      [
        "Ġle",
        "g"
      ],
      [
        "iel",
        "d"
      ],
      [
        "or",
        "ks"
      ],
      [
        "al",
        "th"
      ],
      [
        "Ġst",
        "ill"
      ],
      [
        "Ġen",
        "ter"
      ],
      [
        "Ġfin",
        "anc"
      ],
      [
        "b",
        "ut"
      ],
      [
        "ow",
        "ing"
      ],
      [
        "Ġeurop",
        "e"
      ],
      [
        "i",
        "um"
      ],
      [
        "Ġc",
        "ust"
      ],
      [
        "am",
        "ent"
      ],
      [
        "uct",
        "ion"
      ],
      [
        "Ġreg",
        "ul"
      ],
      [
        "Ġs",
        "ch"
      ],
      [
        "Ġc",
        "amp"
      ],
      [
        "Ġf",
        "ight"
      ],
      [
        "Ġst",
        "ud"
      ],
      [
        "Ġpric",
        "e"
      ],
      [
        "Ġear",
        "ly"
      ],
      [
        "a",
        "el"
      ],
      [
        "Ġb",
        "om"
      ],
      [
        "Ġexp",
        "ected"
      ],
      [
        "Ġw",
        "r"
      ],
      [
        "Ġr",
        "a"
      ],
      [
        "Ġac",
        "qu"
      ],
      [
        "Ġaug",
        "ust"
      ],
      [
        "Ġmak",
        "er"
      ],
      [
        "Ġinit",
        "ial"
      ],
      [
        "o",
        "ot"
      ],
      [
        "Ġm",
        "any"
      ],
      [
        "Ġst",
        "and"
      ],
      [
        "ad",
        "r"
      ],
      [
        "Ġstr",
        "ong"
      ],
      [
        "Ġindust",
        "ry"
      ],
      [
        "g",
        "y"
      ],
      [
        "n",
        "ey"
      ],
      [
        "Ġp",
        "ut"
      ],
      [
        "ic",
        "ago"
      ],
      [
        "il",
        "ity"
      ],
      [
        "Ġe",
        "qu"
      ],
      [
        "Ġsh",
        "ar"
      ],
      [
        "iss",
        "ion"
      ],
      [
        "Ġruss",
        "ian"
      ],
      [
        "Ġla",
        "un"
      ],
      [
        "b",
        "ers"
      ],
      [
        "it",
        "ing"
      ],
      [
        "Ġp",
        "at"
      ],
      [
        "Ġl",
        "atest"
      ],
      [
        "Ġsh",
        "are"
      ],
      [
        "Ġsp",
        "r"
      ],
      [
        "ie",
        "f"
      ],
      [
        "s",
        "p"
      ],
      [
        "ain",
        "ed"
      ],
      [
        "Ġe",
        "vent"
      ],
      [
        "Ġj",
        "ud"
      ],
      [
        "Ġle",
        "ft"
      ],
      [
        "Ġatt",
        "ack"
      ],
      [
        "Ġto",
        "ok"
      ],
      [
        "Ġn",
        "um"
      ],
      [
        "op",
        "s"
      ],
      [
        "Ġle",
        "ague"
      ],
      [
        "Ġfr",
        "anc"
      ],
      [
        "Ġinvest",
        "ig"
      ],
      [
        "b",
        "ased"
      ],
      [
        "c",
        "l"
      ],
      [
        "Ġs",
        "ud"
      ],
      [
        "Ġs",
        "em"
      ],
      [
        "Ġs",
        "ell"
      ],
      [
        "at",
        "ive"
      ],
      [
        "Ġm",
        "ich"
      ],
      [
        "is",
        "ed"
      ],
      [
        "Ġbe",
        "at"
      ],
      [
        "Ġex",
        "ecut"
      ],
      [
        "Ġag",
        "o"
      ],
      [
        "ire",
        "d"
      ],
      [
        "Ġpa",
        "ul"
      ],
      [
        "Ġm",
        "id"
      ],
      [
        "Ġl",
        "if"
      ],
      [
        "Ġsh",
        "r"
      ],
      [
        "Ġmo",
        "bile"
      ],
      [
        "Ġaustral",
        "ia"
      ],
      [
        "Ġcust",
        "om"
      ],
      [
        "p",
        "ar"
      ],
      [
        "igh",
        "ts"
      ],
      [
        "it",
        "t"
      ],
      [
        "Ġsh",
        "ould"
      ],
      [
        "Ġaf",
        "ric"
      ],
      [
        "Ġapp",
        "ro"
      ],
      [
        "Ġpe",
        "ace"
      ],
      [
        "Ġret",
        "urn"
      ],
      [
        "Ġbrit",
        "ish"
      ],
      [
        "Ġtal",
        "ks"
      ],
      [
        "if",
        "f"
      ],
      [
        "Ġro",
        "und"
      ],
      [
        "Ġapp",
        "e"
      ],
      [
        "Ġserv",
        "ices"
      ],
      [
        "Ġcap",
        "ital"
      ],
      [
        "enc",
        "y"
      ],
      [
        "Ġbas",
        "ket"
      ],
      [
        "g",
        "o"
      ],
      [
        "he",
        "ad"
      ],
      [
        "Ġw",
        "all"
      ],
      [
        "Ġm",
        "et"
      ],
      [
        "Ġd",
        "ar"
      ],
      [
        "os",
        "ition"
      ],
      [
        "Ġde",
        "v"
      ],
      [
        "ak",
        "istan"
      ],
      [
        "Ġwh",
        "ere"
      ],
      [
        "ip",
        "p"
      ],
      [
        "Ġad",
        "d"
      ],
      [
        "Ġf",
        "ace"
      ],
      [
        "Ġf",
        "oll"
      ],
      [
        "Ġb",
        "id"
      ],
      [
        "is",
        "hed"
      ],
      [
        "Ġ1",
        "1"
      ],
      [
        "00",
        "0"
      ],
      [
        "Ġnor",
        "th"
      ],
      [
        "Ġs",
        "old"
      ],
      [
        "Ġin",
        "j"
      ],
      [
        "Ġg",
        "er"
      ],
      [
        "Ġl",
        "oss"
      ],
      [
        "Ġe",
        "ff"
      ],
      [
        "Ġbasket",
        "ball"
      ],
      [
        "i",
        "k"
      ],
      [
        "s",
        "on"
      ],
      [
        "re",
        "l"
      ],
      [
        "Ġh",
        "and"
      ],
      [
        "Ġst",
        "ore"
      ],
      [
        "Ġqu",
        "ote"
      ],
      [
        "Ġmo",
        "ve"
      ],
      [
        "Ġmonth",
        "s"
      ],
      [
        "Ġdem",
        "and"
      ],
      [
        "Ġdat",
        "a"
      ],
      [
        "Ġs",
        "ing"
      ],
      [
        "Ġrec",
        "ent"
      ],
      [
        "Ġrele",
        "ased"
      ],
      [
        "o",
        "ol"
      ],
      [
        "Ġf",
        "all"
      ],
      [
        "Ġp",
        "op"
      ],
      [
        "Ġin",
        "st"
      ],
      [
        "Ġf",
        "ail"
      ],
      [
        "ad",
        "y"
      ],
      [
        "Ġwas",
        "h"
      ],
      [
        "Ġcomm",
        "un"
      ],
      [
        "Ġeconom",
        "ic"
      ],
      [
        "l",
        "ondon"
      ],
      [
        "Ġ",
        "est"
      ],
      [
        "Ġf",
        "ar"
      ],
      [
        "en",
        "ter"
      ],
      [
        "Ġcont",
        "r"
      ],
      [
        "Ġus",
        "e"
      ],
      [
        "Ġrep",
        "orts"
      ],
      [
        "Ġli",
        "ke"
      ],
      [
        "l",
        "am"
      ],
      [
        "Ġw",
        "al"
      ],
      [
        "Ġp",
        "ass"
      ],
      [
        "Ġ1",
        "4"
      ],
      [
        "lo",
        "y"
      ],
      [
        "Ġdes",
        "p"
      ],
      [
        "Ġnear",
        "ly"
      ],
      [
        "rup",
        "t"
      ],
      [
        "Ġc",
        "le"
      ],
      [
        "Ġm",
        "uch"
      ],
      [
        "Ġd",
        "ri"
      ],
      [
        "ens",
        "e"
      ],
      [
        "Ġdis",
        "c"
      ],
      [
        "Ġvi",
        "ol"
      ],
      [
        "Ġp",
        "ast"
      ],
      [
        "Ġin",
        "v"
      ],
      [
        "is",
        "m"
      ],
      [
        "Ġst",
        "e"
      ],
      [
        "Ġhe",
        "alth"
      ],
      [
        "Ġtr",
        "ans"
      ],
      [
        "Ġar",
        "m"
      ],
      [
        "Ġchamp",
        "ions"
      ],
      [
        "Ġc",
        "alif"
      ],
      [
        "Ġm",
        "ain"
      ],
      [
        "ver",
        "ed"
      ],
      [
        "Ġph",
        "one"
      ],
      [
        "Ġm",
        "at"
      ],
      [
        "Ġre",
        "v"
      ],
      [
        "Ġre",
        "al"
      ],
      [
        "Ġne",
        "ed"
      ],
      [
        "ib",
        "le"
      ],
      [
        "Ġman",
        "ag"
      ],
      [
        "Ġeconom",
        "y"
      ],
      [
        "Ġfinanc",
        "ial"
      ],
      [
        "s",
        "h"
      ],
      [
        "t",
        "y"
      ],
      [
        "Ġs",
        "an"
      ],
      [
        "as",
        "hed"
      ],
      [
        "Ġn",
        "as"
      ],
      [
        "Ġn",
        "et"
      ],
      [
        "ec",
        "ts"
      ],
      [
        "Ġrep",
        "ublic"
      ],
      [
        "Ġsc",
        "ient"
      ],
      [
        "Ġwash",
        "ington"
      ],
      [
        "b",
        "o"
      ],
      [
        "l",
        "ier"
      ],
      [
        "Ġ",
        "vers"
      ],
      [
        "Ġt",
        "ry"
      ],
      [
        "re",
        "d"
      ],
      [
        "Ġc",
        "a"
      ],
      [
        "Ġp",
        "it"
      ],
      [
        "is",
        "on"
      ],
      [
        "Ġd",
        "id"
      ],
      [
        "Ġd",
        "ist"
      ],
      [
        "Ġg",
        "e"
      ],
      [
        "Ġn",
        "ations"
      ],
      [
        "Ġcomm",
        "ission"
      ],
      [
        "Ġdep",
        "art"
      ],
      [
        "Ġt",
        "ra"
      ],
      [
        "Ġs",
        "our"
      ],
      [
        "Ġf",
        "ut"
      ],
      [
        "Ġm",
        "or"
      ],
      [
        "Ġm",
        "em"
      ],
      [
        "Ġe",
        "v"
      ],
      [
        "Ġe",
        "ight"
      ],
      [
        "im",
        "in"
      ],
      [
        "h",
        "or"
      ],
      [
        "n",
        "e"
      ],
      [
        "Ġt",
        "it"
      ],
      [
        "Ġp",
        "ri"
      ],
      [
        "Ġl",
        "ab"
      ],
      [
        "Ġ3",
        "6"
      ],
      [
        "Ġfir",
        "m"
      ],
      [
        "Ġar",
        "rest"
      ],
      [
        "Ġcr",
        "ude"
      ],
      [
        "Ġmich",
        "ael"
      ],
      [
        "Ġw",
        "ire"
      ],
      [
        "id",
        "ence"
      ],
      [
        "Ġch",
        "ip"
      ],
      [
        "Ġk",
        "ey"
      ],
      [
        "Ġv",
        "ide"
      ],
      [
        "Ġpol",
        "it"
      ],
      [
        "p",
        "r"
      ],
      [
        "Ġre",
        "st"
      ],
      [
        "Ġwith",
        "out"
      ],
      [
        "Ġbom",
        "b"
      ],
      [
        "Ġt",
        "im"
      ],
      [
        "Ġs",
        "uc"
      ],
      [
        "Ġl",
        "ower"
      ],
      [
        "ers",
        "on"
      ],
      [
        "Ġch",
        "ar"
      ],
      [
        "ear",
        "s"
      ],
      [
        "Ġcon",
        "cer"
      ],
      [
        "oc",
        "r"
      ],
      [
        "Ġsupp",
        "ort"
      ],
      [
        "Ġchamp",
        "ion"
      ],
      [
        "e",
        "mp"
      ],
      [
        "g",
        "ht"
      ],
      [
        "v",
        "ing"
      ],
      [
        "Ġs",
        "il"
      ],
      [
        "Ġc",
        "are"
      ],
      [
        "or",
        "y"
      ],
      [
        "Ġd",
        "et"
      ],
      [
        "Ġr",
        "iv"
      ],
      [
        "ul",
        "ar"
      ],
      [
        "Ġus",
        "ed"
      ],
      [
        "Ġv",
        "is"
      ],
      [
        "Ġcont",
        "rol"
      ],
      [
        "iz",
        "e"
      ],
      [
        "Ġthre",
        "at"
      ],
      [
        "Ġaut",
        "hor"
      ],
      [
        "r",
        "ation"
      ],
      [
        "Ġw",
        "est"
      ],
      [
        "ic",
        "t"
      ],
      [
        "Ġr",
        "ace"
      ],
      [
        "ot",
        "s"
      ],
      [
        "Ġprof",
        "ile"
      ],
      [
        "Ġcall",
        "ed"
      ],
      [
        "s",
        "c"
      ],
      [
        "Ġd",
        "om"
      ],
      [
        "Ġ1",
        "7"
      ],
      [
        "Ġju",
        "ly"
      ],
      [
        "Ġfranc",
        "isco"
      ],
      [
        "b",
        "ack"
      ],
      [
        "e",
        "es"
      ],
      [
        "Ġf",
        "und"
      ],
      [
        "Ġn",
        "ation"
      ],
      [
        "Ġv",
        "ir"
      ],
      [
        "c",
        "k"
      ],
      [
        "Ġl",
        "it"
      ],
      [
        "Ġpro",
        "gr"
      ],
      [
        "Ġsp",
        "orts"
      ],
      [
        "Ġstre",
        "et"
      ],
      [
        "Ġc",
        "up"
      ],
      [
        "Ġp",
        "oss"
      ],
      [
        "Ġp",
        "akistan"
      ],
      [
        "ut",
        "e"
      ],
      [
        "Ġus",
        "ers"
      ],
      [
        "Ġag",
        "ree"
      ],
      [
        "ra",
        "w"
      ],
      [
        "iv",
        "ing"
      ],
      [
        "Ġear",
        "nings"
      ],
      [
        "Ġme",
        "et"
      ],
      [
        "Ġimp",
        "ro"
      ],
      [
        "Ġcompet",
        "ition"
      ],
      [
        "c",
        "ast"
      ],
      [
        "Ġt",
        "urn"
      ],
      [
        "Ġs",
        "en"
      ],
      [
        "Ġs",
        "im"
      ],
      [
        "Ġc",
        "ur"
      ],
      [
        "Ġe",
        "mp"
      ],
      [
        "el",
        "es"
      ],
      [
        "Ġac",
        "ross"
      ],
      [
        "Ġals",
        "o"
      ],
      [
        "Ġwire",
        "less"
      ],
      [
        "f",
        "ur"
      ],
      [
        "Ġs",
        "um"
      ],
      [
        "Ġm",
        "ens"
      ],
      [
        "ac",
        "y"
      ],
      [
        "Ġ1",
        "3"
      ],
      [
        "Ġk",
        "ore"
      ],
      [
        "if",
        "ic"
      ],
      [
        "h",
        "d"
      ],
      [
        "i",
        "or"
      ],
      [
        "n",
        "s"
      ],
      [
        "it",
        "es"
      ],
      [
        "Ġb",
        "ill"
      ],
      [
        "Ġe",
        "as"
      ],
      [
        "of",
        "f"
      ],
      [
        "Ġse",
        "ver"
      ],
      [
        "av",
        "ing"
      ],
      [
        "Ġrele",
        "ase"
      ],
      [
        "d",
        "it"
      ],
      [
        "Ġs",
        "ol"
      ],
      [
        "Ġm",
        "ot"
      ],
      [
        "Ġh",
        "our"
      ],
      [
        "Ġit",
        "al"
      ],
      [
        "Ġsp",
        "ec"
      ],
      [
        "year",
        "old"
      ],
      [
        "Ġshr",
        "ine"
      ],
      [
        "Ġdepart",
        "ment"
      ],
      [
        "d",
        "e"
      ],
      [
        "g",
        "an"
      ],
      [
        "l",
        "l"
      ],
      [
        "p",
        "ort"
      ],
      [
        "Ġs",
        "oc"
      ],
      [
        "Ġf",
        "am"
      ],
      [
        "Ġl",
        "os"
      ],
      [
        "Ġcon",
        "n"
      ],
      [
        "Ġlead",
        "ing"
      ],
      [
        "Ġvers",
        "ion"
      ],
      [
        "b",
        "ed"
      ],
      [
        "l",
        "ines"
      ],
      [
        "re",
        "t"
      ],
      [
        "Ġch",
        "ief"
      ],
      [
        "Ġpart",
        "y"
      ],
      [
        "oll",
        "ar"
      ],
      [
        "Ġconsum",
        "er"
      ],
      [
        "Ġ",
        "z"
      ],
      [
        "Ġ",
        "er"
      ],
      [
        "es",
        "h"
      ],
      [
        "Ġh",
        "ost"
      ],
      [
        "Ġh",
        "ere"
      ],
      [
        "id",
        "er"
      ],
      [
        "el",
        "f"
      ],
      [
        "ut",
        "ion"
      ],
      [
        "Ġk",
        "eep"
      ],
      [
        "uc",
        "k"
      ],
      [
        "Ġbro",
        "ad"
      ],
      [
        "Ġsystem",
        "s"
      ],
      [
        "n",
        "ess"
      ],
      [
        "il",
        "y"
      ],
      [
        "Ġfor",
        "ces"
      ],
      [
        "Ġde",
        "ad"
      ],
      [
        "ain",
        "ing"
      ],
      [
        "Ġres",
        "ul"
      ],
      [
        "Ġcont",
        "inu"
      ],
      [
        "ym",
        "n"
      ],
      [
        "Ġhal",
        "f"
      ],
      [
        "in",
        "k"
      ],
      [
        "Ġp",
        "al"
      ],
      [
        "Ġm",
        "ight"
      ],
      [
        "Ġ1",
        "6"
      ],
      [
        "Ġun",
        "ivers"
      ],
      [
        "iz",
        "ed"
      ],
      [
        "b",
        "al"
      ],
      [
        "er",
        "ation"
      ],
      [
        "Ġp",
        "ack"
      ],
      [
        "Ġg",
        "ymn"
      ],
      [
        "Ġfour",
        "th"
      ],
      [
        "Ġp",
        "c"
      ],
      [
        "ad",
        "ian"
      ],
      [
        "ug",
        "g"
      ],
      [
        "Ġdem",
        "ocr"
      ],
      [
        "Ġsud",
        "an"
      ],
      [
        "a",
        "i"
      ],
      [
        "Ġa",
        "round"
      ],
      [
        "an",
        "k"
      ],
      [
        "Ġm",
        "ass"
      ],
      [
        "ian",
        "s"
      ],
      [
        "Ġmar",
        "k"
      ],
      [
        "Ġatt",
        "acks"
      ],
      [
        "Ġtargetstocksquickinfof",
        "ullquote"
      ],
      [
        "i",
        "as"
      ],
      [
        "j",
        "ect"
      ],
      [
        "m",
        "ing"
      ],
      [
        "Ġt",
        "re"
      ],
      [
        "in",
        "als"
      ],
      [
        "er",
        "gy"
      ],
      [
        "Ġan",
        "al"
      ],
      [
        "Ġd",
        "ro"
      ],
      [
        "Ġg",
        "lo"
      ],
      [
        "Ġdar",
        "fur"
      ],
      [
        "Ġdesp",
        "ite"
      ],
      [
        "c",
        "y"
      ],
      [
        "e",
        "x"
      ],
      [
        "i",
        "am"
      ],
      [
        "i",
        "ers"
      ],
      [
        "t",
        "ada"
      ],
      [
        "en",
        "g"
      ],
      [
        "Ġl",
        "ate"
      ],
      [
        "Ġy",
        "our"
      ],
      [
        "Ġk",
        "er"
      ],
      [
        "pp",
        "ed"
      ],
      [
        "Ġres",
        "er"
      ],
      [
        "Ġkill",
        "ing"
      ],
      [
        "Ġgen",
        "eral"
      ],
      [
        "Ġtro",
        "ops"
      ],
      [
        "Ġh",
        "ous"
      ],
      [
        "Ġl",
        "ine"
      ],
      [
        "Ġhe",
        "ld"
      ],
      [
        "Ġal",
        "le"
      ],
      [
        "Ġhol",
        "y"
      ],
      [
        "Ġboo",
        "st"
      ],
      [
        "n",
        "y"
      ],
      [
        "Ġd",
        "ig"
      ],
      [
        "Ġd",
        "ollar"
      ],
      [
        "Ġr",
        "ight"
      ],
      [
        "Ġres",
        "p"
      ],
      [
        "Ġwin",
        "ning"
      ],
      [
        "Ġcorp",
        "or"
      ],
      [
        "Ġli",
        "k"
      ],
      [
        "Ġshow",
        "ed"
      ],
      [
        "Ġsm",
        "all"
      ],
      [
        "Ġtrad",
        "ing"
      ],
      [
        "Ġlit",
        "tle"
      ],
      [
        "id",
        "ed"
      ],
      [
        "Ġl",
        "ow"
      ],
      [
        "Ġl",
        "oo"
      ],
      [
        "est",
        "in"
      ],
      [
        "Ġex",
        "ch"
      ],
      [
        "Ġsp",
        "e"
      ],
      [
        "um",
        "b"
      ],
      [
        "ard",
        "s"
      ],
      [
        "Ġse",
        "ven"
      ],
      [
        "Ġameric",
        "ans"
      ],
      [
        "Ġals",
        "adr"
      ],
      [
        "Ġx",
        "p"
      ],
      [
        "Ġopp",
        "osition"
      ],
      [
        "Ġtit",
        "le"
      ],
      [
        "u",
        "f"
      ],
      [
        "on",
        "y"
      ],
      [
        "Ġen",
        "ergy"
      ],
      [
        "Ġworld",
        "s"
      ],
      [
        "Ġman",
        "age"
      ],
      [
        "Ġbo",
        "th"
      ],
      [
        "ren",
        "ch"
      ],
      [
        "Ġ5",
        "0"
      ],
      [
        "Ġeng",
        "land"
      ],
      [
        "Ġcost",
        "s"
      ],
      [
        "Ġta",
        "x"
      ],
      [
        "Ġfight",
        "ing"
      ],
      [
        "Ġnum",
        "ber"
      ],
      [
        "Ġcustom",
        "ers"
      ],
      [
        "Ġgymn",
        "ast"
      ],
      [
        "i",
        "j"
      ],
      [
        "Ġs",
        "uch"
      ],
      [
        "Ġb",
        "et"
      ],
      [
        "Ġh",
        "ot"
      ],
      [
        "Ġco",
        "ach"
      ],
      [
        "Ġvide",
        "o"
      ],
      [
        "o",
        "ver"
      ],
      [
        "u",
        "mp"
      ],
      [
        "w",
        "ays"
      ],
      [
        "Ġre",
        "ce"
      ],
      [
        "Ġ2",
        "5"
      ],
      [
        "Ġsp",
        "ace"
      ],
      [
        "s",
        "an"
      ],
      [
        "Ġc",
        "e"
      ],
      [
        "Ġf",
        "ree"
      ],
      [
        "Ġe",
        "ver"
      ],
      [
        "Ġe",
        "very"
      ],
      [
        "end",
        "ed"
      ],
      [
        "Ġear",
        "lier"
      ],
      [
        "Ġelect",
        "ion"
      ],
      [
        "Ġreb",
        "els"
      ],
      [
        "Ġsuc",
        "cess"
      ],
      [
        "Ġsever",
        "al"
      ],
      [
        "Ġw",
        "he"
      ],
      [
        "ou",
        "ght"
      ],
      [
        "iv",
        "ed"
      ],
      [
        "Ġup",
        "d"
      ],
      [
        "ath",
        "er"
      ],
      [
        "Ġme",
        "ters"
      ],
      [
        "Ġbu",
        "ild"
      ],
      [
        "Ġresul",
        "ts"
      ],
      [
        "Ġexch",
        "ange"
      ],
      [
        "h",
        "er"
      ],
      [
        "t",
        "ain"
      ],
      [
        "t",
        "ime"
      ],
      [
        "Ġc",
        "ase"
      ],
      [
        "Ġf",
        "oot"
      ],
      [
        "at",
        "ely"
      ],
      [
        "ar",
        "m"
      ],
      [
        "Ġ3",
        "0"
      ],
      [
        "Ġpro",
        "cess"
      ],
      [
        "res",
        "h"
      ],
      [
        "Ġair",
        "lines"
      ],
      [
        "ky",
        "o"
      ],
      [
        "me",
        "ter"
      ],
      [
        "Ġt",
        "y"
      ],
      [
        "Ġa",
        "th"
      ],
      [
        "Ġa",
        "mp"
      ],
      [
        "on",
        "to"
      ],
      [
        "Ġc",
        "op"
      ],
      [
        "Ġm",
        "a"
      ],
      [
        "Ġto",
        "urn"
      ],
      [
        "Ġth",
        "ous"
      ],
      [
        "Ġun",
        "ion"
      ],
      [
        "Ġeng",
        "ine"
      ],
      [
        "a",
        "ign"
      ],
      [
        "d",
        "own"
      ],
      [
        "n",
        "al"
      ],
      [
        "t",
        "im"
      ],
      [
        "Ġ",
        "q"
      ],
      [
        "Ġf",
        "ield"
      ],
      [
        "Ġin",
        "form"
      ],
      [
        "Ġst",
        "ep"
      ],
      [
        "Ġis",
        "su"
      ],
      [
        "ag",
        "hd"
      ],
      [
        "Ġal",
        "m"
      ],
      [
        "ri",
        "es"
      ],
      [
        "oc",
        "i"
      ],
      [
        "gh",
        "an"
      ],
      [
        "Ġfore",
        "ign"
      ],
      [
        "Ġhur",
        "ric"
      ],
      [
        "Ġalle",
        "ged"
      ],
      [
        "aghd",
        "ad"
      ],
      [
        "Ġ",
        "es"
      ],
      [
        "Ġw",
        "ell"
      ],
      [
        "Ġh",
        "um"
      ],
      [
        "Ġg",
        "l"
      ],
      [
        "Ġl",
        "ight"
      ],
      [
        "Ġl",
        "ost"
      ],
      [
        "Ġmilit",
        "ants"
      ],
      [
        "Ġinf",
        "l"
      ],
      [
        "Ġbar",
        "rel"
      ],
      [
        "Ġang",
        "eles"
      ],
      [
        "Ġisrael",
        "i"
      ],
      [
        "Ġscient",
        "ists"
      ],
      [
        "Ġf",
        "ire"
      ],
      [
        "Ġb",
        "ase"
      ],
      [
        "Ġd",
        "av"
      ],
      [
        "Ġg",
        "ive"
      ],
      [
        "Ġst",
        "ra"
      ],
      [
        "ow",
        "ed"
      ],
      [
        "ch",
        "er"
      ],
      [
        "Ġpro",
        "m"
      ],
      [
        "Ġatt",
        "emp"
      ],
      [
        "Ġend",
        "ed"
      ],
      [
        "Ġass",
        "oci"
      ],
      [
        "Ġnetw",
        "orks"
      ],
      [
        "Ġem",
        "b"
      ],
      [
        "Ġju",
        "mp"
      ],
      [
        "Ġfoll",
        "owing"
      ],
      [
        "h",
        "old"
      ],
      [
        "n",
        "ajaf"
      ],
      [
        "o",
        "v"
      ],
      [
        "Ġ",
        "ur"
      ],
      [
        "Ġa",
        "head"
      ],
      [
        "Ġc",
        "enter"
      ],
      [
        "Ġf",
        "rench"
      ],
      [
        "os",
        "ed"
      ],
      [
        "Ġsh",
        "ort"
      ],
      [
        "av",
        "y"
      ],
      [
        "Ġgoo",
        "d"
      ],
      [
        "Ġplay",
        "er"
      ],
      [
        "Ġdes",
        "ign"
      ],
      [
        "Ġmak",
        "ing"
      ],
      [
        "Ġgr",
        "and"
      ],
      [
        "Ġoper",
        "ating"
      ],
      [
        "Ġcontr",
        "act"
      ],
      [
        "Ġtourn",
        "ament"
      ],
      [
        "a",
        "ug"
      ],
      [
        "g",
        "u"
      ],
      [
        "g",
        "ing"
      ],
      [
        "i",
        "ew"
      ],
      [
        "q",
        "tada"
      ],
      [
        "as",
        "ter"
      ],
      [
        "le",
        "x"
      ],
      [
        "us",
        "h"
      ],
      [
        "ap",
        "e"
      ],
      [
        "Ġ2",
        "3"
      ],
      [
        "Ġhis",
        "tory"
      ],
      [
        "Ġplay",
        "ers"
      ],
      [
        "Ġprod",
        "uct"
      ],
      [
        "Ġquarter",
        "ly"
      ],
      [
        "Ġcent",
        "ral"
      ],
      [
        "Ġeurope",
        "an"
      ],
      [
        "Ġcamp",
        "aign"
      ],
      [
        "Ġsem",
        "if"
      ],
      [
        "Ġge",
        "or"
      ],
      [
        "Ġt",
        "ak"
      ],
      [
        "Ġs",
        "ame"
      ],
      [
        "Ġf",
        "resh"
      ],
      [
        "al",
        "e"
      ],
      [
        "Ġd",
        "rop"
      ],
      [
        "Ġre",
        "ach"
      ],
      [
        "qu",
        "arter"
      ],
      [
        "Ġser",
        "ies"
      ],
      [
        "Ġapp",
        "lic"
      ],
      [
        "Ġset",
        "tle"
      ],
      [
        "Ġpolit",
        "ical"
      ],
      [
        "Ġemp",
        "loy"
      ],
      [
        "Ġj",
        "our"
      ],
      [
        "em",
        "ber"
      ],
      [
        "Ġgo",
        "ing"
      ],
      [
        "ester",
        "n"
      ],
      [
        "Ġcharg",
        "es"
      ],
      [
        "Ġker",
        "ry"
      ],
      [
        "Ġath",
        "let"
      ],
      [
        "Ġinform",
        "ation"
      ],
      [
        "i",
        "ver"
      ],
      [
        "Ġo",
        "s"
      ],
      [
        "Ġh",
        "ug"
      ],
      [
        "Ġre",
        "qu"
      ],
      [
        "Ġpro",
        "ble"
      ],
      [
        "ag",
        "es"
      ],
      [
        "Ġag",
        "ency"
      ],
      [
        "Ġtr",
        "ade"
      ],
      [
        "Ġor",
        "der"
      ],
      [
        "Ġor",
        "gan"
      ],
      [
        "Ġacc",
        "used"
      ],
      [
        "ound",
        "ed"
      ],
      [
        "Ġbec",
        "ome"
      ],
      [
        "Ġresearch",
        "ers"
      ],
      [
        "Ġprot",
        "est"
      ],
      [
        "Ġtele",
        "v"
      ],
      [
        "Ġconn",
        "ect"
      ],
      [
        "o",
        "on"
      ],
      [
        "t",
        "d"
      ],
      [
        "Ġw",
        "ater"
      ],
      [
        "Ġp",
        "ort"
      ],
      [
        "Ġp",
        "ull"
      ],
      [
        "Ġh",
        "und"
      ],
      [
        "Ġst",
        "or"
      ],
      [
        "Ġr",
        "ise"
      ],
      [
        "qu",
        "e"
      ],
      [
        "Ġaf",
        "ghan"
      ],
      [
        "ra",
        "ft"
      ],
      [
        "Ġqu",
        "est"
      ],
      [
        "Ġsay",
        "ing"
      ],
      [
        "Ġshar",
        "p"
      ],
      [
        "Ġwhe",
        "ther"
      ],
      [
        "g",
        "et"
      ],
      [
        "p",
        "e"
      ],
      [
        "z",
        "uel"
      ],
      [
        "Ġa",
        "way"
      ],
      [
        "ic",
        "ations"
      ],
      [
        "Ġg",
        "as"
      ],
      [
        "am",
        "ed"
      ],
      [
        "Ġtr",
        "ack"
      ],
      [
        "Ġlead",
        "ers"
      ],
      [
        "Ġsou",
        "thern"
      ],
      [
        "Ġham",
        "m"
      ],
      [
        "Ġexecut",
        "ive"
      ],
      [
        "Ġchampions",
        "hip"
      ],
      [
        "Ġhour",
        "s"
      ],
      [
        "Ġunivers",
        "ity"
      ],
      [
        "Ġmanage",
        "ment"
      ],
      [
        "Ġalm",
        "ost"
      ],
      [
        "Ġjour",
        "nal"
      ],
      [
        "i",
        "ke"
      ],
      [
        "w",
        "e"
      ],
      [
        "y",
        "ing"
      ],
      [
        "Ġf",
        "ew"
      ],
      [
        "Ġp",
        "erson"
      ],
      [
        "et",
        "ic"
      ],
      [
        "Ġmed",
        "ia"
      ],
      [
        "Ġacc",
        "ess"
      ],
      [
        "Ġcr",
        "it"
      ],
      [
        "ib",
        "m"
      ],
      [
        "Ġlab",
        "or"
      ],
      [
        "m",
        "any"
      ],
      [
        "Ġ",
        "ve"
      ],
      [
        "ac",
        "ed"
      ],
      [
        "Ġsh",
        "ot"
      ],
      [
        "ost",
        "on"
      ],
      [
        "Ġexp",
        "er"
      ],
      [
        "Ġapp",
        "le"
      ],
      [
        "Ġfe",
        "at"
      ],
      [
        "Ġbeg",
        "in"
      ],
      [
        "Ġproduc",
        "ts"
      ],
      [
        "Ġglo",
        "bal"
      ],
      [
        "Ġthous",
        "ands"
      ],
      [
        "Ġhurric",
        "ane"
      ],
      [
        "s",
        "et"
      ],
      [
        "Ġ",
        "uk"
      ],
      [
        "en",
        "ed"
      ],
      [
        "ent",
        "ial"
      ],
      [
        "Ġfor",
        "m"
      ],
      [
        "ut",
        "es"
      ],
      [
        "Ġde",
        "b"
      ],
      [
        "Ġus",
        "ing"
      ],
      [
        "Ġv",
        "al"
      ],
      [
        "Ġv",
        "ol"
      ],
      [
        "Ġcl",
        "ass"
      ],
      [
        "Ġcl",
        "ose"
      ],
      [
        "Ġse",
        "pt"
      ],
      [
        "ire",
        "ct"
      ],
      [
        "Ġar",
        "t"
      ],
      [
        "Ġdis",
        "co"
      ],
      [
        "Ġpr",
        "ison"
      ],
      [
        "Ġauthor",
        "ities"
      ],
      [
        "Ġagree",
        "ment"
      ],
      [
        "Ġsum",
        "mer"
      ],
      [
        "he",
        "lp"
      ],
      [
        "Ġc",
        "ub"
      ],
      [
        "Ġo",
        "ld"
      ],
      [
        "Ġp",
        "help"
      ],
      [
        "Ġm",
        "er"
      ],
      [
        "Ġg",
        "ree"
      ],
      [
        "un",
        "g"
      ],
      [
        "ec",
        "h"
      ],
      [
        "ot",
        "t"
      ],
      [
        "ist",
        "ration"
      ],
      [
        "Ġmed",
        "als"
      ],
      [
        "Ġper",
        "form"
      ],
      [
        "Ġbl",
        "ock"
      ],
      [
        "Ġrun",
        "ning"
      ],
      [
        "Ġdig",
        "ital"
      ],
      [
        "Ġstra",
        "ight"
      ],
      [
        "Ġphelp",
        "s"
      ],
      [
        "g",
        "l"
      ],
      [
        "Ġt",
        "aking"
      ],
      [
        "Ġc",
        "y"
      ],
      [
        "Ġb",
        "er"
      ],
      [
        "en",
        "n"
      ],
      [
        "Ġd",
        "ue"
      ],
      [
        "il",
        "ed"
      ],
      [
        "Ġv",
        "o"
      ],
      [
        "op",
        "p"
      ],
      [
        "Ġal",
        "i"
      ],
      [
        "Ġ2",
        "1"
      ],
      [
        "ess",
        "ion"
      ],
      [
        "Ġam",
        "id"
      ],
      [
        "Ġdec",
        "ision"
      ],
      [
        "66",
        "66"
      ],
      [
        "Ġpost",
        "ed"
      ],
      [
        "Ġsch",
        "ool"
      ],
      [
        "Ġmor",
        "ning"
      ],
      [
        "Ġarrest",
        "ed"
      ],
      [
        "Ġc",
        "oun"
      ],
      [
        "Ġb",
        "al"
      ],
      [
        "Ġin",
        "ning"
      ],
      [
        "Ġl",
        "in"
      ],
      [
        "ver",
        "t"
      ],
      [
        "Ġj",
        "ones"
      ],
      [
        "Ġad",
        "min"
      ],
      [
        "Ġtri",
        "al"
      ],
      [
        "Ġjud",
        "ge"
      ],
      [
        "Ġprogr",
        "am"
      ],
      [
        "Ġanal",
        "yst"
      ],
      [
        "Ġgymnast",
        "ics"
      ],
      [
        "Ġs",
        "y"
      ],
      [
        "Ġd",
        "re"
      ],
      [
        "ap",
        "er"
      ],
      [
        "Ġpl",
        "ace"
      ],
      [
        "Ġinter",
        "est"
      ],
      [
        "Ġbr",
        "on"
      ],
      [
        "Ġind",
        "ia"
      ],
      [
        "Ġelect",
        "ron"
      ],
      [
        "Ġins",
        "ur"
      ],
      [
        "Ġstri",
        "ke"
      ],
      [
        "Ġretail",
        "er"
      ],
      [
        "Ġlaun",
        "ch"
      ],
      [
        "Ġvis",
        "it"
      ],
      [
        "k",
        "er"
      ],
      [
        "m",
        "icrosoft"
      ],
      [
        "u",
        "ce"
      ],
      [
        "Ġb",
        "est"
      ],
      [
        "Ġd",
        "irect"
      ],
      [
        "id",
        "a"
      ],
      [
        "Ġr",
        "ally"
      ],
      [
        "Ġch",
        "air"
      ],
      [
        "Ġsp",
        "ok"
      ],
      [
        "Ġfin",
        "d"
      ],
      [
        "Ġpre",
        "v"
      ],
      [
        "Ġsup",
        "er"
      ],
      [
        "Ġaustral",
        "ian"
      ],
      [
        "orn",
        "ia"
      ],
      [
        "Ġpal",
        "estin"
      ],
      [
        "b",
        "and"
      ],
      [
        "l",
        "er"
      ],
      [
        "y",
        "al"
      ],
      [
        "Ġ",
        "il"
      ],
      [
        "Ġs",
        "ent"
      ],
      [
        "Ġw",
        "if"
      ],
      [
        "Ġf",
        "re"
      ],
      [
        "Ġm",
        "al"
      ],
      [
        "Ġl",
        "oc"
      ],
      [
        "Ġl",
        "td"
      ],
      [
        "Ġweek",
        "end"
      ],
      [
        "Ġair",
        "ways"
      ],
      [
        "Ġlif",
        "e"
      ],
      [
        "Ġriv",
        "al"
      ],
      [
        "Ġlik",
        "ely"
      ],
      [
        "w",
        "a"
      ],
      [
        "Ġt",
        "or"
      ],
      [
        "re",
        "ds"
      ],
      [
        "Ġc",
        "ame"
      ],
      [
        "Ġcom",
        "b"
      ],
      [
        "Ġch",
        "icago"
      ],
      [
        "Ġv",
        "ene"
      ],
      [
        "ore",
        "d"
      ],
      [
        "Ġexp",
        "los"
      ],
      [
        "Ġbr",
        "ing"
      ],
      [
        "Ġair",
        "line"
      ],
      [
        "Ġconf",
        "ir"
      ],
      [
        "Ġbeg",
        "an"
      ],
      [
        "Ġip",
        "o"
      ],
      [
        "Ġvene",
        "zuel"
      ],
      [
        "a",
        "ult"
      ],
      [
        "g",
        "ress"
      ],
      [
        "v",
        "al"
      ],
      [
        "Ġthe",
        "n"
      ],
      [
        "Ġf",
        "ood"
      ],
      [
        "th",
        "ing"
      ],
      [
        "and",
        "er"
      ],
      [
        "Ġne",
        "g"
      ],
      [
        "anc",
        "ed"
      ],
      [
        "Ġph",
        "il"
      ],
      [
        "Ġdou",
        "b"
      ],
      [
        "Ġviol",
        "ence"
      ],
      [
        "o",
        "id"
      ],
      [
        "t",
        "a"
      ],
      [
        "or",
        "ing"
      ],
      [
        "Ġm",
        "c"
      ],
      [
        "al",
        "ed"
      ],
      [
        "Ġh",
        "o"
      ],
      [
        "Ġto",
        "o"
      ],
      [
        "Ġth",
        "ose"
      ],
      [
        "ac",
        "hed"
      ],
      [
        "Ġsec",
        "ret"
      ],
      [
        "Ġruss",
        "ia"
      ],
      [
        "Ġger",
        "many"
      ],
      [
        "Ġest",
        "im"
      ],
      [
        "Ġfut",
        "ure"
      ],
      [
        "Ġtim",
        "es"
      ],
      [
        "Ġchar",
        "ley"
      ],
      [
        "Ġbet",
        "ter"
      ],
      [
        "Ġchair",
        "man"
      ],
      [
        "Ġc",
        "ash"
      ],
      [
        "Ġh",
        "ard"
      ],
      [
        "Ġl",
        "ess"
      ],
      [
        "Ġj",
        "un"
      ],
      [
        "Ġis",
        "lam"
      ],
      [
        "Ġsa",
        "f"
      ],
      [
        "Ġk",
        "id"
      ],
      [
        "Ġwar",
        "ned"
      ],
      [
        "Ġsecur",
        "ities"
      ],
      [
        "Ġbel",
        "ie"
      ],
      [
        "Ġact",
        "iv"
      ],
      [
        "inu",
        "x"
      ],
      [
        "Ġcalif",
        "ornia"
      ],
      [
        "Ġev",
        "idence"
      ],
      [
        "Ġspok",
        "es"
      ],
      [
        "Ġc",
        "ell"
      ],
      [
        "an",
        "ke"
      ],
      [
        "Ġd",
        "iv"
      ],
      [
        "Ġl",
        "ed"
      ],
      [
        "Ġr",
        "an"
      ],
      [
        "Ġout",
        "s"
      ],
      [
        "Ġar",
        "ri"
      ],
      [
        "Ġcont",
        "in"
      ],
      [
        "Ġ4",
        "00"
      ],
      [
        "lo",
        "ad"
      ],
      [
        "ullqu",
        "ot"
      ],
      [
        "Ġcol",
        "or"
      ],
      [
        "Ġprot",
        "ect"
      ],
      [
        "Ġtro",
        "ub"
      ],
      [
        "Ġtargetstocksquickinfof",
        "ullquot"
      ],
      [
        "Ġarm",
        "y"
      ],
      [
        "Ġtelev",
        "ision"
      ],
      [
        "i",
        "et"
      ],
      [
        "i",
        "ence"
      ],
      [
        "t",
        "led"
      ],
      [
        "re",
        "ady"
      ],
      [
        "Ġb",
        "ur"
      ],
      [
        "th",
        "ers"
      ],
      [
        "Ġbe",
        "h"
      ],
      [
        "Ġhe",
        "avy"
      ],
      [
        "ak",
        "er"
      ],
      [
        "Ġmon",
        "ey"
      ],
      [
        "Ġameric",
        "a"
      ],
      [
        "Ġstore",
        "s"
      ],
      [
        "d",
        "y"
      ],
      [
        "h",
        "am"
      ],
      [
        "n",
        "ers"
      ],
      [
        "v",
        "ir"
      ],
      [
        "Ġs",
        "n"
      ],
      [
        "Ġs",
        "ize"
      ],
      [
        "Ġf",
        "ull"
      ],
      [
        "Ġf",
        "uel"
      ],
      [
        "Ġon",
        "ce"
      ],
      [
        "Ġis",
        "land"
      ],
      [
        "os",
        "c"
      ],
      [
        "Ġde",
        "ath"
      ],
      [
        "Ġcl",
        "ub"
      ],
      [
        "Ġcr",
        "is"
      ],
      [
        "aw",
        "a"
      ],
      [
        "Ġpresident",
        "ial"
      ],
      [
        "Ġso",
        "x"
      ],
      [
        "Ġcar",
        "ri"
      ],
      [
        "Ġbat",
        "tle"
      ],
      [
        "Ġincre",
        "ase"
      ],
      [
        "Ġtry",
        "ing"
      ],
      [
        "Ġhum",
        "an"
      ],
      [
        "b",
        "it"
      ],
      [
        "u",
        "le"
      ],
      [
        "er",
        "ing"
      ],
      [
        "Ġb",
        "ra"
      ],
      [
        "Ġto",
        "ward"
      ],
      [
        "Ġd",
        "oc"
      ],
      [
        "Ġal",
        "ready"
      ],
      [
        "ug",
        "ht"
      ],
      [
        "vent",
        "ion"
      ],
      [
        "app",
        "ed"
      ],
      [
        "Ġ15",
        "1"
      ],
      [
        "Ġget",
        "ting"
      ],
      [
        "Ġrad",
        "ical"
      ],
      [
        "Ġinvestig",
        "ation"
      ],
      [
        "uf",
        "act"
      ],
      [
        "Ġgree",
        "k"
      ],
      [
        "c",
        "hes"
      ],
      [
        "d",
        "ed"
      ],
      [
        "Ġa",
        "im"
      ],
      [
        "Ġa",
        "ri"
      ],
      [
        "Ġs",
        "ite"
      ],
      [
        "Ġc",
        "ard"
      ],
      [
        "Ġw",
        "ent"
      ],
      [
        "Ġw",
        "estern"
      ],
      [
        "Ġm",
        "atch"
      ],
      [
        "Ġg",
        "ot"
      ],
      [
        "Ġst",
        "ad"
      ],
      [
        "Ġne",
        "ver"
      ],
      [
        "Ġmarket",
        "s"
      ],
      [
        "Ġwom",
        "ens"
      ],
      [
        "Ġwork",
        "ers"
      ],
      [
        "Ġfail",
        "ed"
      ],
      [
        "Ġcur",
        "ren"
      ],
      [
        "Ġbron",
        "ze"
      ],
      [
        "Ġstad",
        "ium"
      ],
      [
        "i",
        "w"
      ],
      [
        "m",
        "it"
      ],
      [
        "Ġb",
        "oston"
      ],
      [
        "ro",
        "d"
      ],
      [
        "id",
        "es"
      ],
      [
        "Ġch",
        "all"
      ],
      [
        "Ġcon",
        "v"
      ],
      [
        "Ġun",
        "t"
      ],
      [
        "Ġun",
        "ve"
      ],
      [
        "Ġ2",
        "2"
      ],
      [
        "oo",
        "ds"
      ],
      [
        "Ġro",
        "b"
      ],
      [
        "to",
        "kyo"
      ],
      [
        "Ġgre",
        "at"
      ],
      [
        "Ġstart",
        "ing"
      ],
      [
        "Ġjapan",
        "ese"
      ],
      [
        "Ġafric",
        "a"
      ],
      [
        "Ġcare",
        "er"
      ],
      [
        "Ġdom",
        "in"
      ],
      [
        "Ġital",
        "ian"
      ],
      [
        "osc",
        "ow"
      ],
      [
        "c",
        "an"
      ],
      [
        "h",
        "an"
      ],
      [
        "l",
        "ant"
      ],
      [
        "y",
        "le"
      ],
      [
        "Ġw",
        "ant"
      ],
      [
        "as",
        "ing"
      ],
      [
        "Ġl",
        "and"
      ],
      [
        "ch",
        "icago"
      ],
      [
        "Ġch",
        "ild"
      ],
      [
        "Ġsh",
        "ut"
      ],
      [
        "ag",
        "ed"
      ],
      [
        "if",
        "ied"
      ],
      [
        "Ġbl",
        "ue"
      ],
      [
        "Ġman",
        "ufact"
      ],
      [
        "Ġbank",
        "rupt"
      ],
      [
        "Ġbrit",
        "ain"
      ],
      [
        "Ġhom",
        "es"
      ],
      [
        "Ġdou",
        "ble"
      ],
      [
        "Ġreser",
        "ve"
      ],
      [
        "Ġupd",
        "ate"
      ],
      [
        "c",
        "al"
      ],
      [
[...]
