{
  "version": "1.0",
  "truncation": {
    "direction": "Right",
    "max_length": 157,
    "strategy": "LongestFirst",
    "stride": 0
  },
  "padding": {
    "strategy": {
      "Fixed": 157
    },
    "direction": "Right",
    "pad_to_multiple_of": null,
    "pad_id": 0,
    "pad_type_id": 0,
    "pad_token": "[PAD]"
  },
  "added_tokens": [
    {
      "id": 0,
      "content": "[PAD]",
      "single_word": false,
      "lstrip": false,
      "rstrip": false,
      "normalized": false,
      "special": true
    },
    {
      "id": 1,
      "content": "[UNK]",
      "single_word": false,
      "lstrip": false,
      "rstrip": false,
      "normalized": false,
      "special": true
    }
  ],
  "normalizer": null,
  "pre_tokenizer": {
    "type": "ByteLevel",
    "add_prefix_space": false,
    "trim_offsets": true,
    "use_regex": true
  },
  "post_processor": null,
  "decoder": null,
  "model": {
    "type": "BPE",
    "dropout": null,
    "unk_token": "[UNK]",
    "continuing_subword_prefix": null,
    "end_of_word_suffix": null,
    "fuse_unk": false,
    "byte_fallback": false,
    "ignore_merges": false,
    "vocab": {
      "[PAD]": 0,
      "[UNK]": 1,
      "!": 2,
      "\"": 3,
      "#": 4,
      "$": 5,
      "%": 6,
      "&": 7,
      "'": 8,
      "(": 9,
      ")": 10,
      "*": 11,
      "+": 12,
      ",": 13,
      "-": 14,
      ".": 15,
      "/": 16,
      "0": 17,
      "1": 18,
      "2": 19,
      "3": 20,
      "4": 21,
      "5": 22,
      "6": 23,
      "7": 24,
      "8": 25,
      "9": 26,
      ":": 27,
      ";": 28,
      "<": 29,
      "=": 30,
      ">": 31,
      "?": 32,
      "@": 33,
      "A": 34,
      "B": 35,
      "C": 36,
      "D": 37,
      "E": 38,
      "F": 39,
      "G": 40,
      "H": 41,
      "I": 42,
      "J": 43,
      "K": 44,
      "L": 45,
      "M": 46,
      "N": 47,
      "O": 48,
      "P": 49,
      "Q": 50,
      "R": 51,
      "S": 52,
      "T": 53,
      "U": 54,
      "V": 55,
      "W": 56,
      "X": 57,
      "Y": 58,
      "Z": 59,
      "[": 60,
      "\\": 61,
      "]": 62,
      "^": 63,
      "_": 64,
      "`": 65,
      "a": 66,
      "b": 67,
      "c": 68,
      "d": 69,
      "e": 70,
      "f": 71,
      "g": 72,
      "h": 73,
      "i": 74,
      "j": 75,
      "k": 76,
      "l": 77,
      "m": 78,
      "n": 79,
      "o": 80,
      "p": 81,
      "q": 82,
      "r": 83,
      "s": 84,
      "t": 85,
      "u": 86,
      "v": 87,
      "w": 88,
      "x": 89,
      "y": 90,
      "z": 91,
      "{": 92,
      "|": 93,
      "}": 94,
      "~": 95,
      "¡": 96,
      "¢": 97,
      "£": 98,
      "¤": 99,
      "¥": 100,
      "¦": 101,
      "§": 102,
      "¨": 103,
      "©": 104,
      "ª": 105,
      "«": 106,
      "¬": 107,
      "®": 108,
      "¯": 109,
      "°": 110,
      "±": 111,
      "²": 112,
      "³": 113,
      "´": 114,
      "µ": 115,
      "¶": 116,
      "·": 117,
      "¸": 118,
      "¹": 119,
      "º": 120,
      "»": 121,
      "¼": 122,
      "½": 123,
      "¾": 124,
      "¿": 125,
      "À": 126,
      "Á": 127,
      "Â": 128,
      "Ã": 129,
      "Ä": 130,
      "Å": 131,
      "Æ": 132,
      "Ç": 133,
      "È": 134,
      "É": 135,
      "Ê": 136,
      "Ë": 137,
      "Ì": 138,
      "Í": 139,
      "Î": 140,
      "Ï": 141,
      "Ð": 142,
      "Ñ": 143,
      "Ò": 144,
      "Ó": 145,
      "Ô": 146,
      "Õ": 147,
      "Ö": 148,
      "×": 149,
      "Ø": 150,
      "Ù": 151,
      "Ú": 152,
      "Û": 153,
      "Ü": 154,
      "Ý": 155,
      "Þ": 156,
      "ß": 157,
      "à": 158,
      "á": 159,
      "â": 160,
      "ã": 161,
      "ä": 162,
      "å": 163,
      "æ": 164,
      "ç": 165,
      "è": 166,
      "é": 167,
      "ê": 168,
      "ë": 169,
      "ì": 170,
      "í": 171,
      "î": 172,
      "ï": 173,
      "ð": 174,
      "ñ": 175,
      "ò": 176,
      "ó": 177,
      "ô": 178,
      "õ": 179,
      "ö": 180,
      "÷": 181,
      "ø": 182,
      "ù": 183,
      "ú": 184,
      "û": 185,
      "ü": 186,
      "ý": 187,
      "þ": 188,
      "ÿ": 189,
      "Ā": 190,
      "ā": 191,
      "Ă": 192,
      "ă": 193,
      "Ą": 194,
      "ą": 195,
      "Ć": 196,
      "ć": 197,
      "Ĉ": 198,
      "ĉ": 199,
      "Ċ": 200,
      "ċ": 201,
      "Č": 202,
      "č": 203,
      "Ď": 204,
      "ď": 205,
      "Đ": 206,
      "đ": 207,
      "Ē": 208,
      "ē": 209,
      "Ĕ": 210,
      "ĕ": 211,
      "Ė": 212,
      "ė": 213,
      "Ę": 214,
      "ę": 215,
      "Ě": 216,
      "ě": 217,
      "Ĝ": 218,
      "ĝ": 219,
      "Ğ": 220,
      "ğ": 221,
      "Ġ": 222,
      "ġ": 223,
      "Ģ": 224,
      "ģ": 225,
      "Ĥ": 226,
      "ĥ": 227,
      "Ħ": 228,
      "ħ": 229,
      "Ĩ": 230,
      "ĩ": 231,
      "Ī": 232,
      "ī": 233,
      "Ĭ": 234,
      "ĭ": 235,
      "Į": 236,
      "į": 237,
      "İ": 238,
      "ı": 239,
      "Ĳ": 240,
      "ĳ": 241,
      "Ĵ": 242,
      "ĵ": 243,
      "Ķ": 244,
      "ķ": 245,
      "ĸ": 246,
      "Ĺ": 247,
      "ĺ": 248,
      "Ļ": 249,
      "ļ": 250,
      "Ľ": 251,
      "ľ": 252,
      "Ŀ": 253,
      "ŀ": 254,
      "Ł": 255,
      "ł": 256,
      "Ń": 257,
      "Ġt": 258,
      "Ġa": 259,
      "in": 260,
      "er": 261,
      "he": 262,
      "Ġs": 263,
      "on": 264,
      "re": 265,
      "Ġthe": 266,
      "Ġc": 267,
      "Ġo": 268,
      "ed": 269,
      "an": 270,
      "Ġw": 271,
      "es": 272,
      "Ġf": 273,
      "or": 274,
      "it": 275,
      "Ġb": 276,
      "Ġp": 277,
      "at": 278,
      "en": 279,
      "Ġm": 280,
      "ing": 281,
      "Ġin": 282,
      "al": 283,
      "ar": 284,
      "is": 285,
      "ic": 286,
      "Ġh": 287,
      "Ġto": 288,
      "Ġof": 289,
      "as": 290,
      "Ġan": 291,
      "Ġd": 292,
      "ro": 293,
      "ay": 294,
      "le": 295,
      "ter": 296,
      "Ġre": 297,
      "us": 298,
      "ion": 299,
      "Ġg": 300,
      "Ġn": 301,
      "il": 302,
      "Ġth": 303,
      "ou": 304,
      "Ġand": 305,
      "om": 306,
      "id": 307,
      "Ġl": 308,
      "Ġon": 309,
      "Ġe": 310,
      "ent": 311,
      "et": 312,
      "ir": 313,
      "un": 314,
      "day": 315,
      "st": 316,
      "ur": 317,
      "el": 318,
      "Ġst": 319,
      "ad": 320,
      "ac": 321,
      "ig": 322,
      "ec": 323,
      "am": 324,
      "ol": 325,
      "Ġfor": 326,
      "ly": 327,
      "Ġit": 328,
      "ut": 329,
      "ver": 330,
      "th": 331,
      "ve": 332,
      "Ġ3": 333,
      "im": 334,
      "Ġr": 335,
      "ill": 336,
      "ow": 337,
      "ot": 338,
      "Ġat": 339,
      "Ġy": 340,
      "ation": 341,
      "est": 342,
      "Ġ39": 343,
      "ers": 344,
      "Ġj": 345,
      "Ġthat": 346,
      "Ġas": 347,
      "ew": 348,
      "Ġcom": 349,
      "Ġbe": 350,
      "ch": 351,
      "igh": 352,
      "ith": 353,
      "ap": 354,
      "up": 355,
      "ters": 356,
      "ul": 357,
      "Ġwith": 358,
      "Ġpro": 359,
      "Ġis": 360,
      "qu": 361,
      "Ġch": 362,
      "ts": 363,
      "ear": 364,
      "os": 365,
      "Ġcon": 366,
      "Ġsh": 367,
      "Ġde": 368,
      "Ġsa": 369,
      "ce": 370,
      "and": 371,
      "Ġ1": 372,
      "Ġus": 373,
      "Ġk": 374,
      "Ġv": 375,
      "Ġhe": 376,
      "ag": 377,
      "ld": 378,
      "Ġits": 379,
      "ore": 380,
      "ain": 381,
      "op": 382,
      "uters": 383,
      "ak": 384,
      "Ġsaid": 385,
      "ment": 386,
      "Ġwh": 387,
      "mp": 388,
      "res": 389,
      "Ġun": 390,
      "Ġby": 391,
      "Ġal": 392,
      "ri": 393,
      "00": 394,
      "Ġle": 395,
      "Ġcomp": 396,
      "oun": 397,
      "Ġhas": 398,
      "oc": 399,
      "rom": 400,
      "ast": 401,
      "ug": 402,
      "Ġ2": 403,
      "ks": 404,
      "ust": 405,
      "ight": 406,
      "Ġex": 407,
      "all": 408,
      "Ġhis": 409,
      "ee": 410,
      "hen": 411,
      "if": 412,
      "Ġpl": 413,
      "Ġsp": 414,
      "Ġaf": 415,
      "Ġnew": 416,
      "Ġfrom": 417,
      "our": 418,
      "ian": 419,
      "Ġwas": 420,
      "oo": 421,
      "esday": 422,
      "ial": 423,
      "ort": 424,
      "Ġoff": 425,
      "Ġen": 426,
      "ess": 427,
      "ate": 428,
      "ct": 429,
      "ist": 430,
      "ies": 431,
      "ia": 432,
      "Ġag": 433,
      "ity": 434,
      "ave": 435,
      "ip": 436,
      "ost": 437,
      "art": 438,
      "ack": 439,
      "Ġinc": 440,
      "ra": 441,
      "Ġmon": 442,
      "um": 443,
      "Ġwill": 444,
      "are": 445,
      "old": 446,
      "ric": 447,
      "ud": 448,
      "em": 449,
      "Ġwor": 450,
      "Ġreuters": 451,
      "Ġafter": 452,
      "Ġro": 453,
      "Ġcl": 454,
      "Ġoly": 455,
      "Ġolymp": 456,
      "ine": 457,
      "ry": 458,
      "ere": 459,
      "Ġfr": 460,
      "Ġolympic": 461,
      "of": 462,
      "ard": 463,
      "Ġover": 464,
      "pp": 465,
      "Ġac": 466,
      "ive": 467,
      "ect": 468,
      "iv": 469,
      "ub": 470,
      "ab": 471,
      "Ġare": 472,
      "Ġfir": 473,
      "Ġhave": 474,
      "Ġup": 475,
      "ould": 476,
      "mer": 477,
      "Ġsec": 478,
      "Ġres": 479,
      "Ġmar": 480,
      "the": 481,
      "ell": 482,
      "any": 483,
      "Ġrep": 484,
      "Ġse": 485,
      "ans": 486,
      "Ġtw": 487,
      "Ġab": 488,
      "hens": 489,
      "Ġtheir": 490,
      "ond": 491,
      "ong": 492,
      "Ġte": 493,
      "end": 494,
      "ning": 495,
      "arg": 496,
      "ork": 497,
      "to": 498,
      "ice": 499,
      "Ġfin": 500,
      "Ġbut": 501,
      "Ġgo": 502,
      "Ġexp": 503,
      "Ġinter": 504,
      "Ġout": 505,
      "urs": 506,
      "ther": 507,
      "ord": 508,
      "ome": 509,
      "Ġyear": 510,
      "Ġtr": 511,
      "out": 512,
      "ree": 513,
      "Ġqu": 514,
      "ens": 515,
      "Ġfirst": 516,
      "ions": 517,
      "Ġser": 518,
      "Ġmed": 519,
      "ant": 520,
      "af": 521,
      "ick": 522,
      "Ġgro": 523,
      "Ġir": 524,
      "aq": 525,
      "ime": 526,
      "ire": 527,
      "ace": 528,
      "ursday": 529,
      "und": 530,
      "Ġper": 531,
      "Ġthursday": 532,
      "Ġwin": 533,
      "Ġpres": 534,
      "iday": 535,
      "Ġar": 536,
      "Ġmore": 537,
      "Ġmo": 538,
      "Ġad": 539,
      "hed": 540,
      "ors": 541,
      "Ġor": 542,
      "ile": 543,
      "ous": 544,
      "Ġtwo": 545,
      "Ġtu": 546,
      "Ġsc": 547,
      "ich": 548,
      "Ġne": 549,
      "Ġtuesday": 550,
      "illion": 551,
      "Ġwee": 552,
      "Ġrec": 553,
      "ure": 554,
      "Ġfriday": 555,
      "age": 556,
      "ail": 557,
      "ge": 558,
      "uc": 559,
      "Ġop": 560,
      "Ġthis": 561,
      "ations": 562,
      "ays": 563,
      "Ġdis": 564,
      "Ġcont": 565,
      "Ġpric": 566,
      "oft": 567,
      "Ġapp": 568,
      "Ġpe": 569,
      "ite": 570,
      "Ġwed": 571,
      "ide": 572,
      "Ġiraq": 573,
      "nesday": 574,
      "Ġwednesday": 575,
      "Ġbr": 576,
      "ke": 577,
      "Ġmonday": 578,
      "Ġcompany": 579,
      "reuters": 580,
      "Ġnot": 581,
      "ates": 582,
      "Ġacc": 583,
      "vest": 584,
      "anc": 585,
      "ign": 586,
      "Ġcr": 587,
      "ish": 588,
      "Ġyork": 589,
      "av": 590,
      "ident": 591,
      "Ġbl": 592,
      "ame": 593,
      "lic": 594,
      "ket": 595,
      "Ġind": 596,
      "Ġthan": 597,
      "Ġone": 598,
      "Ġworld": 599,
      "ting": 600,
      "ue": 601,
      "ited": 602,
      "ie": 603,
      "Ġmin": 604,
      "ull": 605,
      "tor": 606,
      "Ġcor": 607,
      "se": 608,
      "aj": 609,
      "der": 610,
      "ester": 611,
      "own": 612,
      "Ġintern": 613,
      "Ġall": 614,
      "Ġgre": 615,
      "hn": 616,
      "ated": 617,
      "ational": 618,
      "ton": 619,
      "Ġoil": 620,
      "amp": 621,
      "Ġim": 622,
      "one": 623,
      "Ġ200": 624,
      "new": 625,
      "Ġco": 626,
      "ass": 627,
      "athens": 628,
      "Ġthey": 629,
      "ib": 630,
      "ase": 631,
      "Ġhigh": 632,
      "Ġlast": 633,
      "og": 634,
      "Ġweek": 635,
      "Ġgold": 636,
      "Ġwho": 637,
      "Ġagain": 638,
      "Ġjo": 639,
      "Ġban": 640,
      "ote": 641,
      "Ġabout": 642,
      "Ġwere": 643,
      "Ġlead": 644,
      "Ġcorp": 645,
      "ake": 646,
      "ance": 647,
      "Ġwe": 648,
      "etw": 649,
      "ary": 650,
      "Ġbus": 651,
      "Ġmil": 652,
      "earch": 653,
      "Ġair": 654,
      "als": 655,
      "iz": 656,
      "Ġinto": 657,
      "ount": 658,
      "ros": 659,
      "com": 660,
      "ade": 661,
      "Ġman": 662,
      "vers": 663,
      "Ġoffic": 664,
      "vern": 665,
      "ence": 666,
      "Ġ4": 667,
      "aw": 668,
      "ition": 669,
      "xt": 670,
      "for": 671,
      "Ġgovern": 672,
      "Ġear": 673,
      "ach": 674,
      "ber": 675,
      "Ġbo": 676,
      "Ġsun": 677,
      "Ġyester": 678,
      "Ġfl": 679,
      "Ġyesterday": 680,
      "ash": 681,
      "Ġprices": 682,
      "Ġhad": 683,
      "Ġsat": 684,
      "Ġbeen": 685,
      "Ġteam": 686,
      "ath": 687,
      "Ġreport": 688,
      "Ġamer": 689,
      "Ġpol": 690,
      "Ġameric": 691,
      "act": 692,
      "Ġsecond": 693,
      "Ġcomm": 694,
      "ds": 695,
      "ven": 696,
      "Ġpr": 697,
      "Ġatt": 698,
      "ased": 699,
      "ating": 700,
      "Ġgovernment": 701,
      "Ġcan": 702,
      "arter": 703,
      "Ġserv": 704,
      "Ġpresident": 705,
      "Ġofficial": 706,
      "ey": 707,
      "uct": 708,
      "lo": 709,
      "Ġann": 710,
      "ht": 711,
      "Ġaug": 712,
      "ally": 713,
      "lect": 714,
      "urn": 715,
      "Ġagainst": 716,
      "iss": 717,
      "Ġunited": 718,
      "Ġwhen": 719,
      "led": 720,
      "ound": 721,
      "Ġmedal": 722,
      "Ġret": 723,
      "Ġend": 724,
      "ock": 725,
      "ral": 726,
      "vel": 727,
      "Ġinvest": 728,
      "Ġno": 729,
      "Ġprof": 730,
      "Ġsl": 731,
      "Ġwhich": 732,
      "Ġreg": 733,
      "Ġmilit": 734,
      "Ġme": 735,
      "ww": 736,
      "Ġwould": 737,
      "Ġpeop": 738,
      "cent": 739,
      "Ġmillion": 740,
      "Ġstr": 741,
      "Ġpre": 742,
      "Ġsunday": 743,
      "eral": 744,
      "Ġsup": 745,
      "Ġthree": 746,
      "Ġfour": 747,
      "Ġgroup": 748,
      "Ġplan": 749,
      "Ġset": 750,
      "con": 751,
      "yst": 752,
      "Ġmarket": 753,
      "Ġcons": 754,
      "urday": 755,
      "Ġsaturday": 756,
      "Ġam": 757,
      "Ġcould": 758,
      "Ġnight": 759,
      "man": 760,
      "Ġbec": 761,
      "ren": 762,
      "Ġcount": 763,
      "ted": 764,
      "Ġph": 765,
      "ged": 766,
      "ames": 767,
      "Ġbu": 768,
      "ocks": 769,
      "Ġwar": 770,
      "ublic": 771,
      "Ġpeople": 772,
      "Ġpart": 773,
      "lp": 774,
      "ced": 775,
      "king": 776,
      "Ġdec": 777,
      "Ġgoo": 778,
      "Ġplay": 779,
      "ical": 780,
      "ware": 781,
      "Ġso": 782,
      "Ġdo": 783,
      "uss": 784,
      "Ġpercent": 785,
      "Ġ5": 786,
      "ected": 787,
      "rop": 788,
      "Ġyears": 789,
      "ullqu": 790,
      "land": 791,
      "Ġjust": 792,
      "tle": 793,
      "co": 794,
      "Ġtime": 795,
      "ington": 796,
      "ister": 797,
      "orts": 798,
      "ina": 799,
      "Ġdes": 800,
      "Ġtoday": 801,
      "Ġdef": 802,
      "Ġsur": 803,
      "Ġsou": 804,
      "Ġ6": 805,
      "ower": 806,
      "Ġimp": 807,
      "Ġsome": 808,
      "Ġsoft": 809,
      "ely": 810,
      "Ġsw": 811,
      "Ġsecur": 812,
      "Ġdown": 813,
      "wn": 814,
      "Ġback": 815,
      "Ġstates": 816,
      "line": 817,
      "Ġsal": 818,
      "oll": 819,
      "tory": 820,
      "Ġher": 821,
      "iness": 822,
      "ose": 823,
      "Ġtec": 824,
      "Ġresearch": 825,
      "ier": 826,
      "Ġrecord": 827,
      "Ġbro": 828,
      "ff": 829,
      "Ġrun": 830,
      "ult": 831,
      "Ġbank": 832,
      "Ġannoun": 833,
      "les": 834,
      "Ġprod": 835,
      "Ġfinal": 836,
      "vent": 837,
      "Ġcour": 838,
      "Ġint": 839,
      "ists": 840,
      "ows": 841,
      "ajaf": 842,
      "Ġcap": 843,
      "Ġmonth": 844,
      "ital": 845,
      "Ġmak": 846,
      "use": 847,
      "Ġkill": 848,
      "ugh": 849,
      "ines": 850,
      "Ġcity": 851,
      "Ġdem": 852,
      "able": 853,
      "ms": 854,
      "Ġminister": 855,
      "ball": 856,
      "gh": 857,
      "ger": 858,
      "Ġinternet": 859,
      "ities": 860,
      "Ġathens": 861,
      "oss": 862,
      "ok": 863,
      "Ġolympics": 864,
      "Ġbusiness": 865,
      "Ġsoftware": 866,
      "ystem": 867,
      "Ġbig": 868,
      "Ġday": 869,
      "Ġgames": 870,
      "Ġoffer": 871,
      "ix": 872,
      "Ġter": 873,
      "its": 874,
      "olog": 875,
      "Ġcar": 876,
      "ustral": 877,
      "Ġwon": 878,
      "ep": 879,
      "ics": 880,
      "Ġmay": 881,
      "ise": 882,
      "Ġass": 883,
      "ird": 884,
      "Ġdr": 885,
      "Ġelect": 886,
      "Ġquarter": 887,
      "ft": 888,
      "icros": 889,
      "ual": 890,
      "ved": 891,
      "Ġhelp": 892,
      "Ġlong": 893,
      "Ġli": 894,
      "Ġecon": 895,
      "Ġeconom": 896,
      "ullquote": 897,
      "Ġvic": 898,
      "Ġsystem": 899,
      "Ġsupp": 900,
      "od": 901,
      "uch": 902,
      "Ġmus": 903,
      "ason": 904,
      "Ġfed": 905,
      "app": 906,
      "Ġcountry": 907,
      "ied": 908,
      "Ġofficials": 909,
      "ious": 910,
      "Ġnext": 911,
      "Ġcol": 912,
      "ater": 913,
      "Ġconf": 914,
      "Ġother": 915,
      "gr": 916,
      "ling": 917,
      "ets": 918,
      "Ġ7": 919,
      "ece": 920,
      "Ġtechn": 921,
      "Ġamerican": 922,
      "Ġgr": 923,
      "ked": 924,
      "bs": 925,
      "Ġshe": 926,
      "gle": 927,
      "icrosoft": 928,
      "Ġwom": 929,
      "Ġrele": 930,
      "Ġnor": 931,
      "Ġnetw": 932,
      "tp": 933,
      "Ġ8": 934,
      "Ġmost": 935,
      "Ġstate": 936,
      "Ġservice": 937,
      "Ġtarg": 938,
      "Ġsecurity": 939,
      "ph": 940,
      "ings": 941,
      "Ġgu": 942,
      "Ġlarg": 943,
      "ands": 944,
      "med": 945,
      "els": 946,
      "enc": 947,
      "air": 948,
      "Ġsay": 949,
      "Ġtop": 950,
      "Ġnational": 951,
      "uring": 952,
      "az": 953,
      "ient": 954,
      "Ġtri": 955,
      "ange": 956,
      "Ġunder": 957,
      "ned": 958,
      "Ġrel": 959,
      "Ġchamp": 960,
      "Ġnear": 961,
      "ments": 962,
      "Ġopen": 963,
      "Ġdep": 964,
      "Ġcourt": 965,
      "hes": 966,
      "Ġreported": 967,
      "ood": 968,
      "Ġbillion": 969,
      "Ġ15": 970,
      "Ġals": 971,
      "Ġpo": 972,
      "Ġpublic": 973,
      "Ġthro": 974,
      "ecut": 975,
      "Ġvi": 976,
      "Ġcall": 977,
      "Ġgreece": 978,
      "ording": 979,
      "Ġoper": 980,
      "Ġ19": 981,
      "Ġeng": 982,
      "Ġgrow": 983,
      "ble": 984,
      "Ġhome": 985,
      "Ġyou": 986,
      "Ġannounced": 987,
      "lud": 988,
      "gest": 989,
      "ley": 990,
      "Ġshow": 991,
      "Ġsales": 992,
      "ares": 993,
      "fore": 994,
      "Ġaustral": 995,
      "Ġtarget": 996,
      "Ġgian": 997,
      "Ġnews": 998,
      "Ġruss": 999
    },
    "merges": [
      [
        "Ġ",
        "t"
      ],
      [
        "Ġ",
        "a"
      ],
      [
        "i",
        "n"
      ],
      [
        "e",
        "r"
      ],
      [
        "h",
        "e"
      ],
      [
        "Ġ",
        "s"
      ],
      [
        "o",
        "n"
      ],
      [
        "r",
        "e"
      ],
      [
        "Ġt",
        "he"
      ],
      [
        "Ġ",
        "c"
      ],
      [
        "Ġ",
        "o"
      ],
      [
        "e",
        "d"
      ],
      [
        "a",
        "n"
      ],
      [
        "Ġ",
        "w"
      ],
      [
        "e",
        "s"
      ],
      [
        "Ġ",
        "f"
      ],
      [
        "o",
        "r"
      ],
      [
        "i",
        "t"
      ],
      [
        "Ġ",
        "b"
      ],
      [
        "Ġ",
        "p"
      ],
      [
        "a",
        "t"
      ],
      [
        "e",
        "n"
      ],
      [
        "Ġ",
        "m"
      ],
      [
        "in",
        "g"
      ],
      [
        "Ġ",
        "in"
      ],
      [
        "a",
        "l"
      ],
      [
        "a",
        "r"
      ],
      [
        "i",
        "s"
      ],
      [
        "i",
        "c"
      ],
      [
        "Ġ",
        "h"
      ],
      [
        "Ġt",
        "o"
      ],
      [
        "Ġo",
        "f"
      ],
      [
        "a",
        "s"
      ],
      [
        "Ġa",
        "n"
      ],
      [
        "Ġ",
        "d"
      ],
      [
        "r",
        "o"
      ],
      [
        "a",
        "y"
      ],
      [
        "l",
        "e"
      ],
      [
        "t",
        "er"
      ],
      [
        "Ġ",
        "re"
      ],
      [
        "u",
        "s"
      ],
      [
        "i",
        "on"
      ],
      [
        "Ġ",
        "g"
      ],
      [
        "Ġ",
        "n"
      ],
      [
        "i",
        "l"
      ],
      [
        "Ġt",
        "h"
      ],
      [
        "o",
        "u"
      ],
      [
        "Ġan",
        "d"
      ],
      [
        "o",
        "m"
      ],
      [
        "i",
        "d"
      ],
      [
        "Ġ",
        "l"
      ],
      [
        "Ġ",
        "on"
      ],
      [
        "Ġ",
        "e"
      ],
      [
        "en",
        "t"
      ],
      [
        "e",
        "t"
      ],
      [
        "i",
        "r"
      ],
      [
        "u",
        "n"
      ],
      [
        "d",
        "ay"
      ],
      [
        "s",
        "t"
      ],
      [
        "u",
        "r"
      ],
      [
        "e",
        "l"
      ],
      [
        "Ġs",
        "t"
      ],
      [
        "a",
        "d"
      ],
      [
        "a",
        "c"
      ],
      [
        "i",
        "g"
      ],
      [
        "e",
        "c"
      ],
      [
        "a",
        "m"
      ],
      [
        "o",
        "l"
      ],
      [
        "Ġf",
        "or"
      ],
      [
        "l",
        "y"
      ],
      [
        "Ġ",
        "it"
      ],
      [
        "u",
        "t"
      ],
      [
        "v",
        "er"
      ],
      [
        "t",
        "h"
      ],
      [
        "v",
        "e"
      ],
      [
        "Ġ",
        "3"
      ],
      [
        "i",
        "m"
      ],
      [
        "Ġ",
        "r"
      ],
      [
        "il",
        "l"
      ],
      [
        "o",
        "w"
      ],
      [
        "o",
        "t"
      ],
      [
        "Ġa",
        "t"
      ],
      [
        "Ġ",
        "y"
      ],
      [
        "at",
        "ion"
      ],
      [
        "es",
        "t"
      ],
      [
        "Ġ3",
        "9"
      ],
      [
        "er",
        "s"
      ],
      [
        "Ġ",
        "j"
      ],
      [
        "Ġth",
        "at"
      ],
      [
        "Ġa",
        "s"
      ],
      [
        "e",
        "w"
      ],
      [
        "Ġc",
        "om"
      ],
      [
        "Ġb",
        "e"
      ],
      [
        "c",
        "h"
      ],
      [
        "ig",
        "h"
      ],
      [
        "it",
        "h"
      ],
      [
        "a",
        "p"
      ],
      [
        "u",
        "p"
      ],
      [
        "ter",
        "s"
      ],
      [
        "u",
        "l"
      ],
      [
        "Ġw",
        "ith"
      ],
      [
        "Ġp",
        "ro"
      ],
      [
        "Ġ",
        "is"
      ],
      [
        "q",
        "u"
      ],
      [
        "Ġc",
        "h"
      ],
      [
        "t",
        "s"
      ],
      [
        "e",
        "ar"
      ],
      [
        "o",
        "s"
      ],
      [
        "Ġc",
        "on"
      ],
      [
        "Ġs",
        "h"
      ],
      [
        "Ġd",
        "e"
      ],
      [
        "Ġs",
        "a"
      ],
      [
        "c",
        "e"
      ],
      [
        "an",
        "d"
      ],
      [
        "Ġ",
        "1"
      ],
      [
        "Ġ",
        "us"
      ],
      [
        "Ġ",
        "k"
      ],
      [
        "Ġ",
        "v"
      ],
      [
        "Ġ",
        "he"
      ],
      [
        "a",
        "g"
      ],
      [
        "l",
        "d"
      ],
      [
        "Ġit",
        "s"
      ],
      [
        "o",
        "re"
      ],
      [
        "a",
        "in"
      ],
      [
        "o",
        "p"
      ],
      [
        "u",
        "ters"
      ],
      [
        "a",
        "k"
      ],
      [
        "Ġsa",
        "id"
      ],
      [
        "m",
        "ent"
      ],
      [
        "Ġw",
        "h"
      ],
      [
        "m",
        "p"
      ],
      [
        "re",
        "s"
      ],
      [
        "Ġ",
        "un"
      ],
      [
        "Ġb",
        "y"
      ],
      [
        "Ġa",
        "l"
      ],
      [
        "r",
        "i"
      ],
      [
        "0",
        "0"
      ],
      [
        "Ġ",
        "le"
      ],
      [
        "Ġcom",
        "p"
      ],
      [
        "ou",
        "n"
      ],
      [
        "Ġh",
        "as"
      ],
      [
        "o",
        "c"
      ],
      [
        "ro",
        "m"
      ],
      [
        "as",
        "t"
      ],
      [
        "u",
        "g"
      ],
      [
        "Ġ",
        "2"
      ],
      [
        "k",
        "s"
      ],
      [
        "us",
        "t"
      ],
      [
        "igh",
        "t"
      ],
      [
        "Ġe",
        "x"
      ],
      [
        "al",
        "l"
      ],
      [
        "Ġh",
        "is"
      ],
      [
        "e",
        "e"
      ],
      [
        "he",
        "n"
      ],
      [
        "i",
        "f"
      ],
      [
        "Ġp",
        "l"
      ],
      [
        "Ġs",
        "p"
      ],
      [
        "Ġa",
        "f"
      ],
      [
        "Ġn",
        "ew"
      ],
      [
        "Ġf",
        "rom"
      ],
      [
        "ou",
        "r"
      ],
      [
        "i",
        "an"
      ],
      [
        "Ġw",
        "as"
      ],
      [
        "o",
        "o"
      ],
      [
        "es",
        "day"
      ],
      [
        "i",
        "al"
      ],
      [
        "or",
        "t"
      ],
      [
        "Ġof",
        "f"
      ],
      [
        "Ġ",
        "en"
      ],
      [
        "es",
        "s"
      ],
      [
        "at",
        "e"
      ],
      [
        "c",
        "t"
      ],
      [
        "is",
        "t"
      ],
      [
        "i",
        "es"
      ],
      [
        "i",
        "a"
      ],
      [
        "Ġa",
        "g"
      ],
      [
        "it",
        "y"
      ],
      [
        "a",
        "ve"
      ],
      [
        "i",
        "p"
      ],
      [
        "o",
        "st"
      ],
      [
        "ar",
        "t"
      ],
      [
        "ac",
        "k"
      ],
      [
        "Ġin",
        "c"
      ],
      [
        "r",
        "a"
      ],
      [
        "Ġm",
        "on"
      ],
      [
        "u",
        "m"
      ],
      [
        "Ġw",
        "ill"
      ],
      [
        "a",
        "re"
      ],
      [
        "ol",
        "d"
      ],
      [
        "r",
        "ic"
      ],
      [
        "u",
        "d"
      ],
      [
        "e",
        "m"
      ],
      [
        "Ġw",
        "or"
      ],
      [
        "Ġre",
        "uters"
      ],
      [
        "Ġaf",
        "ter"
      ],
      [
        "Ġ",
        "ro"
      ],
      [
        "Ġc",
        "l"
      ],
      [
        "Ġo",
        "ly"
      ],
      [
        "Ġoly",
        "mp"
      ],
      [
        "in",
        "e"
      ],
      [
        "r",
        "y"
      ],
      [
        "er",
        "e"
      ],
      [
        "Ġf",
        "r"
      ],
      [
        "Ġolymp",
        "ic"
      ],
      [
        "o",
        "f"
      ],
      [
        "ar",
        "d"
      ],
      [
        "Ġo",
        "ver"
      ],
      [
        "p",
        "p"
      ],
      [
        "Ġa",
        "c"
      ],
      [
        "i",
        "ve"
      ],
      [
        "ec",
        "t"
      ],
      [
        "i",
        "v"
      ],
      [
        "u",
        "b"
      ],
      [
        "a",
        "b"
      ],
      [
        "Ġa",
        "re"
      ],
      [
        "Ġf",
        "ir"
      ],
      [
        "Ġh",
        "ave"
      ],
      [
        "Ġ",
        "up"
      ],
      [
        "ou",
        "ld"
      ],
      [
        "m",
        "er"
      ],
      [
        "Ġs",
        "ec"
      ],
      [
        "Ġre",
        "s"
      ],
      [
        "Ġm",
        "ar"
      ],
      [
        "t",
        "he"
      ],
      [
        "el",
        "l"
      ],
      [
        "an",
        "y"
      ],
      [
        "Ġre",
        "p"
      ],
      [
        "Ġs",
        "e"
      ],
      [
        "an",
        "s"
      ],
      [
        "Ġt",
        "w"
      ],
      [
        "Ġa",
        "b"
      ],
      [
        "hen",
        "s"
      ],
      [
        "Ġthe",
        "ir"
      ],
      [
        "on",
        "d"
      ],
      [
        "on",
        "g"
      ],
      [
        "Ġt",
        "e"
      ],
      [
        "en",
        "d"
      ],
      [
        "n",
        "ing"
      ],
      [
        "ar",
        "g"
      ],
      [
        "or",
        "k"
      ],
      [
        "t",
        "o"
      ],
      [
        "ic",
        "e"
      ],
      [
        "Ġf",
        "in"
      ],
      [
        "Ġb",
        "ut"
      ],
      [
        "Ġg",
        "o"
      ],
      [
        "Ġex",
        "p"
      ],
      [
        "Ġin",
        "ter"
      ],
      [
        "Ġo",
        "ut"
      ],
      [
        "ur",
        "s"
      ],
      [
        "th",
        "er"
      ],
      [
        "or",
        "d"
      ],
      [
        "om",
        "e"
      ],
      [
        "Ġy",
        "ear"
      ],
      [
        "Ġt",
        "r"
      ],
      [
        "ou",
        "t"
      ],
      [
        "re",
        "e"
      ],
      [
        "Ġ",
        "qu"
      ],
      [
        "en",
        "s"
      ],
      [
        "Ġfir",
        "st"
      ],
      [
        "ion",
        "s"
      ],
      [
        "Ġs",
        "er"
      ],
      [
        "Ġm",
        "ed"
      ],
      [
        "an",
        "t"
      ],
      [
        "a",
        "f"
      ],
      [
        "ic",
        "k"
      ],
      [
        "Ġg",
        "ro"
      ],
      [
        "Ġ",
        "ir"
      ],
      [
        "a",
        "q"
      ],
      [
        "im",
        "e"
      ],
      [
        "i",
        "re"
      ],
      [
        "ac",
        "e"
      ],
      [
        "urs",
        "day"
      ],
      [
        "un",
        "d"
      ],
      [
        "Ġp",
        "er"
      ],
      [
        "Ġth",
        "ursday"
      ],
      [
        "Ġw",
        "in"
      ],
      [
        "Ġp",
        "res"
      ],
      [
        "id",
        "ay"
      ],
      [
        "Ġa",
        "r"
      ],
      [
        "Ġm",
        "ore"
      ],
      [
        "Ġm",
        "o"
      ],
      [
        "Ġa",
        "d"
      ],
      [
        "he",
        "d"
      ],
      [
        "or",
        "s"
      ],
      [
        "Ġo",
        "r"
      ],
      [
        "i",
        "le"
      ],
      [
        "o",
        "us"
      ],
      [
        "Ġtw",
        "o"
      ],
      [
        "Ġt",
        "u"
      ],
      [
        "Ġs",
        "c"
      ],
      [
        "ic",
        "h"
      ],
      [
        "Ġn",
        "e"
      ],
      [
        "Ġtu",
        "esday"
      ],
      [
        "ill",
        "ion"
      ],
      [
        "Ġw",
        "ee"
      ],
      [
        "Ġre",
        "c"
      ],
      [
        "u",
        "re"
      ],
      [
        "Ġfr",
        "iday"
      ],
      [
        "ag",
        "e"
      ],
      [
        "a",
        "il"
      ],
      [
        "g",
        "e"
      ],
      [
        "u",
        "c"
      ],
      [
        "Ġo",
        "p"
      ],
      [
        "Ġth",
        "is"
      ],
      [
        "ation",
        "s"
      ],
      [
        "ay",
        "s"
      ],
      [
        "Ġd",
        "is"
      ],
      [
        "Ġcon",
        "t"
      ],
      [
        "Ġp",
        "ric"
      ],
      [
        "of",
        "t"
      ],
      [
        "Ġa",
        "pp"
      ],
      [
        "Ġp",
        "e"
      ],
      [
        "it",
        "e"
      ],
      [
        "Ġw",
        "ed"
      ],
      [
        "id",
        "e"
      ],
      [
        "Ġir",
        "aq"
      ],
      [
        "n",
        "esday"
      ],
      [
        "Ġwed",
        "nesday"
      ],
      [
        "Ġb",
        "r"
      ],
      [
        "k",
        "e"
      ],
      [
        "Ġmon",
        "day"
      ],
      [
        "Ġcomp",
        "any"
      ],
      [
        "re",
        "uters"
      ],
      [
        "Ġn",
        "ot"
      ],
      [
        "at",
        "es"
      ],
      [
        "Ġac",
        "c"
      ],
      [
        "v",
        "est"
      ],
      [
        "an",
        "c"
      ],
      [
        "ig",
        "n"
      ],
      [
        "Ġc",
        "r"
      ],
      [
        "is",
        "h"
      ],
      [
        "Ġy",
        "ork"
      ],
      [
        "a",
        "v"
      ],
      [
        "id",
        "ent"
      ],
      [
        "Ġb",
        "l"
      ],
      [
        "am",
        "e"
      ],
      [
        "l",
        "ic"
      ],
      [
        "k",
        "et"
      ],
      [
        "Ġin",
        "d"
      ],
      [
        "Ġth",
        "an"
      ],
      [
        "Ġon",
        "e"
      ],
      [
        "Ġwor",
        "ld"
      ],
      [
        "t",
        "ing"
      ],
      [
        "u",
        "e"
      ],
      [
        "it",
        "ed"
      ],
      [
        "i",
        "e"
      ],
      [
        "Ġm",
        "in"
      ],
      [
        "ul",
        "l"
      ],
      [
        "t",
        "or"
      ],
      [
        "Ġc",
        "or"
      ],
      [
        "s",
        "e"
      ],
      [
        "a",
        "j"
      ],
      [
        "d",
        "er"
      ],
      [
        "es",
        "ter"
      ],
      [
        "ow",
        "n"
      ],
      [
        "Ġinter",
        "n"
      ],
      [
        "Ġal",
        "l"
      ],
      [
        "Ġg",
        "re"
      ],
      [
        "h",
        "n"
      ],
      [
        "at",
        "ed"
      ],
      [
        "ation",
        "al"
      ],
      [
        "t",
        "on"
      ],
      [
        "Ġo",
        "il"
      ],
      [
        "am",
        "p"
      ],
      [
        "Ġ",
        "im"
      ],
      [
        "on",
        "e"
      ],
      [
        "Ġ2",
        "00"
      ],
      [
        "n",
        "ew"
      ],
      [
        "Ġc",
        "o"
      ],
      [
        "as",
        "s"
      ],
      [
        "at",
        "hens"
      ],
      [
        "Ġthe",
        "y"
      ],
      [
        "i",
        "b"
      ],
      [
        "as",
        "e"
      ],
      [
        "Ġh",
        "igh"
      ],
      [
        "Ġl",
        "ast"
      ],
      [
        "o",
        "g"
      ],
      [
        "Ġwee",
        "k"
      ],
      [
        "Ġg",
        "old"
      ],
      [
        "Ġwh",
        "o"
      ],
      [
        "Ġag",
        "ain"
      ],
      [
        "Ġj",
        "o"
      ],
      [
        "Ġb",
        "an"
      ],
      [
        "ot",
        "e"
      ],
      [
        "Ġab",
        "out"
      ],
      [
        "Ġw",
        "ere"
      ],
      [
        "Ġle",
        "ad"
      ],
      [
        "Ġcor",
        "p"
      ],
      [
        "ak",
        "e"
      ],
      [
        "an",
        "ce"
      ],
      [
        "Ġw",
        "e"
      ],
      [
        "et",
        "w"
      ],
      [
        "ar",
        "y"
      ],
      [
        "Ġb",
        "us"
      ],
      [
        "Ġm",
        "il"
      ],
      [
        "ear",
        "ch"
      ],
      [
        "Ġa",
        "ir"
      ],
      [
        "al",
        "s"
      ],
      [
        "i",
        "z"
      ],
      [
        "Ġin",
        "to"
      ],
      [
        "oun",
        "t"
      ],
      [
        "ro",
        "s"
      ],
      [
        "c",
        "om"
      ],
      [
        "ad",
        "e"
      ],
      [
        "Ġm",
        "an"
      ],
      [
        "ver",
        "s"
      ],
      [
        "Ġoff",
        "ic"
      ],
      [
        "ver",
        "n"
      ],
      [
        "en",
        "ce"
      ],
      [
        "Ġ",
        "4"
      ],
      [
        "a",
        "w"
      ],
      [
        "it",
        "ion"
      ],
      [
        "x",
        "t"
      ],
      [
        "f",
        "or"
      ],
      [
        "Ġgo",
        "vern"
      ],
      [
        "Ġe",
        "ar"
      ],
      [
        "ac",
        "h"
      ],
      [
        "b",
        "er"
      ],
      [
        "Ġb",
        "o"
      ],
      [
        "Ġs",
        "un"
      ],
      [
        "Ġy",
        "ester"
      ],
      [
        "Ġf",
        "l"
      ],
      [
        "Ġyester",
        "day"
      ],
      [
        "as",
        "h"
      ],
      [
        "Ġpric",
        "es"
      ],
      [
        "Ġh",
        "ad"
      ],
      [
        "Ġs",
        "at"
      ],
      [
        "Ġbe",
        "en"
      ],
      [
        "Ġte",
        "am"
      ],
      [
        "at",
        "h"
      ],
      [
        "Ġrep",
        "ort"
      ],
      [
        "Ġa",
        "mer"
      ],
      [
        "Ġp",
        "ol"
      ],
      [
        "Ġamer",
        "ic"
      ],
      [
        "ac",
        "t"
      ],
      [
        "Ġsec",
        "ond"
      ],
      [
        "Ġcom",
        "m"
      ],
      [
        "d",
        "s"
      ],
      [
        "v",
        "en"
      ],
      [
        "Ġp",
        "r"
      ],
      [
        "Ġat",
        "t"
      ],
      [
        "as",
        "ed"
      ],
      [
        "at",
        "ing"
      ],
      [
        "Ġgovern",
        "ment"
      ],
      [
        "Ġc",
        "an"
      ],
      [
        "ar",
        "ter"
      ],
      [
        "Ġser",
        "v"
      ],
      [
        "Ġpres",
        "ident"
      ],
      [
        "Ġoffic",
        "ial"
      ],
      [
        "e",
        "y"
      ],
      [
        "u",
        "ct"
      ],
      [
        "l",
        "o"
      ],
      [
        "Ġan",
        "n"
      ],
      [
        "h",
        "t"
      ],
      [
        "Ġa",
        "ug"
      ],
      [
        "al",
        "ly"
      ],
      [
        "le",
        "ct"
      ],
      [
        "ur",
        "n"
      ],
      [
        "Ġagain",
        "st"
      ],
      [
        "is",
        "s"
      ],
      [
        "Ġun",
        "ited"
      ],
      [
        "Ġw",
        "hen"
      ],
      [
        "l",
        "ed"
      ],
      [
        "oun",
        "d"
      ],
      [
        "Ġmed",
        "al"
      ],
      [
        "Ġre",
        "t"
      ],
      [
        "Ġen",
        "d"
      ],
      [
        "oc",
        "k"
      ],
      [
        "r",
        "al"
      ],
      [
        "v",
        "el"
      ],
      [
        "Ġin",
        "vest"
      ],
      [
        "Ġn",
        "o"
      ],
      [
        "Ġpro",
        "f"
      ],
      [
        "Ġs",
        "l"
      ],
      [
        "Ġwh",
        "ich"
      ],
      [
        "Ġre",
        "g"
      ],
      [
        "Ġmil",
        "it"
      ],
      [
        "Ġm",
        "e"
      ],
      [
        "w",
        "w"
      ],
      [
        "Ġw",
        "ould"
      ],
      [
        "Ġpe",
        "op"
      ],
      [
        "c",
        "ent"
      ],
      [
        "Ġm",
        "illion"
      ],
      [
        "Ġst",
        "r"
      ],
      [
        "Ġp",
        "re"
      ],
      [
        "Ġsun",
        "day"
      ],
      [
        "er",
        "al"
      ],
      [
        "Ġs",
        "up"
      ],
      [
        "Ġth",
        "ree"
      ],
      [
        "Ġf",
        "our"
      ],
      [
        "Ġgro",
        "up"
      ],
      [
        "Ġpl",
        "an"
      ],
      [
        "Ġs",
        "et"
      ],
      [
        "c",
        "on"
      ],
      [
        "y",
        "st"
      ],
      [
        "Ġmar",
        "ket"
      ],
      [
        "Ġcon",
        "s"
      ],
      [
        "ur",
        "day"
      ],
      [
        "Ġsat",
        "urday"
      ],
      [
        "Ġa",
        "m"
      ],
      [
        "Ġc",
        "ould"
      ],
      [
        "Ġn",
        "ight"
      ],
      [
        "m",
        "an"
      ],
      [
        "Ġb",
        "ec"
      ],
      [
        "re",
        "n"
      ],
      [
        "Ġc",
        "ount"
      ],
      [
        "t",
        "ed"
      ],
      [
        "Ġp",
        "h"
      ],
      [
        "g",
        "ed"
      ],
      [
        "am",
        "es"
      ],
      [
        "Ġb",
        "u"
      ],
      [
        "oc",
        "ks"
      ],
      [
        "Ġw",
        "ar"
      ],
      [
        "ub",
        "lic"
      ],
      [
        "Ġpeop",
        "le"
      ],
      [
        "Ġp",
        "art"
      ],
      [
        "l",
        "p"
      ],
      [
        "c",
        "ed"
      ],
      [
        "k",
        "ing"
      ],
      [
        "Ġd",
        "ec"
      ],
      [
        "Ġg",
        "oo"
      ],
      [
        "Ġpl",
        "ay"
      ],
      [
        "ic",
        "al"
      ],
      [
        "w",
        "are"
      ],
      [
        "Ġs",
        "o"
      ],
      [
        "Ġd",
        "o"
      ],
      [
        "us",
        "s"
      ],
      [
        "Ġper",
        "cent"
      ],
      [
        "Ġ",
        "5"
      ],
      [
        "ect",
        "ed"
      ],
      [
        "ro",
        "p"
      ],
      [
        "Ġyear",
        "s"
      ],
      [
        "ull",
        "qu"
      ],
      [
        "l",
        "and"
      ],
      [
        "Ġj",
        "ust"
      ],
      [
        "t",
        "le"
      ],
      [
        "c",
        "o"
      ],
      [
        "Ġt",
        "ime"
      ],
      [
        "ing",
        "ton"
      ],
      [
        "is",
        "ter"
      ],
      [
        "or",
        "ts"
      ],
      [
        "in",
        "a"
      ],
      [
        "Ġd",
        "es"
      ],
      [
        "Ġto",
        "day"
      ],
      [
        "Ġde",
        "f"
      ],
      [
        "Ġs",
        "ur"
      ],
      [
        "Ġs",
        "ou"
      ],
      [
        "Ġ",
        "6"
      ],
      [
        "ow",
        "er"
      ],
      [
        "Ġim",
        "p"
      ],
      [
        "Ġs",
        "ome"
      ],
      [
        "Ġs",
        "oft"
      ],
      [
        "el",
        "y"
      ],
      [
        "Ġs",
        "w"
      ],
      [
        "Ġsec",
        "ur"
      ],
      [
        "Ġd",
        "own"
      ],
      [
        "w",
        "n"
      ],
      [
        "Ġb",
        "ack"
      ],
      [
        "Ġst",
        "ates"
      ],
      [
        "l",
        "ine"
      ],
      [
        "Ġs",
        "al"
      ],
      [
        "ol",
        "l"
      ],
      [
        "tor",
        "y"
      ],
      [
        "Ġh",
        "er"
      ],
      [
        "in",
        "ess"
      ],
      [
        "os",
        "e"
      ],
      [
        "Ġt",
        "ec"
      ],
      [
        "Ġres",
        "earch"
      ],
      [
        "i",
        "er"
      ],
      [
        "Ġrec",
        "ord"
      ],
      [
        "Ġb",
        "ro"
      ],
      [
        "f",
        "f"
      ],
      [
        "Ġr",
        "un"
      ],
      [
        "ul",
        "t"
      ],
      [
        "Ġban",
        "k"
      ],
      [
        "Ġann",
        "oun"
      ],
      [
        "l",
        "es"
      ],
      [
        "Ġpro",
        "d"
      ],
      [
        "Ġfin",
        "al"
      ],
      [
        "v",
        "ent"
      ],
      [
        "Ġc",
        "our"
      ],
      [
        "Ġin",
        "t"
      ],
      [
        "is",
        "ts"
      ],
      [
        "ow",
        "s"
      ],
      [
        "aj",
        "af"
      ],
      [
        "Ġc",
        "ap"
      ],
      [
        "Ġmon",
        "th"
      ],
      [
        "it",
        "al"
      ],
      [
        "Ġm",
        "ak"
      ],
      [
        "us",
        "e"
      ],
      [
        "Ġk",
        "ill"
      ],
      [
        "ug",
        "h"
      ],
      [
        "in",
        "es"
      ],
      [
        "Ġc",
        "ity"
      ],
      [
        "Ġde",
        "m"
      ],
      [
        "ab",
        "le"
      ],
      [
        "m",
        "s"
      ],
      [
        "Ġmin",
        "ister"
      ],
      [
        "b",
        "all"
      ],
      [
        "g",
        "h"
      ],
      [
        "g",
        "er"
      ],
      [
        "Ġintern",
        "et"
      ],
      [
        "it",
        "ies"
      ],
      [
        "Ġat",
        "hens"
      ],
      [
        "os",
        "s"
      ],
      [
        "o",
        "k"
      ],
      [
        "Ġolympic",
        "s"
      ],
      [
        "Ġbus",
        "iness"
      ],
      [
        "Ġsoft",
        "ware"
      ],
      [
        "yst",
        "em"
      ],
      [
        "Ġb",
        "ig"
      ],
      [
        "Ġd",
        "ay"
      ],
      [
        "Ġg",
        "ames"
      ],
      [
        "Ġoff",
        "er"
      ],
      [
        "i",
        "x"
      ],
      [
        "Ġt",
        "er"
      ],
      [
        "it",
        "s"
      ],
      [
        "ol",
        "og"
      ],
      [
        "Ġc",
        "ar"
      ],
      [
        "ust",
        "ral"
      ],
      [
        "Ġw",
        "on"
      ],
      [
        "e",
        "p"
      ],
      [
        "ic",
        "s"
      ],
      [
        "Ġm",
        "ay"
      ],
      [
        "is",
        "e"
      ],
      [
        "Ġas",
        "s"
      ],
      [
        "ir",
        "d"
      ],
      [
        "Ġd",
        "r"
      ],
      [
        "Ġe",
        "lect"
      ],
      [
        "Ġqu",
        "arter"
      ],
      [
        "f",
        "t"
      ],
      [
        "ic",
        "ros"
      ],
      [
        "u",
        "al"
      ],
      [
        "v",
        "ed"
      ],
      [
        "Ġhe",
        "lp"
      ],
      [
        "Ġl",
        "ong"
      ],
      [
        "Ġl",
        "i"
      ],
      [
        "Ġe",
        "con"
      ],
      [
        "Ġecon",
        "om"
      ],
      [
        "ullqu",
        "ote"
      ],
      [
        "Ġv",
        "ic"
      ],
      [
        "Ġs",
        "ystem"
      ],
      [
        "Ġsup",
        "p"
      ],
      [
        "o",
        "d"
      ],
      [
        "u",
        "ch"
      ],
      [
        "Ġm",
        "us"
      ],
      [
        "as",
        "on"
      ],
      [
        "Ġf",
        "ed"
      ],
      [
        "ap",
        "p"
      ],
      [
        "Ġcount",
        "ry"
      ],
      [
        "i",
        "ed"
      ],
      [
        "Ġofficial",
        "s"
      ],
      [
        "i",
        "ous"
      ],
      [
        "Ġne",
        "xt"
      ],
      [
        "Ġc",
        "ol"
      ],
      [
        "at",
        "er"
      ],
      [
        "Ġcon",
        "f"
      ],
      [
        "Ġo",
        "ther"
      ],
      [
        "g",
        "r"
      ],
      [
        "l",
        "ing"
      ],
      [
        "et",
        "s"
      ],
      [
        "Ġ",
        "7"
      ],
      [
        "ec",
        "e"
      ],
      [
        "Ġtec",
        "hn"
      ],
      [
        "Ġameric",
        "an"
      ],
      [
        "Ġg",
        "r"
      ],
      [
        "k",
        "ed"
      ],
      [
        "b",
        "s"
      ],
      [
        "Ġs",
        "he"
      ],
      [
        "g",
        "le"
      ],
      [
        "icros",
        "oft"
      ],
      [
        "Ġw",
        "om"
      ],
      [
        "Ġre",
        "le"
      ],
      [
        "Ġn",
        "or"
      ],
      [
        "Ġn",
        "etw"
      ],
      [
        "t",
        "p"
      ],
      [
        "Ġ",
        "8"
      ],
      [
        "Ġm",
        "ost"
      ],
      [
        "Ġst",
        "ate"
      ],
      [
        "Ġserv",
        "ice"
      ],
      [
        "Ġt",
        "arg"
      ],
      [
        "Ġsecur",
        "ity"
      ],
      [
        "p",
        "h"
      ],
      [
        "ing",
        "s"
      ],
      [
        "Ġg",
        "u"
      ],
      [
        "Ġl",
        "arg"
      ],
      [
        "and",
        "s"
      ],
      [
        "m",
        "ed"
      ],
      [
        "el",
        "s"
      ],
      [
        "en",
        "c"
      ],
      [
        "a",
        "ir"
      ],
      [
        "Ġs",
        "ay"
      ],
      [
        "Ġto",
        "p"
      ],
      [
        "Ġn",
        "ational"
      ],
      [
        "ur",
        "ing"
      ],
      [
        "a",
        "z"
      ],
      [
        "i",
        "ent"
      ],
      [
        "Ġt",
        "ri"
      ],
      [
        "an",
        "ge"
      ],
      [
        "Ġun",
        "der"
      ],
      [
        "n",
        "ed"
      ],
      [
        "Ġre",
        "l"
      ],
      [
        "Ġch",
        "amp"
      ],
      [
        "Ġn",
        "ear"
      ],
      [
        "ment",
        "s"
      ],
      [
        "Ġop",
        "en"
      ],
      [
        "Ġde",
        "p"
      ],
      [
        "Ġcour",
        "t"
      ],
      [
        "he",
        "s"
      ],
      [
        "Ġreport",
        "ed"
      ],
      [
        "oo",
        "d"
      ],
      [
        "Ġb",
        "illion"
      ],
      [
        "Ġ1",
        "5"
      ],
      [
        "Ġal",
        "s"
      ],
      [
        "Ġp",
        "o"
      ],
      [
        "Ġp",
        "ublic"
      ],
      [
        "Ġth",
        "ro"
      ],
      [
        "ec",
        "ut"
      ],
      [
        "Ġv",
        "i"
      ],
      [
        "Ġc",
        "all"
      ],
      [
        "Ġgre",
        "ece"
      ],
      [
        "ord",
        "ing"
      ],
      [
        "Ġop",
        "er"
      ],
      [
        "Ġ1",
        "9"
      ],
      [
        "Ġen",
        "g"
      ],
      [
        "Ġgro",
        "w"
      ],
      [
        "b",
        "le"
      ],
      [
        "Ġh",
        "ome"
      ],
      [
        "Ġy",
        "ou"
      ],
      [
        "Ġannoun",
        "ced"
      ],
      [
        "l",
        "ud"
      ],
      [
        "g",
        "est"
      ],
      [
        "le",
        "y"
      ],
      [
        "Ġsh",
        "ow"
      ],
      [
        "Ġsal",
        "es"
      ],
      [
        "a",
        "res"
      ],
      [
        "f",
        "ore"
      ],
      [
        "Ġa",
        "ustral"
      ],
      [
        "Ġtarg",
        "et"
      ],
      [
        "Ġg",
        "ian"
      ],
      [
        "Ġnew",
        "s"
      ],
      [
        "Ġr",
        "uss"
      ]
    ]
  }
}